{"<s>":0,"<pad>":1,"</s>":2,"<unk>":3,"<mask>":4,"!":5,"\"":6,"#":7,"$":8,"%":9,"&":10,"'":11,"(":12,")":13,"*":14,"+":15,",":16,"-":17,".":18,"/":19,"0":20,"1":21,"2":22,"3":23,"4":24,"5":25,"6":26,"7":27,"8":28,"9":29,":":30,";":31,"<":32,"=":33,">":34,"?":35,"@":36,"A":37,"B":38,"C":39,"D":40,"E":41,"F":42,"G":43,"H":44,"I":45,"J":46,"K":47,"L":48,"M":49,"N":50,"O":51,"P":52,"Q":53,"R":54,"S":55,"T":56,"U":57,"V":58,"W":59,"X":60,"Y":61,"Z":62,"[":63,"\\":64,"]":65,"^":66,"_":67,"`":68,"a":69,"b":70,"c":71,"d":72,"e":73,"f":74,"g":75,"h":76,"i":77,"j":78,"k":79,"l":80,"m":81,"n":82,"o":83,"p":84,"q":85,"r":86,"s":87,"t":88,"u":89,"v":90,"w":91,"x":92,"y":93,"z":94,"{":95,"|":96,"}":97,"~":98,"¡":99,"¢":100,"£":101,"¤":102,"¥":103,"¦":104,"§":105,"¨":106,"©":107,"ª":108,"«":109,"¬":110,"®":111,"¯":112,"°":113,"±":114,"²":115,"³":116,"´":117,"µ":118,"¶":119,"·":120,"¸":121,"¹":122,"º":123,"»":124,"¼":125,"½":126,"¾":127,"¿":128,"À":129,"Á":130,"Â":131,"Ã":132,"Ä":133,"Å":134,"Æ":135,"Ç":136,"È":137,"É":138,"Ê":139,"Ë":140,"Ì":141,"Í":142,"Î":143,"Ï":144,"Ð":145,"Ñ":146,"Ò":147,"Ó":148,"Ô":149,"Õ":150,"Ö":151,"×":152,"Ø":153,"Ù":154,"Ú":155,"Û":156,"Ü":157,"Ý":158,"Þ":159,"ß":160,"à":161,"á":162,"â":163,"ã":164,"ä":165,"å":166,"æ":167,"ç":168,"è":169,"é":170,"ê":171,"ë":172,"ì":173,"í":174,"î":175,"ï":176,"ð":177,"ñ":178,"ò":179,"ó":180,"ô":181,"õ":182,"ö":183,"÷":184,"ø":185,"ù":186,"ú":187,"û":188,"ü":189,"ý":190,"þ":191,"ÿ":192,"Ā":193,"ā":194,"Ă":195,"ă":196,"Ą":197,"ą":198,"Ć":199,"ć":200,"Ĉ":201,"ĉ":202,"Ċ":203,"ċ":204,"Č":205,"č":206,"Ď":207,"ď":208,"Đ":209,"đ":210,"Ē":211,"ē":212,"Ĕ":213,"ĕ":214,"Ė":215,"ė":216,"Ę":217,"ę":218,"Ě":219,"ě":220,"Ĝ":221,"ĝ":222,"Ğ":223,"ğ":224,"Ġ":225,"ġ":226,"Ģ":227,"ģ":228,"Ĥ":229,"ĥ":230,"Ħ":231,"ħ":232,"Ĩ":233,"ĩ":234,"Ī":235,"ī":236,"Ĭ":237,"ĭ":238,"Į":239,"į":240,"İ":241,"ı":242,"Ĳ":243,"ĳ":244,"Ĵ":245,"ĵ":246,"Ķ":247,"ķ":248,"ĸ":249,"Ĺ":250,"ĺ":251,"Ļ":252,"ļ":253,"Ľ":254,"ľ":255,"Ŀ":256,"ŀ":257,"Ł":258,"ł":259,"Ń":260,"Ġd":261,"Ġe":262,"Ġde":263,"Ġa":264,"ra":265,"os":266,"Ġp":267,"Ġc":268,"nt":269,"es":270,"er":271,"or":272,"as":273,"Ġs":274,"ad":275,"is":276,"in":277,"ar":278,"Ã£":279,"ia":280,"Ġco":281,"re":282,"Ã£o":283,"Ġn":284,"Ġo":285,"ic":286,"Ġm":287,"Ã§":288,"qu":289,"al":290,"ro":291,"an":292,"Ġt":293,"Ġf":294,"ent":295,"id":296,"Ã©":297,"en":298,"um":299,"it":300,"em":301,"on":302,"el":303,"Ġdo":304,"Ġqu":305,"Ġcom":306,"am":307,"st":308,"Ã¡":309,"Ġem":310,"Ġda":311,"ĠC":312,"Ġum":313,"do":314,"ri":315,"ĠA":316,"ÃŃ":317,"Ã§Ã£o":318,"ĠS":319,"il":320,"ol":321,"Ġ1":322,"Ġque":323,"at":324,"ara":325,"ĠP":326,"ĠM":327,"Ġ(":328,"Ġv":329,"im":330,"Ġse":331,"ul":332,"Ġ2":333,"un":334,"ei":335,"ĠE":336,"Ġno":337,"Ġre":338,"Ġl":339,"ist":340,"ou":341,"Ã³":342,"ado":343,"iv":344,"ut":345,"ĠB":346,"ci":347,"Ġb":348,"et":349,"ente":350,"Ġpara":351,"ec":352,"om":353,"de":354,"res":355,"ĠR":356,"us":357,"Ġ20":358,"Ġg":359,"ĠD":360,"Ġuma":361,"ica":362,"ĠF":363,"ĠT":364,"Ġna":365,"ant":366,"ig":367,"Ãª":368,"Ġin":369,"ĠL":370,"Ġcon":371,"Ġest":372,"ais":373,"Ġfo":374,"Ġpor":375,"ĠÃ©":376,"io":377,"Ãµ":378,"Ãµes":379,"Ġ|":380,"idad":381,"ĠN":382,"ĠO":383,"Ġsu":384,"Ġ||":385,"Ġ19":386,"aÃ§Ã£o":387,"ha":388,"ĠG":389,"se":390,"ada":391,"Ġpro":392,"oc":393,"da":394,"le":395,"ĠI":396,"ura":397,"nc":398,"Ġes":399,"Ġas":400,"ho":401,"iz":402,"te":403,"âĢ":404,"ta":405,"Ġos":406,"ĠJ":407,"Ġj":408,"ir":409,"ĠÃ":410,"Ġex":411,"Ġfoi":412,"Ġcomo":413,"Ã§Ãµes":414,"era":415,"og":416,"idade":417,"ras":418,"ento":419,"ac":420,"to":421,"po":422,"gu":423,"so":424,"Ġpel":425,"Ġdos":426,"ados":427,"ed":428,"int":429,"ando":430,"ido":431,"ram":432,"ĠH":433,"Ġpo":434,"Ġan":435,"Ãº":436,"Ġat":437,"ito":438,"Ġal":439,"Ġdes":440,"ran":441,"ur":442,"ico":443,"eg":444,"ĠV":445,"Ã©m":446,"eiro":447,"Ġ\"":448,"ag":449,"ern":450,"Ġap":451,"Ġh":452,"av":453,"ores":454,"ria":455,"Ġ-":456,"ĠU":457,"ob":458,"ros":459,"art":460,"orm":461,"ov":462,"ĠâĢ":463,"if":464,"ab":465,"ai":466,"Ġser":467,"Ġ200":468,"Ġmais":469,"Ġ201":470,"Ã¡ri":471,"ers":472,"Ġao":473,"Ġent":474,"ida":475,"Ġcont":476,"ial":477,"ev":478,"ort":479,"ĠnÃ£o":480,"he":481,"rim":482,"ap":483,"amb":484,"co":485,"ncia":486,"ip":487,"ub":488,"Ġsua":489,"eira":490,"est":491,"ce":492,"ĠÃł":493,"ru":494,"ens":495,"00":496,"Ã§a":497,"ion":498,"od":499,"cion":500,"mo":501,"la":502,"Ġtem":503,"mente":504,"ista":505,"Ġdas":506,"ing":507,"Ġou":508,"ĠW":509,"19":510,"ot":511,"Ġper":512,"Ã¢":513,"Ġcomp":514,"Ġseu":515,"Ġter":516,"Ġint":517,"Ġac":518,"Ġesp":519,"ambÃ©m":520,"Ġpr":521,"emb":522,"du":523,"ass":524,"ve":525,"ĠK":526,"Ġar":527,"endo":528,"Ãªncia":529,"Ġout":530,"ez":531,"Ġ3":532,"and":533,"),":534,"ina":535,"ĠtambÃ©m":536,"ora":537,"ess":538,"ont":539,"ib":540,"aÃ§Ãµes":541,"Ġres":542,"adas":543,"amente":544,"ĠEst":545,"col":546,"orn":547,"Ġen":548,"icos":549,"ch":550,"az":551,"Ġtra":552,"Ġim":553,"rasil":554,"ian":555,"me":556,"Ġprim":557,"ud":558,"pl":559,"ĠUn":560,"eb":561,"iÃ§Ã£o":562,"end":563,"Ġpela":564,"ĠAl":565,"Ã´":566,").":567,"ÃŃt":568,"Ġdi":569,"amento":570,"idos":571,"Ġsob":572,"pe":573,"und":574,"ulo":575,"Ġpelo":576,"nte":577,"vel":578,"Ġof":579,"..":580,"ĠÃ¡":581,"Ġentre":582,"esso":583,"pres":584,"Ġdis":585,"Ġpre":586,"cl":587,"icas":588,"ult":589,"Ġpos":590,"eu":591,"20":592,"Ãªs":593,"ug":594,"ter":595,"Ġpart":596,"Ġele":597,"anto":598,"Ġnos":599,"rit":600,"que":601,"Ã¡rio":602,"Ġor":603,"Ġab":604,"Ġam":605,"aliz":606,"Ġch":607,"ino":608,"ĠEm":609,"embro":610,"Ġpar":611,"ca":612,"Ġfil":613,"pos":614,"Ġel":615,"Ġnov":616,"ios":617,"ĠsÃ£o":618,"rio":619,"imento":620,"Ġ18":621,"Ã§o":622,"undo":623,"Ġ4":624,"Ġmu":625,"ert":626,"ador":627,"ĠâĢĶ":628,"ĠMar":629,"go":630,"ual":631,"orte":632,"Ãªn":633,"entes":634,"Ġmas":635,"Ġob":636,"op":637,"Ã©c":638,"entos":639,"Ġmar":640,"iu":641,"Ġext":642,"Ġform":643,"Em":644,"aram":645,"nd":646,"Ġ199":647,"Ġsobre":648,"Ġsem":649,"Ġass":650,"sa":651,"istas":652,"cional":653,"Ġmes":654,"Ã³s":655,"ira":656,"ato":657,"ade":658,"ante":659,"Ġcl":660,"Ġanos":661,"ano":662,"per":663,"idades":664,"Ġreg":665,"Ġant":666,"Ġcons":667,"lia":668,"ĠBrasil":669,"inal":670,"Ġcas":671,"inha":672,"anÃ§":673,"itu":674,"ma":675,"ias":676,"ĠCom":677,"ivo":678,"ivers":679,"ĠĠ":680,"bl":681,"fer":682,"|-":683,"ÃŃs":684,"sp":685,"ĠCh":686,"bal":687,"ard":688,"Ã³ria":689,"ja":690,"cio":691,"rav":692,"hec":693,"iss":694,"Ġpres":695,"Ġesc":696,"Ġnas":697,"Âł":698,"ÃŃn":699,"ĠCon":700,"ust":701,"Ġrec":702,"Ġcar":703,"Ġon":704,"der":705,"ĠIn":706,"ana":707,"Ġus":708,"antes":709,"vol":710,"FA":711,"ĠRe":712,"pre":713,"ast":714,"form":715,"Ġag":716,"Ġera":717,"Ġro":718,"iÃ£o":719,"iva":720,"ero":721,"Ġ5":722,"ĠâĢĵ":723,"ss":724,"elh":725,"ava":726,"anh":727,"rat":728,"Ġforam":729,"Ã´n":730,"raf":731,"ase":732,"Ġcor":733,"rÃ¡":734,"itos":735,"Ã¢n":736,"min":737,"ĠPa":738,"Ġha":739,"color":740,"cias":741,"Ã©r":742,"Ġjog":743,"adores":744,"ĠatÃ©":745,"ost":746,"gcolor":747,"ral":748,"aria":749,"Ġenc":750,"aix":751,"Ġseg":752,"Ã¡rios":753,"indo":754,"Ġcol":755,"ĠAr":756,"ita":757,"cia":758,"erra":759,"=#":760,"ular":761,"Ġmai":762,"Ġseus":763,"Ġbgcolor":764,"ite":765,"Ġloc":766,"ilh":767,"ign":768,"ific":769,"ord":770,"ranc":771,"Ġpass":772,"Ġdest":773,"uro":774,"Ġad":775,"Qu":776,"Ġvez":777,"unt":778,"va":779,"Ġcam":780,"inh":781,"cip":782,"Ġpol":783,"Ġdire":784,"ima":785,"odo":786,"Ġdia":787,"\",":788,"esa":789,"man":790,"200":791,"Ġtempo":792,"isÃ£o":793,"enas":794,"idas":795,"port":796,"Ġdesc":797,"Ġqual":798,"ĠDe":799,"agem":800,"Ġprin":801,"Ġsegu":802,"ema":803,"Ġinter":804,"Ġtrabal":805,"Ġfaz":806,"ernas":807,"urante":808,"rande":809,"vi":810,"jet":811,"rad":812,"ĠSÃ£o":813,"Ġtorn":814,"Ã³r":815,"Ã©d":816,"ĠAm":817,"ismo":818,"ĠestÃ¡":819,"up":820,"Ġpl":821,"eral":822,"Ġ198":823,"lo":824,"pois":825,"ix":826,"igaÃ§Ãµes":827,"eiros":828,"ela":829,"Ġalg":830,"Ġonde":831,"ebol":832,"Ġconst":833,"fe":834,"Ġ6":835,"ver":836,"Ġcidade":837,"Ġpa":838,"ĠÃº":839,"icip":840,"rada":841,"inda":842,"cor":843,"ect":844,"\".":845,"este":846,"rig":847,"Ġnome":848,"Ġano":849,"oria":850,"Ã¡t":851,"Ġtran":852,"Ġcap":853,"Ġexternas":854,"Ã³p":855,"her":856,"Ġconhec":857,"LigaÃ§Ãµes":858,"lic":859,"rib":860,"Ġtod":861,"Ġquando":862,"rafia":863,"ĠNo":864,"ak":865,"ĠCar":866,"uns":867,"Ġpesso":868,"Ãºbl":869,"ĠAn":870,"ĠSt":871,"ĠX":872,"Ġsub":873,"Ġposs":874,"Ã©ri":875,"Ġpop":876,"itar":877,"ĠGu":878,"Ġaut":879,"Ġprincip":880,"Ġmesmo":881,"mes":882,"ĠOs":883,"acional":884,"dem":885,"aneiro":886,"utebol":887,"ele":888,"pon":889,"elo":890,"Ġind":891,"overn":892,"Ġrel":893,"Ãªncias":894,"Ġcontra":895,"ex":896,"ew":897,"enc":898,"Ġ7":899,"201":900,"ĠlanÃ§":901,"Âº":902,"via":903,"Ġparte":904,"ior":905,"Ã©s":906,"ril":907,"enh":908,"Ġprimeiro":909,"istÃ³ria":910,"Ġpode":911,"ÃŃp":912,"Ãªm":913,"eric":914,"ĠJo":915,"Ġaos":916,"lb":917,"olog":918,"clu":919,"imo":920,"Ġfam":921,"anha":922,"erc":923,"Ġequ":924,"ay":925,"Ġver":926,"con":927,"Ã§as":928,"ceb":929,"ĠY":930,"ĠPort":931,"icaÃ§Ã£o":932,"Ġ0":933,"Ġ197":934,"ital":935,"Ã©t":936,"Ġsuas":937,"ie":938,"duz":939,"Ġra":940,"Ġ8":941,"Ġmuito":942,"ide":943,"pera":944,"ine":945,"ge":946,"uc":947,"udo":948,"ĠThe":949,"Ġsendo":950,"Ġdois":951,"icial":952,"Ġ9":953,"oi":954,"ga":955,"les":956,"atura":957,"Ġprimeira":958,"gram":959,"ÃŃvel":960,"Ãºs":961,"Ġdu":962,"Ġvol":963,"Ġset":964,"Ġart":965,"ne":966,"ĠjÃ¡":967,"Com":968,"Ġthe":969,"rea":970,"ĠQu":971,"eio":972,"ĠSu":973,"ĠEstados":974,"iliz":975,"Ġdist":976,"of":977,"irm":978,"ional":979,"ÃŃm":980,"Ġ10":981,"ĠUnidos":982,"Ġdurante":983,"Ġainda":984,"ĠPro":985,"ÃŃlia":986,"gua":987,"ĠCl":988,"Ġoutros":989,"gan":990,"Ġed":991,"Ġaf":992,"FAFA":993,"Ġtr":994,"Ġdepois":995,"Ġencont":996,"volv":997,"erv":998,"eve":999,"let":1000,"dio":1001,"lt":1002,"ugu":1003,"18":1004,"raÃ§Ã£o":1005,"Ġmen":1006,"ĠCam":1007,"Ġ17":1008,"Ġprof":1009,"ret":1010,"ivos":1011,"resent":1012,"ÃŃcio":1013,"ares":1014,"ric":1015,"Ġfinal":1016,"âĢĵ":1017,"ena":1018,"Ġ15":1019,"ĠZ":1020,"Ġmil":1021,"Ġrealiz":1022,"com":1023,"Ġis":1024,"âĸ":1025,"rar":1026,"Ġtrans":1027,"rupo":1028,"Ġapresent":1029,"âĢĿ":1030,"Ġca":1031,"iÃ§Ãµes":1032,"ĠpaÃŃs":1033,"Ġproc":1034,"Ġcan":1035,"Ġ196":1036,"rito":1037,"Ġdez":1038,"Ġcham":1039,"Ġfal":1040,"idera":1041,"Ġun":1042,"atro":1043,"âĸº":1044,"ĠapÃ³s":1045,"ĠPaulo":1046,"Ġgrande":1047,"ÃŃst":1048,"veis":1049,"erg":1050,"Ġgovern":1051,"Ġdif":1052,"idente":1053,"Ġinst":1054,"Ġdef":1055,"ell":1056,"Ġport":1057,"Ġapenas":1058,"igo":1059,"Ġcer":1060,"osto":1061,"AR":1062,"Ġcome":1063,"lio":1064,"Ġela":1065,"Ġmaior":1066,"ĠRio":1067,"Ãºm":1068,"Fil":1069,"Ġforma":1070,"pa":1071,"...":1072,"inho":1073,"ĠEle":1074,"ok":1075,"gl":1076,"Ġdesen":1077,"ĠEsp":1078,"Ġand":1079,"Ġequip":1080,"ĠPor":1081,"iais":1082,"elho":1083,"Ġinf":1084,"Ġfor":1085,"ulaÃ§Ã£o":1086,"Ġpe":1087,"Ġcr":1088,"Ġev":1089,"ultura":1090,"Ã¡ria":1091,"ron":1092,"ĠUnivers":1093,"Ġinclu":1094,"Ġr":1095,"ĠEs":1096,"unda":1097,"dos":1098,"uma":1099,"des":1100,"iam":1101,"itas":1102,"ĠmÃºs":1103,"unic":1104,"Ġfe":1105,"Ġespec":1106,"Ġprov":1107,"Ġreceb":1108,"anda":1109,"ĠÃłs":1110,"put":1111,"Ġprincipal":1112,"Ã©rie":1113,"Ġmat":1114,"ĠInt":1115,"Ġmet":1116,"ĠNov":1117,"km":1118,"Ġ16":1119,"Ġhab":1120,"ĠpolÃŃt":1121,"ĠAs":1122,"Ġconf":1123,"elhor":1124,"ĠSant":1125,"Ã¡vel":1126,"duÃ§Ã£o":1127,"ill":1128,"Ġma":1129,"Ġpoder":1130,"Ġliv":1131,"Ġtodos":1132,"Ġsol":1133,"bo":1134,"Ġgu":1135,"ĠâĢľ":1136,"ĠLe":1137,"rut":1138,"Ġmed":1139,"ologia":1140,"Ġfic":1141,"Ġhom":1142,"ĠtrÃªs":1143,"Ġbrasil":1144,"ĠAt":1145,"iano":1146,"dut":1147,"Ġlev":1148,"ht":1149,"Ã³l":1150,"Ġret":1151,"Ġempres":1152,"Ġdiv":1153,"Ġparticip":1154,"Ġinv":1155,"Ġmod":1156,"erson":1157,"21":1158,"Ġbem":1159,"anos":1160,"Ã³g":1161,"ĠPar":1162,"cent":1163,"ntes":1164,"Ġho":1165,"ient":1166,"Ġvoc":1167,"199":1168,"anc":1169,"ublic":1170,"son":1171,"Ġorig":1172,"quer":1173,"Ã³rio":1174,"present":1175,"ĠÃī":1176,"II":1177,"rou":1178,"Ġav":1179,"inas":1180,"osa":1181,"Ġpont":1182,"ugal":1183,"na":1184,"ik":1185,"cul":1186,"Ã©ci":1187,"Ġfun":1188,"ĠMa":1189,"Ġfre":1190,"rop":1191,"ire":1192,"Ġescol":1193,"Ġfilme":1194,"Ġman":1195,"Ġ12":1196,"oca":1197,"pt":1198,"IN":1199,"atal":1200,"ate":1201,"Ã¡rias":1202,"unicÃŃp":1203,"Ġfund":1204,"ĠOl":1205,"eram":1206,"ici":1207,"Ġto":1208,"Ġcria":1209,"10":1210,"lu":1211,"je":1212,"Ã³n":1213,"ulho":1214,"hos":1215,"isa":1216,"Ġcri":1217,"rado":1218,"Ġduas":1219,"ĠPara":1220,"ĠCol":1221,"ĠSp":1222,"Ġpessoas":1223,"Ġut":1224,"inu":1225,"izaÃ§Ã£o":1226,"ĠEx":1227,"ubro":1228,"mon":1229,"ilidade":1230,"Ġcheg":1231,"Ġestado":1232,"iga":1233,"Ġvida":1234,"Ġdev":1235,"Ġconv":1236,"unho":1237,"ĠAp":1238,"ece":1239,"all":1240,"mit":1241,"esse":1242,"eiras":1243,"dade":1244,"reira":1245,"Ã¢m":1246,"Ã§os":1247,"Ġdec":1248,"ĠÃ¡lb":1249,"ice":1250,"Ġconstru":1251,"ĠSoc":1252,"22":1253,"ĠPortugal":1254,"Ġsist":1255,"ĠAnt":1256,"ever":1257,"ĠĠĠĠ":1258,"ata":1259,"ivas":1260,"Ġdifer":1261,"ĠsÃ©c":1262,"gem":1263,"tura":1264,"iana":1265,"Ġsido":1266,"ĠentÃ£o":1267,"Ġ14":1268,"Ġ195":1269,"Ġimport":1270,"ula":1271,"Ġbase":1272,"Ġ194":1273,"Ġestre":1274,"ĠAss":1275,"Ġcent":1276,"ĠÃ¡rea":1277,"Ġcin":1278,"Filmes":1279,"za":1280,"peon":1281,"ĠpÃºbl":1282,"Est":1283,"Ġ13":1284,"quanto":1285,"ribu":1286,"ĠÃºlt":1287,"Ġmin":1288,"No":1289,"ang":1290,"segu":1291,"ĠcomeÃ§":1292,"Ġsegundo":1293,"ogos":1294,"Ġprogram":1295,"Ġsim":1296,"Ġ11":1297,"ry":1298,"Ã©rio":1299,"Ġutiliz":1300,"Ġseguint":1301,"Ġcada":1302,"ĠfamÃŃlia":1303,"Re":1304,"Ġgrupo":1305,"Ġsa":1306,"Os":1307,"ube":1308,"ense":1309,"Ã´m":1310,"Ġaqu":1311,"sÃ£o":1312,"our":1313,"Ġpelos":1314,"ĠsÃ©rie":1315,"ĠespÃ©ci":1316,"Ġpes":1317,"esta":1318,"ical":1319,"Ġprop":1320,"ack":1321,"ordo":1322,"Al":1323,"ach":1324,"ĠPe":1325,"ografia":1326,"mos":1327,"ental":1328,"Ġdesde":1329,"Ġrepresent":1330,"ĠregiÃ£o":1331,"ĠLu":1332,"unto":1333,"Ġisso":1334,"ow":1335,"Ġlon":1336,"Ġamb":1337,"ĠnÃºm":1338,"ĠBar":1339,"tos":1340,"Ġconsidera":1341,"empl":1342,"ĠOr":1343,"ĠSe":1344,"sos":1345,"agens":1346,"Ġpodem":1347,"Ġcomun":1348,"red":1349,"ĠCor":1350,"Ver":1351,"Ġlocaliz":1352,"ĠÃ¡lbum":1353,"ulher":1354,"peonato":1355,"lex":1356,"Ġeste":1357,"emente":1358,"Ġoutras":1359,"das":1360,"Ġ193":1361,"tas":1362,"Ġval":1363,"Ġte":1364,"erto":1365,"ĠprÃ³p":1366,"Ġlug":1367,"ren":1368,"ĠVer":1369,"ogo":1370,"ph":1371,"Ġmundo":1372,"ĠÃģ":1373,"ĠJaneiro":1374,"ĠFl":1375,"tor":1376,"edade":1377,"Ġassim":1378,"Ġtel":1379,"ĠsÃ©culo":1380,"ende":1381,"Ġgrav":1382,"Ġcat":1383,"Ġpou":1384,"ich":1385,"Ã¢ncia":1386,"Ġpartir":1387,"ĠSul":1388,"Ġexist":1389,"ĠhistÃ³ria":1390,"Ġlocal":1391,"eria":1392,"Ġvis":1393,"ĠNa":1394,"Ġantes":1395,"abel":1396,"Ã¡l":1397,"Ġtinha":1398,"ĠAb":1399,"rem":1400,"ona":1401,"avam":1402,"Ġpossu":1403,"Ġoc":1404,"reg":1405,"Ġorgan":1406,"Ġpal":1407,"itt":1408,"Ġcond":1409,"ĠmÃ©d":1410,"Ġapar":1411,"ĠpopulaÃ§Ã£o":1412,"Ġtrabalho":1413,"evereiro":1414,"eta":1415,"Ġdesenvolv":1416,"hn":1417,"Ã¡s":1418,"Ġatu":1419,"ĠUniversidade":1420,"Ġsuc":1421,"Ġocor":1422,"Ġ,":1423,"ĠdÃ©c":1424,"ualmente":1425,"15":1426,"Ġestava":1427,"imentos":1428,"orro":1429,"ĠAc":1430,"Ġprojet":1431,"ins":1432,"los":1433,"Ã³ri":1434,"Ġhabit":1435,"ecess":1436,"Ġdeix":1437,"jo":1438,"issÃ£o":1439,"17":1440,"cos":1441,"Ġteve":1442,"ime":1443,"Ġintern":1444,"Ġcur":1445,"Ġ2010":1446,"ĠIs":1447,"De":1448,"Ġ2000":1449,"Ġrep":1450,"ede":1451,"Ġneg":1452,"Ġprodut":1453,"ĠmunicÃŃp":1454,"ĠEl":1455,"ĠJos":1456,"ÃŃf":1457,"amos":1458,"Ġatrav":1459,"nÃ§a":1460,"minist":1461,"Ġapro":1462,"Ġespecial":1463,"ĠEuro":1464,"Ġmelhor":1465,"ĠIm":1466,"dor":1467,"Ġsuper":1468,"Ġeles":1469,"cont":1470,"ĠFoi":1471,"ĠmÃºsica":1472,"23":1473,"Pro":1474,"car":1475,"Ġ.":1476,"Ġsal":1477,"rist":1478,"ond":1479,"undial":1480,"grafia":1481,"ĠFran":1482,"16":1483,"Ġacordo":1484,"reu":1485,"ĠhÃ¡":1486,"ola":1487,"Ġfazer":1488,"Ġsoc":1489,"Ġpublic":1490,"th":1491,"ĠEd":1492,"vo":1493,"Ġconc":1494,"alh":1495,"Ġ2008":1496,"Ġalguns":1497,"ĠnÃºmero":1498,"emas":1499,"Ġvezes":1500,"ÃŃmp":1501,"Âª":1502,"para":1503,"ari":1504,"uto":1505,"Ġme":1506,"ity":1507,"Ġ2006":1508,"enÃ§a":1509,"Ġapo":1510,"amentos":1511,"dic":1512,"pend":1513,"oci":1514,"Ġjaneiro":1515,"ĠPr":1516,"Ġmilh":1517,"ĠsÃ³":1518,"ĠestÃ£o":1519,"Ġalgum":1520,"The":1521,"ĠEn":1522,"eceu":1523,"Ġhavia":1524,"ĠNacional":1525,"Ġsetembro":1526,"Ġgoverno":1527,"Ġdezembro":1528,"Ġportugu":1529,"Ġtrabalh":1530,"Ġresult":1531,"Ġmaio":1532,"ton":1533,"Ġoutubro":1534,"ĠmarÃ§o":1535,"iaÃ§Ã£o":1536,"Ġenquanto":1537,"Ġinform":1538,"Ġdivers":1539,"ilo":1540,"12":1541,"Ġw":1542,"Ġgeral":1543,"Â²":1544,"Ġ2016":1545,"Ġ25":1546,"Ġhum":1547,"ila":1548,"Ġconsegu":1549,"ĠperÃŃ":1550,"Ġlugar":1551,"ĠalÃ©m":1552,"Ġhist":1553,"Ġ&":1554,"14":1555,"igos":1556,"Ġ30":1557,"ea":1558,"Ġsistema":1559,"Ġjogo":1560,"ĠTh":1561,"gre":1562,"ure":1563,"Ġpra":1564,"ete":1565,"osta":1566,"stitu":1567,"Ġnovo":1568,"Ġ2012":1569,"Ġjulho":1570,"oma":1571,"Ġagosto":1572,"ĠFranc":1573,"Ġeram":1574,"ong":1575,"Ã©l":1576,"ument":1577,"rom":1578,"ĠtÃŃt":1579,"Ġexempl":1580,"Ġcaus":1581,"ĠatravÃ©s":1582,"198":1583,"Ġperson":1584,"Ã¡tica":1585,"ĠAnd":1586,"ES":1587,"ef":1588,"Ġjunho":1589,"Ġ2007":1590,"Ġid":1591,"Ġtendo":1592,"ive":1593,"eto":1594,"riv":1595,"Ġdiz":1596,"af":1597,"Ġemb":1598,"Ġnecess":1599,"ificaÃ§Ã£o":1600,"Ġnorte":1601,"Ġimp":1602,"Ġmus":1603,"enÃ§Ã£o":1604,"Ġoficial":1605,"Ã¡g":1606,"Ġabril":1607,"In":1608,"Ġmor":1609,"rica":1610,"Ġnovembro":1611,"Ġcu":1612,"Ġservi":1613,"riz":1614,"Ġproduz":1615,"Ġrefer":1616,"ĠvocÃª":1617,"Ġder":1618,"Ġfez":1619,"ulos":1620,"ĠCent":1621,"=\"":1622,"Ġ24":1623,"Ġaj":1624,"Ġcant":1625,"Ġesta":1626,"duc":1627,"ĠDes":1628,"ĠÃ©p":1629,"ceu":1630,"isco":1631,"rÃ¡f":1632,"As":1633,"inos":1634,"Ġ2011":1635,"ĠMan":1636,"cios":1637,"ĠPal":1638,"almente":1639,"xim":1640,"Ġmeio":1641,"13":1642,"Ã³d":1643,"Ġmant":1644,"INE":1645,"Ġpap":1646,"Ã£os":1647,"Ġtar":1648,"FAFAFA":1649,"Ġnum":1650,"no":1651,"Con":1652,"Ġtot":1653,"Ar":1654,"ĠEstado":1655,"emin":1656,"Ġvers":1657,"ax":1658,"ĠÃºn":1659,"uÃ§Ã£o":1660,"ane":1661,"ecer":1662,"Ġestud":1663,"ĠinÃŃcio":1664,"Ġ2014":1665,"Ã©cn":1666,"Ġden":1667,"ĠvÃ¡rios":1668,"Ġ2009":1669,"ĠAg":1670,"aro":1671,"Ġcontinu":1672,"Ġmulher":1673,"Ġvi":1674,"Ġprec":1675,"ÃŃdo":1676,"atos":1677,"ĠPol":1678,"ĠPer":1679,"ativa":1680,"arac":1681,"ĠIntern":1682,"eno":1683,"Ġrev":1684,"Ġins":1685,"Ġir":1686,"OS":1687,"Ġtemporada":1688,"ipo":1689,"ation":1690,"Ġtodo":1691,"Ġquatro":1692,"ise":1693,"Ġ2013":1694,"opa":1695,"Ġobjet":1696,"ĠSocorro":1697,"Ġle":1698,"Ġdias":1699,"atch":1700,"Ġbanda":1701,"iblio":1702,"Ġil":1703,"ĠperÃŃodo":1704,"ua":1705,"icamente":1706,"Ġcompet":1707,"ĠMin":1708,"aturais":1709,"ĠAd":1710,"Ġtent":1711,"Ġ2015":1712,"one":1713,"ĠLINE":1714,"Des":1715,"ĠLINEAR":1716,"Ġrespon":1717,"evisÃ£o":1718,"ĠÃ©poca":1719,"Ġseja":1720,"ericano":1721,"uras":1722,"ĠEnt":1723,"Ġfin":1724,"000":1725,"ress":1726,"Ġpequ":1727,"Ġclass":1728,"ba":1729,"enho":1730,"Ġsent":1731,"Ġtornou":1732,"Ġvia":1733,"anÃ§a":1734,"ĠBo":1735,"ĠmunicÃŃpio":1736,"ĠSal":1737,"ĠSeg":1738,"Ġautor":1739,"ĠCan":1740,"Ġ/":1741,"ĠNova":1742,"Ġrela":1743,"eri":1744,"Ġ2005":1745,"Ġoutro":1746,"icaÃ§Ãµes":1747,"ornal":1748,"Ġcerca":1749,"tar":1750,"ount":1751,"Ġmost":1752,"Ġfevereiro":1753,"ĠIt":1754,"Ġescrit":1755,"asc":1756,"ĠLa":1757,"adr":1758,"Ġcasa":1759,"ruz":1760,"por":1761,"ivamente":1762,"olÃ³g":1763,"enda":1764,"Ġexpl":1765,"Ġmov":1766,"Ġtur":1767,"asse":1768,"ĠPl":1769,"Ġsab":1770,"Ġped":1771,"30":1772,"ĠMus":1773,"iver":1774,"ĠFil":1775,"Ġconhecido":1776,"11":1777,"Ġlado":1778,"Ġ2017":1779,"Ġmenos":1780,"Ġsitu":1781,"part":1782,"Ġcontro":1783,"ĠprÃ³":1784,"cionais":1785,"ĠSpac":1786,"Ġlut":1787,"Ġfutebol":1788,"iel":1789,"Ġfranc":1790,"Ãģ":1791,"Car":1792,"Ġseguinte":1793,"has":1794,"ĠFede":1795,"ĠespÃ©cie":1796,"ĠCo":1797,"Ġfl":1798,"Ġnova":1799,"Ġequipe":1800,"ĠJosÃ©":1801,"embros":1802,"ĠReg":1803,"itor":1804,"Ġig":1805,"Ġfim":1806,"isc":1807,"Ġgol":1808,"Ġsegunda":1809,"Ġdesta":1810,"Ġopera":1811,"Ġdescob":1812,"Ġmarc":1813,"ĠdÃ©cada":1814,"Ġleg":1815,"iar":1816,"Ġsom":1817,"'s":1818,"ĠJoÃ£o":1819,"Ġhabitantes":1820,"Ġmot":1821,"Ġpresidente":1822,"esar":1823,"Ġecon":1824,"Ġentanto":1825,"Ġcob":1826,"Ġdent":1827,"iram":1828,"Ġep":1829,"Ġqualquer":1830,"ĠMaria":1831,"Ġativ":1832,"Ġsign":1833,"ĠproduÃ§Ã£o":1834,"Ġtodas":1835,"Ġet":1836,"oso":1837,"Ġol":1838,"oss":1839,"Ġempresa":1840,"Ġirm":1841,"ze":1842,"Ġdevido":1843,"Ġbaix":1844,"reve":1845,"ĠCat":1846,"ĠGrande":1847,"umento":1848,"ĠCont":1849,"Ġ2018":1850,"ĠTe":1851,"clus":1852,"Ġsempre":1853,"erta":1854,"onhec":1855,"Ġdisput":1856,"ĠlÃŃn":1857,"Ġcultura":1858,"RA":1859,"ĠKitt":1860,"ulg":1861,"Ġcaso":1862,"ÃŃda":1863,"ier":1864,"Ġ2004":1865,"Ġsur":1866,"ubl":1867,"Ġganh":1868,"Ġquais":1869,"uel":1870,"Ġexp":1871,"Ġdem":1872,"ĠCal":1873,"ĠSa":1874,"aracter":1875,"ÃŃmpicos":1876,"ĠGuerra":1877,"197":1878,"Ġess":1879,"ĠPeak":1880,"cel":1881,"Ġpois":1882,"Ġfilho":1883,"ÃŃde":1884,"Ġgran":1885,"Ġexemplo":1886,"adora":1887,"Ġfac":1888,"At":1889,"Ġmud":1890,"ĠJogos":1891,"Ġterc":1892,"ĠUm":1893,"ques":1894,"Ġref":1895,"25":1896,"ĠSh":1897,"Ġarm":1898,"ris":1899,"ferÃªncias":1900,"ingu":1901,"iÃªncia":1902,"ale":1903,"ewatch":1904,"ĠSpacewatch":1905,"ĠOut":1906,"ĠtelevisÃ£o":1907,"Ġ2001":1908,"unci":1909,"ĠvÃ¡rias":1910,"Ġgra":1911,"Ġata":1912,"Ġcoloc":1913,"Ġtre":1914,"Ġmorte":1915,"aval":1916,"uais":1917,"entemente":1918,"eses":1919,"Ã©rica":1920,"Ġsex":1921,"ĠmilhÃµes":1922,"ĠÃ¡gua":1923,"ÃŃveis":1924,"Ġfer":1925,"Ġ23":1926,"Ġeu":1927,"ĠtÃŃtulo":1928,"ĠlanÃ§ado":1929,"Ġcomb":1930,"ke":1931,"Ġingl":1932,"ore":1933,"inado":1934,"Ġ=":1935,"ĠcomeÃ§ou":1936,"Ã¼":1937,"ger":1938,"land":1939,"Ġbrasileiro":1940,"Ġlib":1941,"eros":1942,"Ġprograma":1943,"Ġprobl":1944,"Ġprofiss":1945,"Ġz":1946,"Ġmuitos":1947,"ĠSil":1948,"Ġacab":1949,"Ġgen":1950,"amp":1951,"Ġcal":1952,"Futebol":1953,"iment":1954,"Ãºblica":1955,"ĠII":1956,"Ãºde":1957,"eraÃ§Ã£o":1958,"Ġ2002":1959,"las":1960,"Ġdirig":1961,"Ġtarde":1962,"ung":1963,"Ġalgumas":1964,"oz":1965,"Ġtom":1966,"ies":1967,"Ġlim":1968,"Ġinc":1969,"Ġpert":1970,"arÃ¡":1971,"omia":1972,"ĠCons":1973,"Ġinteg":1974,"Ġmon":1975,"Na":1976,"Ġesse":1977,"uda":1978,"lob":1979,"ĠFranÃ§a":1980,"24":1981,"ĠSanta":1982,"Ġanim":1983,"Ġcomplet":1984,"Ġjunt":1985,"are":1986,"ĠMas":1987,"iÃµes":1988,"ala":1989,"ĠMundial":1990,"Ap":1991,"Ġ26":1992,"Ġprocesso":1993,"Ġconqu":1994,"ival":1995,"Ġnacional":1996,"ĠGe":1997,"HistÃ³ria":1998,"ick":1999,"Ġmilitar":2000,"Ġ27":2001,"50":2002,"Ã¡veis":2003,"Ġquem":2004,"ind":2005,"ff":2006,"ĠLem":2007,"Ġestabel":2008,"center":2009,"ĠRep":2010,"Ãī":2011,"Ġsof":2012,"Ġ2019":2013,"Ġuso":2014,"iro":2015,"Ġarqu":2016,"Ġlivro":2017,"Ġpassou":2018,"ome":2019,"uv":2020,"Cl":2021,"arc":2022,"ĠRec":2023,"Ġ21":2024,"ON":2025,"ork":2026,"enso":2027,"ĠAlem":2028,"isto":2029,"oa":2030,"ons":2031,"iente":2032,"rag":2033,"Ġ28":2034,"Ġnot":2035,"Ġpesqu":2036,"enha":2037,"Ġsul":2038,"ades":2039,"bol":2040,"ĠediÃ§Ã£o":2041,"Ġessa":2042,"Ġinvest":2043,"Ã³t":2044,"gue":2045,"onte":2046,"Ġcab":2047,"ah":2048,"Ġadminist":2049,"Ġren":2050,"Ġsec":2051,"Ġ22":2052,"Ġtec":2053,"ly":2054,"feito":2055,"ight":2056,"An":2057,"Ġtal":2058,"ĠCas":2059,"Ġdisso":2060,"etr":2061,"leg":2062,"rutura":2063,"ecut":2064,"unicip":2065,"ĠMount":2066,"Futebolistas":2067,"ĠJohn":2068,"eza":2069,"Ġcir":2070,"ĠtÃ©cn":2071,"quia":2072,"ensÃ£o":2073,"Ġcarreira":2074,"itÃ³ria":2075,"Ġoriginal":2076,"ront":2077,"Ãªmio":2078,"ock":2079,"Ġincluindo":2080,"Ġ2020":2081,"Ġprojeto":2082,"Ġdisc":2083,"urso":2084,"Ġcres":2085,"Ġdefin":2086,"rin":2087,"ĠCopa":2088,"Naturais":2089,"Ġ2003":2090,"imos":2091,"ÃŃcia":2092,"ĠEla":2093,"ĠpÃºblico":2094,"Ã©n":2095,"ĠPart":2096,"depend":2097,"Ġexper":2098,"ck":2099,"Ġestad":2100,"Ġreal":2101,"Ġprom":2102,"ĠcrÃŃt":2103,"ĠrelaÃ§Ã£o":2104,"ama":2105,"panh":2106,"urg":2107,"Ġporque":2108,"EN":2109,"encia":2110,"Ġpouco":2111,"Ġmesma":2112,"Ã´nia":2113,"abora":2114,"Ġmuitas":2115,"ardo":2116,"ĠpolÃŃtica":2117,"Ġmom":2118,"ĠNew":2119,"ww":2120,"Ġjogos":2121,"estÃ£o":2122,"ĠRob":2123,"log":2124,"Ġdeve":2125,"Ġgrandes":2126,"Ġcaracter":2127,"Ġtotal":2128,"ER":2129,"ese":2130,"ĠInst":2131,"Ch":2132,"Ġrespons":2133,"rando":2134,"Ġbar":2135,"greja":2136,"ley":2137,"Ġconta":2138,"28":2139,"tou":2140,"AS":2141,"ĠTra":2142,"pect":2143,"Ġperman":2144,"26":2145,"Ġpai":2146,"Ġacont":2147,"Ġnav":2148,"ĠAng":2149,"ude":2150,"Ġvolta":2151,"emos":2152,"Ġseria":2153,"ortes":2154,"Ġlongo":2155,"anas":2156,"ndia":2157,"Ġ29":2158,"Ġorganiz":2159,"ĠPed":2160,"ux":2161,"Ġdesenvolvimento":2162,"Ġdisse":2163,"Ġrecebeu":2164,"Ġprincipais":2165,"ĠArt":2166,"Ġru":2167,"ormente":2168,"boa":2169,"Ġalem":2170,"essor":2171,"Ġhoje":2172,"uz":2173,"ĠlÃŃngua":2174,"elas":2175,"Ġconj":2176,"Ġterrit":2177,"ertos":2178,"Ġlig":2179,"Ġregist":2180,"Ġpelas":2181,"ĠReino":2182,"air":2183,"Ġsucesso":2184,"sk":2185,"29":2186,"ĠFre":2187,"Ġcorpo":2188,"Ã¡lia":2189,"ĠNorte":2190,"Ġ190":2191,"how":2192,"Ġcinco":2193,"Ġst":2194,".,":2195,"eleÃ§Ã£o":2196,"27":2197,"ionais":2198,"196":2199,"ĠMat":2200,"isboa":2201,"Ġmaioria":2202,"ĠLemmon":2203,"align":2204,"Ġsocial":2205,"Ã³rias":2206,"Ġpopular":2207,"Ġnuma":2208,"gues":2209,"ducaÃ§Ã£o":2210,"IS":2211,"Ġpossui":2212,"ReferÃªncias":2213,"Ġtoda":2214,"inaÃ§Ã£o":2215,"ÃŃd":2216,"reas":2217,"inhos":2218,"posiÃ§Ã£o":2219,"Ã©rc":2220,"ĠtÃªm":2221,"erais":2222,"ĠWil":2223,"Ġdentro":2224,"Ã©g":2225,"Ġpontos":2226,"Ġ1999":2227,"ĠversÃ£o":2228,"Ġdecl":2229,"encial":2230,"Es":2231,"ance":2232,"Ġop":2233,"ÃŃncia":2234,"age":2235,"Ġado":2236,"omb":2237,"serv":2238,"Ġtipo":2239,"ĠpaÃŃses":2240,"ndo":2241,"Ġmerc":2242,"essa":2243,"Ġdados":2244,"radas":2245,"eles":2246,"ĠCast":2247,"Ã¡b":2248,"Ġclube":2249,"ĠFederal":2250,"Ġserv":2251,"ey":2252,"Ġimportante":2253,"Ġbat":2254,"arg":2255,"edia":2256,"Ġdoc":2257,"enn":2258,"ĠMo":2259,"ĠCampeonato":2260,"ence":2261,"Ġ[":2262,"org":2263,"Ġpapel":2264,"ame":2265,"Ġdiferentes":2266,"ago":2267,"ann":2268,"ĠTV":2269,"ritÃ¢n":2270,"posta":2271,"El":2272,"ĠAlemanha":2273,"Ġdeter":2274,"ĠMil":2275,"Ġ'":2276,"Ġens":2277,"ĠPorto":2278,"Ġcateg":2279,"adeira":2280,"Ġdet":2281,"ans":2282,"Am":2283,"Ġespa":2284,"Ġvai":2285,"Cam":2286,"ash":2287,"eca":2288,"Ġjornal":2289,"rados":2290,"Ġkm":2291,"Ġrelat":2292,"Ġchamado":2293,"ĠmÃ¡":2294,"ĠCarlos":2295,"ociedade":2296,"Ġobra":2297,"emp":2298,"Ġk":2299,"ĠAmÃ©rica":2300,"Ã¢nia":2301,"__":2302,"tt":2303,"icl":2304,"Ġson":2305,"Ġinflu":2306,"ples":2307,"ĠgÃªn":2308,"Ġrelacion":2309,"Ġjov":2310,"ique":2311,"ĠcanÃ§Ã£o":2312,"Ġfuncion":2313,"old":2314,"inhas":2315,"ĠFac":2316,"Ġcoment":2317,"ĠEspanha":2318,"Ġalt":2319,"ĠVal":2320,"stria":2321,"Ġide":2322,"ech":2323,"ĠFutebol":2324,"ĠserÃ¡":2325,"Ġsing":2326,"Ã©tica":2327,"ames":2328,"Ġepis":2329,"Ġprote":2330,"ĠÂ":2331,"ender":2332,"Ex":2333,"Ġalc":2334,"Ġguerra":2335,"Ġreconhec":2336,"AT":2337,"Ġcient":2338,"teri":2339,"ĠUma":2340,"val":2341,"atural":2342,"Ġpermit":2343,");":2344,"ibliografia":2345,"enci":2346,"ÃŃb":2347,"ĠrÃ¡":2348,"40":2349,"Ġderro":2350,"Ġ189":2351,"ĠDE":2352,"eix":2353,"Ġtrat":2354,"Ã©rcito":2355,"Ġoutra":2356,"ĠLisboa":2357,"Ġocup":2358,"orge":2359,"adamente":2360,"Ġtermin":2361,"Lista":2362,"Ġrelig":2363,"Ġconstitu":2364,"Ġdel":2365,"Ġef":2366,"Ġenf":2367,"ĠCap":2368,"unicipal":2369,"ocal":2370,"oy":2371,"Ġfrequ":2372,"Ã£e":2373,"peÃ£o":2374,"Ġafirm":2375,"):":2376,"Ġinterpre":2377,"ÃŃsticas":2378,"antas":2379,"Ġcapital":2380,"ĠOlÃŃmpicos":2381,"una":2382,"Para":2383,"hy":2384,"ÃŃstica":2385,"enta":2386,"ĠNÃ£o":2387,"Ġdom":2388,"Ġquase":2389,"Ġlit":2390,"ĠPre":2391,"Ġfora":2392,"ituto":2393,"ves":2394,"Ġident":2395,"ximo":2396,"ĠposiÃ§Ã£o":2397,"Ġindiv":2398,"ĠconstruÃ§Ã£o":2399,"ativo":2400,"Ġanunci":2401,"idae":2402,"ÃŃg":2403,"zo":2404,"Ġobras":2405,"Ġparc":2406,"ĠIl":2407,"Ġpat":2408,"Ġficou":2409,"emia":2410,"aixa":2411,"ÃŃl":2412,"ĠPaul":2413,"ĠMart":2414,"ĠIgreja":2415,".\"":2416,"ificado":2417,"Ġquar":2418,"Ã´nio":2419,"fil":2420,"Ġnorm":2421,"IA":2422,"Ġ2021":2423,"ĠRa":2424,"ct":2425,"ĠComo":2426,"ĠPres":2427,"lay":2428,"ĠRepÃºblica":2429,"ume":2430,"IC":2431,"Ãºn":2432,"Ġinstitu":2433,"ÃŃc":2434,"ĠMont":2435,"ĠEuropa":2436,"OR":2437,"Ġvenc":2438,"Ġprincipalmente":2439,"exto":2440,"aca":2441,"rama":2442,"ÃŃa":2443,"ĠVol":2444,"erno":2445,"Ġ#":2446,"Ġtudo":2447,"Ġla":2448,"Ġvalor":2449,"Ġmembros":2450,"ritos":2451,"ĠlÃŃ":2452,"Ã¡gina":2453,"Ġponto":2454,"ĠFer":2455,"ld":2456,"ĠBe":2457,"Ġ:":2458,"60":2459,"Ġlinha":2460,"Ġrom":2461,"Ġvot":2462,"ĠnÃŃvel":2463,"Ġofer":2464,"ka":2465,"ood":2466,"isas":2467,"uranÃ§a":2468,"andid":2469,"avor":2470,"Ġempre":2471,"Ġdeste":2472,"ĠIS":2473,"78":2474,"pro":2475,"ĠAlÃ©m":2476,"ament":2477,"Ġ100":2478,"ursos":2479,"Ġsubstitu":2480,"mar":2481,"ett":2482,"Ġconquist":2483,"Se":2484,"ipe":2485,"ner":2486,"....":2487,"ĠJap":2488,"Ġmomento":2489,"ĠSuper":2490,"ole":2491,"rupos":2492,"Mar":2493,"Ġcompos":2494,"Ġtanto":2495,"ĠpossÃŃvel":2496,"En":2497,"inar":2498,"Ġcresc":2499,"Ġprimeiros":2500,"ish":2501,"ven":2502,"Ġbus":2503,"ler":2504,"Ġretorn":2505,"ifica":2506,"Ġembora":2507,"Ġpropri":2508,"rer":2509,"ĠRev":2510,"Ġating":2511,"Ġjunto":2512,"iado":2513,"Ġquer":2514,"etro":2515,"Ã¡ss":2516,"ĠBl":2517,"ĠinglÃªs":2518,"ĠHe":2519,"Ġ1998":2520,"//":2521,"Ġpag":2522,"Ġagora":2523,"Ġsite":2524,"ĠprÃ³prio":2525,"Ġast":2526,"Ġfase":2527,"Ġmo":2528,"Ġpens":2529,"sh":2530,"Ġcentro":2531,"Ġconhecida":2532,"ulas":2533,"Ġmeses":2534,"Ġdireito":2535,"Ã¢mara":2536,"ĠÃºltimo":2537,"Ġterra":2538,"Ġdetermin":2539,"press":2540,"AN":2541,"erna":2542,"Ġmulheres":2543,"Ġrei":2544,"Ġer":2545,"Ġpalav":2546,"iciais":2547,"unca":2548,"deu":2549,"ĠSch":2550,"ĠUnido":2551,"eter":2552,"ward":2553,"Ġquanto":2554,"anta":2555,"ĠHer":2556,"oro":2557,"osp":2558,"Ġsimples":2559,"utos":2560,"ui":2561,"Ġital":2562,"ĠTer":2563,"ĠSte":2564,"Ġtro":2565,"acidade":2566,"Ġdistrito":2567,"ĠInternacional":2568,"ecimento":2569,"45":2570,"Ġtrop":2571,"ogrÃ¡f":2572,"Ã£es":2573,"cola":2574,"ociaÃ§Ã£o":2575,"âĢĿ,":2576,"ĠHar":2577,"inc":2578,"abilidade":2579,"ĠAlb":2580,"Ġx":2581,"Ġfemin":2582,"Ġlat":2583,"ĠPrim":2584,"orld":2585,"ĠportuguÃªs":2586,"ĠCrist":2587,"ĠPat":2588,"ĠSua":2589,"ĠDi":2590,"urb":2591,"Ã¢nt":2592,"enco":2593,"Ã¡r":2594,"33":2595,"icais":2596,"ĠDeus":2597,"Foi":2598,"ĠFern":2599,"ini":2600,"ĠPedro":2601,"Ã³rios":2602,"ĠMinist":2603,"Ġmont":2604,"ĠhistÃ³r":2605,"Ġpint":2606,"isl":2607,"ĠRom":2608,"Ġdesign":2609,"Ġviol":2610,"cri":2611,"Por":2612,"Ġaproxim":2613,"Ã©dia":2614,"genh":2615,"Ġmater":2616,"Le":2617,"Res":2618,"Bibliografia":2619,"icular":2620,"br":2621,"uf":2622,"idÃªncia":2623,"ement":2624,"Ġindepend":2625,"ĠDav":2626,"Ã³dio":2627,"Seg":2628,"ĠporÃ©m":2629,"ÃŃnio":2630,"ĠNos":2631,"ham":2632,"Ġfeito":2633,"Ġeleito":2634,"Ġatual":2635,"Ġ188":2636,"ĠSer":2637,"Â°":2638,"Ġbrasileira":2639,"iografia":2640,"Ġnenh":2641,"icion":2642,"BN":2643,"ps":2644,"://":2645,"AL":2646,"ĠDire":2647,"ĠAust":2648,"Ġprofissional":2649,"rÃ©":2650,"ĠPra":2651,"Ġelei":2652,"Ġindic":2653,"Ġlocalizada":2654,"uss":2655,"ĠApÃ³s":2656,"ĠpolÃŃtico":2657,"ĠXV":2658,"arem":2659,"ĠMed":2660,"Ġconce":2661,"Ġestudo":2662,"ĠLib":2663,"Ġcel":2664,"Ġvend":2665,"Ġobserv":2666,"enos":2667,"Ġviv":2668,"iÃªncias":2669,"wn":2670,"Ġorigem":2671,"Um":2672,"ĠSur":2673,"rios":2674,"alizaÃ§Ã£o":2675,"ook":2676,"ĠVi":2677,"35":2678,"Ġvo":2679,"Ã¡c":2680,"ĠFor":2681,"Ġexib":2682,"ith":2683,"Ġidade":2684,"Ġforn":2685,"ĠBro":2686,"ĠItÃ¡lia":2687,"Ã¶":2688,"Ġdispon":2689,"ericana":2690,"ĠSou":2691,"apa":2692,"pÃ§Ã£o":2693,"Ġrevel":2694,"ĠserviÃ§os":2695,"nÃ§as":2696,"ment":2697,"70":2698,"gent":2699,"itado":2700,"ĠbritÃ¢n":2701,"rent":2702,"ĠAf":2703,"ĠParis":2704,"cho":2705,"AD":2706,"Ġinicial":2707,"Ġacom":2708,"ites":2709,"ĠlanÃ§amento":2710,"Ġestim":2711,"omas":2712,"ink":2713,"mas":2714,"Ġprecis":2715,"Ġdeu":2716,"Ġtransp":2717,"den":2718,"ergia":2719,"48":2720,"Ġseis":2721,"ĠserviÃ§o":2722,"ĠVerÃ£o":2723,"Ġrio":2724,"Ġpertenc":2725,"ivil":2726,"Ġcomum":2727,"Ġroman":2728,"Ġquad":2729,"izado":2730,"Ġcandid":2731,"ĠEste":2732,"Ġpovo":2733,"Ġapoio":2734,"Ġgrupos":2735,"Ġseguintes":2736,"Ġgara":2737,"ĠBu":2738,"ĠFrancisco":2739,"Ġdistribu":2740,"Ġemp":2741,"rÃ¡s":2742,"estival":2743,"pressÃ£o":2744,"Ġmetros":2745,"Ġaument":2746,"ÃŃcios":2747,"ĠespaÃ§o":2748,"ĠMor":2749,"ĠmÃ£e":2750,"reveu":2751,"Ġinstal":2752,"Ġcampo":2753,"ĠDu":2754,"ĠFo":2755,"ibilidade":2756,"ĠLond":2757,"Ġevento":2758,"38":2759,"ĠHen":2760,"ĠGlob":2761,"ID":2762,"Ġdever":2763,"Ġinici":2764,"ĠSeu":2765,"ĠgÃªnero":2766,"ney":2767,"55":2768,"ĠÃ¡reas":2769,"forma":2770,"Ġimpl":2771,"raÃ§Ãµes":2772,"Ġ2022":2773,"rang":2774,"Ġenvolv":2775,"ory":2776,"umb":2777,"Ġbranc":2778,"ribun":2779,"ĠGal":2780,"08":2781,"ĠBen":2782,"eias":2783,"Ġescola":2784,"out":2785,"ÃŃdeo":2786,"Ã¡st":2787,"Ġfavor":2788,"Ġnem":2789,"Ġsede":2790,"Ġpresente":2791,"Ġnasc":2792,"ĠfÃŃs":2793,"ĠSan":2794,"Ġencontra":2795,"aixo":2796,"qui":2797,"itura":2798,"Ġreun":2799,"Ġexecut":2800,"ĠÃºnico":2801,"Ġfilhos":2802,"Ġconjunto":2803,"Ġvari":2804,"erior":2805,"49":2806,"Ġfato":2807,"iat":2808,"Ã¡tico":2809,"Ġpessoa":2810,"ĠMundo":2811,"jas":2812,"Ġ50":2813,"Ġmora":2814,"39":2815,"Ġestar":2816,"elos":2817,"culos":2818,"Ġmembro":2819,"ile":2820,"ĠIngl":2821,"ates":2822,"ativas":2823,"Ġassist":2824,"aco":2825,"ĠPo":2826,"Ġmovimento":2827,"Ġnunca":2828,"Ã¡cio":2829,"Ġamericano":2830,"ĠĠĠĠĠĠĠĠ":2831,"ĠMag":2832,"osse":2833,"ĠAo":2834,"reto":2835,"ace":2836,"Ġadv":2837,"Ġajud":2838,"into":2839,"ĠTem":2840,"uraÃ§Ã£o":2841,"Ġtri":2842,"Ãĥ":2843,"Ġestrutura":2844,"ĠespÃ©cies":2845,"Ã£s":2846,"ĠAlex":2847,"Ġhoras":2848,"ĠTur":2849,"ĠSanto":2850,"ĠClub":2851,"Ġpriv":2852,"ĠtÃ£o":2853,"Ġeletr":2854,"Ġdig":2855,"37":2856,"Ġfilmes":2857,"Ġigre":2858,"ĠQuando":2859,"Ġlhe":2860,"Ġche":2861,"ĠUniÃ£o":2862,"Ġdecid":2863,"ĠSol":2864,"inais":2865,"47":2866,"eir":2867,"Ġpromov":2868,"Ġmelh":2869,"Ġcrist":2870,"gres":2871,"Ġprev":2872,"met":2873,"Ġfilha":2874,"Ġmaiores":2875,"rev":2876,"Ġdiversos":2877,"ĠÃºltima":2878,"ides":2879,"ĠTambÃ©m":2880,"ĠMc":2881,"alha":2882,"36":2883,"ili":2884,"aran":2885,"Ġcausa":2886,"ĠUS":2887,"Ġher":2888,"ational":2889,"igu":2890,"umentos":2891,"ono":2892,"ĠGra":2893,"Ġhomens":2894,"ĠcriaÃ§Ã£o":2895,"âĢĻ":2896,"Ġjogador":2897,"tado":2898,"itude":2899,"ĠDom":2900,"Ġchegou":2901,"ĠCa":2902,"cas":2903,"Ġhomem":2904,"Ġ31":2905,"ortal":2906,"ĠMe":2907,"ĠsaÃºde":2908,"Ġmand":2909,"nia":2910,"ĠHol":2911,"46":2912,"ĠImp":2913,"ĠinformaÃ§Ãµes":2914,"ĠSec":2915,"ĠterritÃ³rio":2916,"Ġpot":2917,"ĠalcanÃ§":2918,"liam":2919,"Ġve":2920,"Ġpersonagem":2921,"Ġchamada":2922,"ĠSet":2923,"Ġdiversas":2924,"Ġarte":2925,"Ġcamp":2926,"Ġestavam":2927,"Ġ40":2928,"ĠLei":2929,"Ġcirc":2930,"Ġluta":2931,"Ġgeralmente":2932,"feira":2933,"Ġfrente":2934,"Ġy":2935,"Ġnovamente":2936,"fo":2937,"bra":2938,"58":2939,"itaÃ§Ã£o":2940,"Ġempresas":2941,"ĠJapÃ£o":2942,"ercial":2943,"Ġproblemas":2944,"teriormente":2945,"Ġnovos":2946,"ĠBra":2947,"inta":2948,"ĠprÃ³pria":2949,"ĠInstituto":2950,"ĠRod":2951,"ĠGen":2952,"ĠCruz":2953,"Ġsingle":2954,"ĠAcad":2955,"iÃ§a":2956,"unos":2957,"Ġ1990":2958,"ĠmÃ©dia":2959,"Ġge":2960,"Ġvir":2961,"Ġace":2962,"Ġmercado":2963,"Ġespera":2964,"yle":2965,"ys":2966,"Ġresultado":2967,"Ġassum":2968,"Ge":2969,"Ġaer":2970,"gas":2971,"ĠGr":2972,"ĠMon":2973,"tamente":2974,"Ġfica":2975,"ĠSim":2976,"atalha":2977,"elmente":2978,"ori":2979,"ĠeletrÃ´n":2980,"ĠSilva":2981,"Ġprot":2982,"Ġfut":2983,"Ġusado":2984,"Ġ1996":2985,"ĠMal":2986,"Ġlei":2987,"ĠprovÃŃncia":2988,"Ġnatural":2989,"jam":2990,"Ġlista":2991,"Ġcategoria":2992,"ĠCentro":2993,"ĠXX":2994,"Ġdim":2995,"Pr":2996,"ĠcientÃŃf":2997,"Ġcrim":2998,"Jo":2999,"ĠDepois":3000,"be":3001,"ĠYork":3002,"Ġestilo":3003,"ĠISBN":3004,"Ġtecn":3005,"Ġmodo":3006,"ĠMic":3007,"ĠRes":3008,"bre":3009,"ĠaÃ§Ã£o":3010,"Ġ)":3011,"gens":3012,"estre":3013,"Ġrap":3014,"Ġapre":3015,"Ġespanh":3016,"ÃĥO":3017,"att":3018,"ĠdireÃ§Ã£o":3019,"Ġvel":3020,"redo":3021,"Ant":3022,"urgo":3023,"isso":3024,"ĠparticipaÃ§Ã£o":3025,"Ãºss":3026,"Ġmodelo":3027,"ĠSantos":3028,"Ġaqui":3029,"ĠformaÃ§Ã£o":3030,"09":3031,"ilhar":3032,"Ġdiretor":3033,"Ġcidades":3034,"Ġterceiro":3035,"guas":3036,"odos":3037,"rais":3038,"Ġlogo":3039,"ĠPartido":3040,"59":3041,"Ġunivers":3042,"Ġtiv":3043,"inheiro":3044,"ĠClube":3045,"izada":3046,"ĠInd":3047,"Ġcontribu":3048,"anho":3049,"ĠBer":3050,"Ġordem":3051,"ecido":3052,"Ġcargo":3053,"Ġtransform":3054,"Como":3055,"Dem":3056,"uldade":3057,"line":3058,"Ãģlb":3059,"ĠÃºnica":3060,"RE":3061,"ispo":3062,"ones":3063,"sol":3064,"ber":3065,"rir":3066,"Ġobjetivo":3067,"ĠBel":3068,"Ġsemana":3069,"ille":3070,"Ġatividades":3071,"Ġenvi":3072,"ertura":3073,"ĠXI":3074,"Ġbair":3075,"Ġinic":3076,"Ġelem":3077,"Ãºssia":3078,"cha":3079,"Ġampl":3080,"Ġsus":3081,"Ġcompanh":3082,"ue":3083,"Ġtest":3084,"gar":3085,"RO":3086,"ientes":3087,"Ġdar":3088,"ĠChina":3089,"ĠforÃ§a":3090,"--":3091,"Ġcost":3092,"St":3093,"ĠEsc":3094,"Ġrest":3095,"Ġprofessor":3096,"Ġmusical":3097,"dores":3098,"ĠTom":3099,"Ġjan":3100,"Ġaplic":3101,"UA":3102,"ĠcompetiÃ§Ã£o":3103,"yn":3104,"Ã©tico":3105,"Ġtrein":3106,"Ġbast":3107,"Ġcasos":3108,"Ġrot":3109,"ferÃªncia":3110,"Cont":3111,"ĠestÃº":3112,"sas":3113,"Ġrede":3114,"06":3115,"ĠAtl":3116,"imas":3117,"ĠEsta":3118,"Ġshow":3119,"Ġcontrole":3120,"ĠWorld":3121,"56":3122,"ĠlÃŃder":3123,"Ġtenha":3124,"aÃ§a":3125,"ath":3126,"Local":3127,"Ġelev":3128,"Ġtradic":3129,"xico":3130,"Ġven":3131,"ovi":3132,"uito":3133,"Ġlocais":3134,"Ġquant":3135,"Ġcontrat":3136,"ĠPh":3137,"ics":3138,"Ġlidera":3139,"Ġparticular":3140,"Ġinternacional":3141,"Ġdata":3142,"Ġdireitos":3143,"Ġrevista":3144,"Ġ1997":3145,"Ġtor":3146,"Ġbas":3147,"Ġprocess":3148,"Ġcart":3149,"Ġben":3150,"Ġconsiderado":3151,"ĠvitÃ³ria":3152,"inham":3153,"Ġacesso":3154,"Ġprinc":3155,"Ġmelhores":3156,"Ġanteri":3157,"soci":3158,"Ġgarant":3159,"Ãĩ":3160,"Ent":3161,"Ġdenom":3162,"iqu":3163,"ĠQ":3164,"ien":3165,"âĢ¦":3166,"ĠBrasileira":3167,"Ãģlbuns":3168,"aug":3169,"ĠDo":3170,"uk":3171,"aterra":3172,"Ġilha":3173,"Ġprodutos":3174,"Ġgal":3175,"Ġdivid":3176,"ĠDiv":3177,"partamento":3178,"vam":3179,"ĠcrianÃ§as":3180,"Ġnat":3181,"yl":3182,"Ġcust":3183,"Ġreligios":3184,"Ã¢ndia":3185,"Ġmal":3186,"ĠIr":3187,"mento":3188,"Ġflores":3189,"Ġalta":3190,"Ġsociedade":3191,"Ã³nio":3192,"assa":3193,"esc":3194,"ĠMÃ©":3195,"rand":3196,"ianos":3197,"ider":3198,"Ġcorre":3199,"Ġganhou":3200,"ĠMunicipal":3201,"leo":3202,"ĠMais":3203,"Ġneste":3204,"cif":3205,"57":3206,"Ġfra":3207,"ĠJust":3208,"III":3209,"Ġrem":3210,"Out":3211,"Ġenergia":3212,"uros":3213,"Ob":3214,"dou":3215,"ĠCha":3216,"Ġreb":3217,"vey":3218,"Ġnovas":3219,"ĠÃį":3220,"ĠBan":3221,"Ġjust":3222,"Ġacred":3223,"ove":3224,"44":3225,"vio":3226,"Ġmag":3227,"Uma":3228,"ividade":3229,"aixas":3230,"itora":3231,"ĠRo":3232,"SS":3233,"Ġbom":3234,"ĠDurante":3235,"Ġprocura":3236,"Biografia":3237,"ĠDan":3238,"ĠTerra":3239,"rans":3240,"ĠHist":3241,"ĠGo":3242,"sequ":3243,"Ġobrig":3244,"ĠfunÃ§Ã£o":3245,"ĠImpÃ©rio":3246,"xima":3247,"uno":3248,"Ġsemelh":3249,"07":3250,"ĠlÃ¡":3251,"ĠÃ³r":3252,"bora":3253,"Carreira":3254,"ĠReal":3255,"ĠWal":3256,"ĠCultura":3257,"Ġfede":3258,"ĠLou":3259,"anÃ§as":3260,"Ġne":3261,"Ġprat":3262,"Ġjap":3263,"Ġtraz":3264,"Ġinteress":3265,"Ġsepara":3266,"ump":3267,"Ã¡ticas":3268,"berg":3269,"ĠseguranÃ§a":3270,"Ã©is":3271,"Ġarquit":3272,"Ġpadr":3273,"ribunal":3274,"Ġfront":3275,"Ġcinema":3276,"IT":3277,"âĢĿ.":3278,"ator":3279,"ave":3280,"Ġpais":3281,"ĠÃŃ":3282,"Ġdesemp":3283,"arl":3284,"grama":3285,"Localidades":3286,"ĠYou":3287,"ĠGovern":3288,"Ġvice":3289,"ĠInglaterra":3290,"quele":3291,"ubes":3292,"ĠfrancÃªs":3293,"Ġcenso":3294,"Ġdesenvol":3295,"Ġ1980":3296,"Segundo":3297,"aga":3298,"ĠDem":3299,"Ġanterior":3300,"05":3301,"Ġsociais":3302,"arda":3303,"ium":3304,"ĠJes":3305,"ĠCÃ¢mara":3306,"Esp":3307,"ÃŃcias":3308,"Ġtermo":3309,"Ġeuro":3310,"Ġclassific":3311,"31":3312,"Ġestudos":3313,"ĠmÃªs":3314,"Can":3315,"har":3316,"ĠirmÃ£o":3317,"ĠeconÃ´m":3318,"ĠBol":3319,"ĠRecord":3320,"jos":3321,"Ã©u":3322,"ĠCab":3323,"Ġpesquisa":3324,"Ġresol":3325,"ep":3326,"etas":3327,"ĠEurope":3328,"Ġgera":3329,"Ġsuperior":3330,"Ġ1995":3331,"Ã³lica":3332,"ĠInf":3333,"Ġforte":3334,"Ġsequ":3335,"Ġacima":3336,"Ġimportantes":3337,"Ġrad":3338,"Ġconseguiu":3339,"Ġaprov":3340,"Ġminutos":3341,"ail":3342,"Ġacompanh":3343,"ÃŃdu":3344,"Ã©ria":3345,"ĠPortugu":3346,"ApÃ³s":3347,"ĠCasa":3348,"by":3349,"Ġorient":3350,"ega":3351,"Ġtime":3352,"rimento":3353,"ĠepisÃ³dio":3354,"ĠRoma":3355,"ĠorganizaÃ§Ã£o":3356,"uÃŃ":3357,"for":3358,"respon":3359,"Ġaval":3360,"ĠOb":3361,"Ġqualidade":3362,"Ġvaria":3363,"alidade":3364,"Ġantiga":3365,"Ġmult":3366,"feitos":3367,"Ġrealizado":3368,"idores":3369,"uta":3370,"Ġdestac":3371,"ural":3372,"ste":3373,"Ġdese":3374,"ife":3375,"ĠprÃ©":3376,"ulares":3377,"Ġcapacidade":3378,"ĠforÃ§as":3379,"Ġsi":3380,"MA":3381,"Ġresta":3382,"izar":3383,"Ġconsum":3384,"dia":3385,"ony":3386,"Ġportuguesa":3387,"ĠSam":3388,"Ġminist":3389,"Ã¤":3390,"ĠTor":3391,"Ġfig":3392,"Ã©cia":3393,"Ġcomunidade":3394,"Ġsurg":3395,"itou":3396,"rus":3397,"ĠSegunda":3398,"Ġmundial":3399,"ĠpresenÃ§a":3400,"Ġnesta":3401,"Med":3402,"ĠMÃ©xico":3403,"ipos":3404,"ington":3405,"Ġhomen":3406,"iste":3407,"Ġlet":3408,"etros":3409,"34":3410,"rÃ¡t":3411,"Ġ186":3412,"Ġtax":3413,"Ġamor":3414,"Ġada":3415,"Ġcomercial":3416,"ĠWilliam":3417,"americano":3418,"Ġmaneira":3419,"ker":3420,"ĠOrdem":3421,"Ġdisco":3422,"Ġnasceu":3423,"posit":3424,"Ã±":3425,"Ġatualmente":3426,"iados":3427,"etos":3428,"Ġassin":3429,"99":3430,"ĠBrasileiro":3431,"ĠWar":3432,"ĠConselho":3433,"Ġsomente":3434,"ĠvÃŃdeo":3435,"sto":3436,"ÃŃtica":3437,"Demografia":3438,"Ġsignific":3439,"oraÃ§Ã£o":3440,"ĠprÃ³ximo":3441,"Ġlocalizado":3442,"Ġlivros":3443,"Ġdesse":3444,"ĠresponsÃ¡vel":3445,"frica":3446,"rest":3447,"rÃŃ":3448,"Ġedif":3449,"Ġmeu":3450,"Jog":3451,"Ġps":3452,"Ġrespe":3453,"ĠLiv":3454,"orias":3455,"ulado":3456,"Ġalte":3457,"ĠMet":3458,"vis":3459,"Ġenfrent":3460,"Ġjovem":3461,"rida":3462,"Ġesqu":3463,"gon":3464,"ĠSo":3465,"Ġestreia":3466,"ĠLeg":3467,"Ġeventos":3468,"Ass":3469,"Ġ1994":3470,"Ġviz":3471,"Ġrecursos":3472,"ortos":3473,"ĠMad":3474,"Ġdeclara":3475,"ĠestÃºdio":3476,"Ġpopul":3477,"Ġ...":3478,"ĠIII":3479,"rita":3480,"Ġjapon":3481,"Ġdeput":3482,"Ġmarca":3483,"ecem":3484,"Ġlivre":3485,"Ġatriz":3486,"ĠnÂº":3487,"essÃ£o":3488,"Ġi":3489,"Ġcentral":3490,"Ġpubl":3491,"Ġmascul":3492,"CA":3493,"edor":3494,"ÃŃdos":3495,"par":3496,"Ġband":3497,"Ġfazendo":3498,"Ġtoc":3499,"Ġator":3500,"unid":3501,"ĠRos":3502,"ĠEles":3503,"Ã¡lise":3504,"Ġensino":3505,"Ġnoite":3506,"eÃ§a":3507,"Ġantigo":3508,"Ġinsp":3509,"gentina":3510,"Ġger":3511,"gio":3512,"Ġfosse":3513,"Ġcampanha":3514,"Ġnomeado":3515,"Ġigreja":3516,"Ã¨":3517,"wit":3518,"Ġescrito":3519,"Pa":3520,"ĠGar":3521,"Ġsan":3522,"Ġbaixo":3523,"ĠSocial":3524,"rias":3525,"Ġdestru":3526,"Ġexc":3527,"ĠMac":3528,"Ġ1992":3529,"Ġreduz":3530,"Ġapesar":3531,"ĠEv":3532,"ĠSurvey":3533,"enhor":3534,"Ġapresenta":3535,"ĠEnc":3536,"03":3537,"Ġpessoal":3538,"ĠGre":3539,"hi":3540,"Ġinterna":3541,"TV":3542,"ĠComun":3543,"ĠcondiÃ§Ãµes":3544,"Ġperto":3545,"eios":3546,"gn":3547,"gresso":3548,"endÃªncia":3549,"idamente":3550,"Ġcriado":3551,"orto":3552,"Part":3553,"Ġserem":3554,"ĠsituaÃ§Ã£o":3555,"88":3556,"ions":3557,"ego":3558,"Ġobt":3559,"ĠdecisÃ£o":3560,"ĠLondres":3561,"ĠDis":3562,"ĠWh":3563,"Ġintro":3564,"Ġassoci":3565,"hael":3566,"ĠJesus":3567,"amar":3568,"Ġmens":3569,"ericanos":3570,"SP":3571,"Ġpertencente":3572,"ald":3573,"Ġalto":3574,"Ġasc":3575,"rb":3576,"olo":3577,"Ġ1970":3578,"Ġsignifica":3579,"Ġmorreu":3580,"ĠHa":3581,"ĠAlexand":3582,"77":3583,"stru":3584,"TA":3585,"Ac":3586,"SÃ£o":3587,"Ġdessa":3588,"posto":3589,"Ġparticipou":3590,"enÃ§as":3591,"Ġplan":3592,"loc":3593,"ureza":3594,"Ġmenor":3595,"!!":3596,"iada":3597,"ĠalemÃ£o":3598,"Art":3599,"Un":3600,"Ġdedic":3601,"Ġact":3602,"ĠBr":3603,"Gu":3604,"ks":3605,"ya":3606,"Ġpoderia":3607,"Ġperm":3608,"Ġocorreu":3609,"Ġcert":3610,"ĠCosta":3611,"elig":3612,"Ġouro":3613,"Ġpartida":3614,"ĠIsso":3615,"Ġlo":3616,"ror":3617,"Ġteria":3618,"Ġpartes":3619,"EL":3620,"Ġfeita":3621,"ford":3622,"ĠlanÃ§ou":3623,"Ġocorre":3624,"Ġtinham":3625,"ĠcampeÃ£o":3626,"Ġrealizada":3627,"01":3628,"ĠRed":3629,"Ġaltura":3630,"Ġbastante":3631,"riu":3632,"Ġquest":3633,"lin":3634,"ĠSeleÃ§Ã£o":3635,"Ġmist":3636,"Jogos":3637,"Ġautom":3638,"adÃ¡":3639,"idental":3640,"arm":3641,"FF":3642,"Ġhou":3643,"Ġcomput":3644,"Ġinterior":3645,"04":3646,"ĠAlg":3647,"Ġsat":3648,"forme":3649,"its":3650,"Ġdivulg":3651,"Ġurb":3652,"ÃŃstico":3653,"ĠÃģfrica":3654,"urado":3655,"gos":3656,"Ġminha":3657,"Ġpersonagens":3658,"Ġprepara":3659,"Or":3660,"isÃµes":3661,"Ġfalta":3662,"ĠdivisÃ£o":3663,"ĠDel":3664,"Ġaumento":3665,"Ġ(\"":3666,"Ġexig":3667,"Ġbo":3668,"Ġnosso":3669,"eÃº":3670,"Ã´nica":3671,"ÃŃlio":3672,"Ġconclu":3673,"Ġanal":3674,"Ġinaug":3675,"Ġespecialmente":3676,"ĠAbril":3677,"Ġambos":3678,"alo":3679,"ĠSegundo":3680,"Ġescreveu":3681,"ll":3682,"Ed":3683,"ioc":3684,"Ġcrit":3685,"illa":3686,"ĠMaio":3687,"Ġfol":3688,"ĠAward":3689,"Ġtrabalhos":3690,"ited":3691,"Ġelas":3692,"NÃ£o":3693,"Ġacabou":3694,"Ġresultados":3695,"ĠEscola":3696,"Ãªmios":3697,"Ġusar":3698,"ova":3699,"che":3700,"ĠMu":3701,"ĠAssim":3702,"Ġferro":3703,"todo":3704,"Ġcole":3705,"Ġrevol":3706,"79":3707,"ĠVila":3708,"ous":3709,"ĠMinas":3710,"lam":3711,"Ġconfirm":3712,"Ġesposa":3713,"nta":3714,"ĠPan":3715,"ĠFestival":3716,"dustria":3717,"ĠRÃºssia":3718,"Ġatribu":3719,"Ġhip":3720,"apar":3721,"rantes":3722,"Ġambient":3723,"Ġterceira":3724,"Ġsete":3725,"wa":3726,"Ġboa":3727,"imes":3728,"ĠeducaÃ§Ã£o":3729,"Ġmaterial":3730,"EC":3731,"ospital":3732,"Ġajuda":3733,"Ġdeles":3734,"Ġtermos":3735,"ofia":3736,"ĠLiga":3737,"ÃŃci":3738,"ĠBah":3739,"Ġprem":3740,"Ġnada":3741,"ĠOliv":3742,"oriz":3743,"Ġaproximadamente":3744,"Ġcantora":3745,"istÃªncia":3746,"orado":3747,"sia":3748,"enhora":3749,"Ã¡dio":3750,"Ġ1993":3751,"ĠVic":3752,"Ġlevou":3753,"www":3754,"Ġbairro":3755,"ĠpÃºblica":3756,"ĠCalif":3757,"Ã¢ne":3758,"ĠregiÃµes":3759,"ĠLuc":3760,"edores":3761,"Ġraz":3762,"orden":3763,"Ġrece":3764,"Ġfinanc":3765,"ĠGeral":3766,"iter":3767,"Ġjur":3768,"ling":3769,"Ġseguida":3770,"ĠAll":3771,"Ã¡ticos":3772,"eth":3773,"act":3774,"ĠOc":3775,"Ġassass":3776,"esqu":3777,"Pol":3778,"Ġnossa":3779,"ĠSem":3780,"itada":3781,"Ġprova":3782,"Ġsuf":3783,"ae":3784,"identes":3785,"Ġcolet":3786,"Ġrecor":3787,"ĠArm":3788,"dado":3789,"ĠDez":3790,"cipe":3791,"Ġsentido":3792,"igas":3793,"rique":3794,"ĠOn":3795,"ĠEntre":3796,"ĠdÃ¡":3797,"Ġmem":3798,"Ġcontrato":3799,"Ġfaixa":3800,"unidense":3801,"Ġcruz":3802,"Ġelim":3803,"ĠJulho":3804,"ĠOri":3805,"perador":3806,"Ġfech":3807,"Ġvivo":3808,"rap":3809,"Ġaliment":3810,"ĠCO":3811,"ĠSetembro":3812,"ĠconteÃº":3813,"endeu":3814,"Ġcul":3815,"alt":3816,"Ġcanal":3817,"amÃŃlia":3818,"Ġadapt":3819,"atÃ³rio":3820,"54":3821,"Per":3822,"ĠSecret":3823,"Ġsup":3824,"ĠrÃ¡p":3825,"ĠEUA":3826,"onel":3827,"Ġdens":3828,"Ġposteriormente":3829,"Ġtril":3830,"Ġclasse":3831,"Ġ1991":3832,"Ġcorrespon":3833,"Ġcomplex":3834,"02":3835,"Ġrepresenta":3836,"2010":3837,"emat":3838,"rativa":3839,"Ġexerc":3840,"ater":3841,"Ġtexto":3842,"gress":3843,"ĠCin":3844,"ebook":3845,"Ġanimais":3846,"Ġalgo":3847,"icina":3848,"Ġequipes":3849,"Ġcriar":3850,"Ġfundo":3851,"ÃŃncipe":3852,"Ġcurso":3853,"mail":3854,"Ġeta":3855,"Ġrespect":3856,"ĠTo":3857,"ĠGrupo":3858,"Ġtam":3859,"ĠexÃ©rcito":3860,"ĠAcademia":3861,"Ġinclus":3862,"Ġpublicado":3863,"ST":3864,"Ġartigo":3865,"Ġtema":3866,"Ġvista":3867,"Ġverd":3868,"Ġesses":3869,"ĠOf":3870,"Int":3871,"ĠmÃ©":3872,"Ġdeixou":3873,"Ġdemon":3874,"Ġverdade":3875,"ĠComp":3876,"53":3877,"Ġambiente":3878,"ĠPrÃªmio":3879,"ĠMy":3880,"ĠCamp":3881,"elha":3882,"Ġcobertos":3883,"aqu":3884,"omar":3885,"ĠMinistÃ©rio":3886,"Ġimagem":3887,"arina":3888,"ĠaÃ§Ãµes":3889,"Ġusu":3890,"Ġbol":3891,"usÃ£o":3892,"Ġexclus":3893,"Ġsac":3894,"ocidade":3895,"essores":3896,"Ġentrev":3897,"eratura":3898,"66":3899,"ĠMel":3900,"ĠOutubro":3901,"way":3902,"rever":3903,"Ġjogadores":3904,"Ġguitar":3905,"Ã©dio":3906,"Ġproblema":3907,"Ġaud":3908,"Ġtais":3909,"Ġsolo":3910,"Ġdinheiro":3911,"ĠHistÃ³ria":3912,"Ġsens":3913,"ĠDou":3914,"ĠestaÃ§Ã£o":3915,"acto":3916,"iando":3917,"Ġmanter":3918,"Tra":3919,"ĠDavid":3920,"Ġideia":3921,"ĠAle":3922,"Ġocas":3923,"Ġengenh":3924,"La":3925,"Ġoito":3926,".)":3927,"Ġvotos":3928,"43":3929,"han":3930,"Ġpartido":3931,"Ġluz":3932,"Ġaleg":3933,"Jogadores":3934,"Ġapl":3935,"Ġelementos":3936,"bia":3937,"ĠBas":3938,"esas":3939,"rÃ¡lia":3940,"ĠRib":3941,"BC":3942,"Ġindivid":3943,"ĠnÃ³s":3944,"Ġaband":3945,"Ġban":3946,"guesia":3947,"Ġprimeiras":3948,"amental":3949,"ĠVen":3950,"Ġcomand":3951,"Ġ1960":3952,"ute":3953,"ĠAz":3954,"ĠDist":3955,"ĠelÃ©t":3956,"ĠEr":3957,"lor":3958,"Ġdele":3959,"Ġ1988":3960,"Ġinvestig":3961,"ratÃ©g":3962,"2009":3963,"ĠAgosto":3964,"idro":3965,"ĠTrabal":3966,"Ġtempera":3967,"inada":3968,"lim":3969,"Ġpassa":3970,"Ġfot":3971,"Campeonato":3972,"Ġconcor":3973,"ciais":3974,"Ġartista":3975,"we":3976,"ats":3977,"inte":3978,"Ġdific":3979,"ky":3980,"Ġarg":3981,"Ġtrabalhar":3982,"ĠMarÃ§o":3983,"Ġ+":3984,"Ġrus":3985,"Ġcast":3986,"ĠMelhor":3987,"Ã©rcio":3988,"Ġperd":3989,"2001":3990,"Ġquil":3991,"Ġinstr":3992,"ĠLuÃŃs":3993,"Ġanunciou":3994,"\"|":3995,"ĠCatal":3996,"Ġinteresse":3997,"Ġdin":3998,"ĠJunho":3999,"Ġdemonst":4000,"cam":4001,"Ã©ries":4002,"ĠTel":4003,"ean":4004,"ocÃª":4005,"ĠCur":4006,"ibliot":4007,"ĠclÃ¡ss":4008,"eras":4009,"vida":4010,"Ġfiz":4011,"ĠTribunal":4012,"ÃŃrito":4013,"mer":4014,"nos":4015,"Ġcapaz":4016,"Ġfab":4017,"Â»":4018,"TO":4019,"ĠBio":4020,"Ġtornar":4021,"avelmente":4022,"ĠespecÃŃf":4023,"Ġcolabora":4024,"ificar":4025,"olis":4026,"Ġame":4027,"ĠPop":4028,"ĠBa":4029,"Ġacus":4030,"ĠprÃ¡tica":4031,"ĠmÃºsicas":4032,"Ġalign":4033,"Ġpers":4034,"Ġplane":4035,"Ġcasamento":4036,"ĠFund":4037,"ecendo":4038,"Ã³dios":4039,"ĠGon":4040,"Ġatividade":4041,"itando":4042,"Cas":4043,"ius":4044,"ark":4045,"2007":4046,"Ġsistemas":4047,"Ġvem":4048,"ĠexperiÃªncia":4049,"Ġetc":4050,"Ã¢nica":4051,"ene":4052,"ĠConc":4053,"lhe":4054,"AM":4055,"Ġlingu":4056,"ĠeleiÃ§Ãµes":4057,"ĠConstitu":4058,"Ġtornando":4059,"Ġdensidade":4060,"pren":4061,"Ġago":4062,"olÃ³gico":4063,"ramente":4064,"emble":4065,"adre":4066,"ings":4067,"ware":4068,"ĠGerais":4069,"Ġdevem":4070,"Ġcomer":4071,"76":4072,"ws":4073,"my":4074,"Ġtratamento":4075,"Ãºstria":4076,"2008":4077,"ĠRodri":4078,"Ġlegisl":4079,"Ġusando":4080,"ĠArgentina":4081,"Ġdirigido":4082,"ĠHo":4083,"Ġpassado":4084,"Ġcomando":4085,"Ġvig":4086,"ĠAra":4087,"32":4088,"Ġgre":4089,"ĠÃºltimos":4090,"Ġredor":4091,"Ġpen":4092,"Ġcrescimento":4093,"ĠprincÃŃp":4094,"Ġdomin":4095,"ania":4096,"Ġcompre":4097,"Ġposit":4098,"ĠProf":4099,"ĠNovembro":4100,"Ġquarto":4101,"vos":4102,"Ġsuperf":4103,"Ġmostra":4104,"Ã¡n":4105,"ĠNE":4106,"Ġ1989":4107,"ipl":4108,"ĠavanÃ§":4109,"ĠDec":4110,"ĠCentral":4111,"Ġexiste":4112,"Th":4113,"ĠFernando":4114,"ĠHel":4115,"Ġreceber":4116,"2011":4117,"iciente":4118,"Ġcoisas":4119,"Ġcompara":4120,"Ġconcent":4121,"Ġmilitares":4122,"ĠindivÃŃdu":4123,"Ġabaixo":4124,"ĠDa":4125,"Ġhon":4126,"ĠMusic":4127,"ella":4128,"Ġstyle":4129,"ĠMen":4130,"Ġmec":4131,"Ġsin":4132,"ars":4133,"Ġteoria":4134,"postas":4135,"Ġbenef":4136,"ĠChrist":4137,"ki":4138,"Ġartistas":4139,"unha":4140,"98":4141,"Ġbusca":4142,"Ġplano":4143,"Ġconhecimento":4144,"ĠcaracterÃŃsticas":4145,"Ã³digo":4146,"Ġoeste":4147,"ĠnegÃ³":4148,"Ġmol":4149,"Ġcha":4150,"icar":4151,"51":4152,"ĠJÃ¡":4153,"onas":4154,"2013":4155,"CO":4156,"Ġnomes":4157,"IL":4158,"____":4159,"ĠAustrÃ¡lia":4160,"ĠSen":4161,"ĠJul":4162,"otas":4163,"Ġvest":4164,"eia":4165,"Ġpequena":4166,"ĠDr":4167,"2006":4168,"Ġnenhum":4169,"Ġcriada":4170,"ativos":4171,"Ġinspira":4172,"EM":4173,"ĠAssociaÃ§Ã£o":4174,"ster":4175,"Ġessas":4176,"Ġprogramas":4177,"iaÃ§Ãµes":4178,"Ġmudou":4179,"terior":4180,"Ġrock":4181,"ĠCanadÃ¡":4182,"Ġdepend":4183,"ĠDon":4184,"Ġrecup":4185,"Ġcaminho":4186,"Ġafirmou":4187,"aÃ§":4188,"Ġinterpret":4189,"Ġevol":4190,"Ġ1986":4191,"edades":4192,"Ġentrada":4193,"52":4194,"ĠApesar":4195,"ĠExÃ©rcito":4196,"Ġsubst":4197,"teve":4198,"Ġflu":4199,"rico":4200,"iou":4201,"Ġbal":4202,"ĠBat":4203,"ilhas":4204,"Ġentrou":4205,"Ġgols":4206,"round":4207,"2012":4208,"Ġvoltou":4209,"Ġsaber":4210,"Ġconfl":4211,"ĠGlobo":4212,"ĠimportÃ¢ncia":4213,"ĠMiss":4214,"Ġatlet":4215,"zes":4216,"ĠLat":4217,"Ġvenceu":4218,"ary":4219,"embleia":4220,"ĠSenhora":4221,"ilha":4222,"ĠXIX":4223,"ĠNe":4224,"iguel":4225,"ĠBahia":4226,"ull":4227,"iliar":4228,"unas":4229,"68":4230,"ramento":4231,"Ġeconomia":4232,"ĠRobert":4233,"Ġsobrev":4234,"41":4235,"Ġtradicional":4236,"âĢľ":4237,"Ġencontrar":4238,"Ġescrita":4239,"Ġbilh":4240,"fl":4241,"ĠDia":4242,"idor":4243,"Ġdemais":4244,"Ġintens":4245,"Ġnatureza":4246,"ĠDezembro":4247,"Ã³rico":4248,"Ġmedida":4249,"erar":4250,"Im":4251,"Ġ60":4252,"ĠMuseu":4253,"Compart":4254,"ĠEu":4255,"Ġdefesa":4256,"ĠVir":4257,"Ġdeb":4258,"Ġcampeonato":4259,"ĠPresidente":4260,"Ġestes":4261,"Ġeurope":4262,"ĠSaÃºde":4263,"Brasil":4264,"own":4265,"ĠEducaÃ§Ã£o":4266,"Ġaprend":4267,"rael":4268,"ĠJames":4269,"Ġaltern":4270,"olÃ³gica":4271,"ĠJack":4272,"Ġmac":4273,"Ġcarro":4274,"ecto":4275,"ĠSport":4276,"ĠTr":4277,"Ġmanif":4278,"Ġrod":4279,"Ġpassar":4280,"criÃ§Ã£o":4281,"itam":4282,"ĠUniversity":4283,"ĠJer":4284,"Ġabr":4285,"Ġlic":4286,"Ġjuntamente":4287,"Ġconserv":4288,"ĠAv":4289,"Ġataque":4290,"erdade":4291,"veu":4292,"Rec":4293,"Geografia":4294,"CI":4295,"42":4296,"Nasc":4297,"ixo":4298,"ĠAmb":4299,"Ġpalavras":4300,"ocup":4301,"Ġsecret":4302,"Ġ()":4303,"2004":4304,"portun":4305,"udio":4306,"ĠMilitar":4307,"Ġestadunidense":4308,"ĠNeg":4309,"ĠJu":4310,"urn":4311,"itÃ£o":4312,"Ġformas":4313,"ĠÃ³rg":4314,"Ġfeminino":4315,"Ġsele":4316,"BA":4317,"Ġretira":4318,"gra":4319,"obre":4320,"ianÃ§a":4321,"Ġfev":4322,"Este":4323,"ĠAut":4324,"Ġmic":4325,"FC":4326,"ij":4327,"ĠTec":4328,"\")":4329,"Membros":4330,"Ġescolh":4331,"Durante":4332,"aiu":4333,"acea":4334,"Ġpequeno":4335,"elhos":4336,"ott":4337,"ĠJorge":4338,"ĠWe":4339,"ĠPont":4340,"arn":4341,"Ġacess":4342,"ragem":4343,"Ġdrama":4344,"Ġarmas":4345,"Ġtipos":4346,"itores":4347,"ket":4348,"Ġatac":4349,"Ele":4350,"Ġleste":4351,"Ġimedia":4352,"feitura":4353,"Ġcaval":4354,"ĠRock":4355,"Ġhtt":4356,"ĠHum":4357,"prensa":4358,"ĠatrÃ¡s":4359,"ft":4360,"vez":4361,"Ġportanto":4362,"ÃŃdas":4363,"Ġproduto":4364,"Ã©re":4365,"ĠlanÃ§ada":4366,"ĠnecessÃ¡rio":4367,"ĠPress":4368,"gramas":4369,"back":4370,"hes":4371,"ĠSy":4372,"Ġvoz":4373,"ek":4374,"Ġpropor":4375,"acia":4376,"ÃŃlias":4377,"esp":4378,"ĠcrÃŃtica":4379,"Ġpromo":4380,"ĠSub":4381,"ÃŃdeos":4382,"ĠinformaÃ§Ã£o":4383,"hou":4384,"ike":4385,"Ġcicl":4386,"Ġnar":4387,"Ġade":4388,"ĠFin":4389,"Ġouv":4390,"oto":4391,"Ġtrib":4392,"Ġverm":4393,"ii":4394,"unicÃŃpios":4395,"Ġterminou":4396,"Ġjovens":4397,"ĠÃ¢":4398,"idado":4399,"Ġcomport":4400,"Ġdiferente":4401,"Su":4402,"Ġficar":4403,"Ġdigital":4404,"Ã³rnia":4405,"ject":4406,"Ġtex":4407,"untos":4408,"Ġfuturo":4409,"ĠPaÃŃs":4410,"ĠGoverno":4411,"ĠinfluÃªncia":4412,"Ġtransfer":4413,"ĠCiÃªncias":4414,"issÃµes":4415,"Ġcontrol":4416,"Ġutilizado":4417,"ision":4418,"ecÃ§Ã£o":4419,"Ã¢nico":4420,"Ġtorna":4421,"Ġquantidade":4422,"Ġtransm":4423,"2005":4424,"Ġhumanos":4425,"iza":4426,"ĠChar":4427,"off":4428,"RI":4429,"Ġgovernador":4430,"witter":4431,"ĠPÃºbl":4432,"Ġprojetos":4433,"edes":4434,"ĠUnited":4435,"ĠSalv":4436,"Col":4437,"Ġalguma":4438,"otos":4439,"erva":4440,"Ġdizer":4441,"enÃ¡rio":4442,"Ġelenco":4443,"Ġpalavra":4444,"Ġzona":4445,"Ġalunos":4446,"eck":4447,"ĠRich":4448,"ĠcabeÃ§a":4449,"Ġresposta":4450,"diÃ§Ã£o":4451,"Ġgeneral":4452,"ĠconteÃºdo":4453,"75":4454,"Ġsust":4455,"ĠanÃ¡lise":4456,"ĠquestÃ£o":4457,"hÃ£o":4458,"ĠOliveira":4459,"etes":4460,"ĠpadrÃ£o":4461,"Ġamigos":4462,"ÃŃtulos":4463,"ĠQue":4464,"Ġinglesa":4465,"Ġlemb":4466,"Ġestreou":4467,"Ġisto":4468,"ield":4469,"ĠÂ«":4470,"Ġplata":4471,"Ġsint":4472,"atas":4473,"ĠFI":4474,"endimento":4475,"Ġunidades":4476,"omes":4477,"ĠcientÃŃfica":4478,"Ġoportun":4479,"Ġvelocidade":4480,"Ġaux":4481,"ĠLos":4482,"ilidades":4483,"ĠDev":4484,"tes":4485,"eliz":4486,"ĠRen":4487,"2000":4488,"Ġconquistou":4489,"ĠEss":4490,"Ġemisso":4491,"uri":4492,"2016":4493,"ĠrelaÃ§Ãµes":4494,"ĠFevereiro":4495,"Ġaz":4496,"aceae":4497,"Ab":4498,"ĠGa":4499,"Ġtempos":4500,"ĠatenÃ§Ã£o":4501,"96":4502,"osofia":4503,"Ġmotor":4504,"nes":4505,"Ġesquer":4506,"Ġextra":4507,"ĠestratÃ©g":4508,"uld":4509,"ĠInv":4510,"ng":4511,"Ġcontr":4512,"Ġcolon":4513,"Ġestabelec":4514,"ĠRevol":4515,"Prim":4516,"pens":4517,"Ġjulg":4518,"ani":4519,"ĠcanÃ§Ãµes":4520,"Ġbaseado":4521,"Ã¡x":4522,"ĠGab":4523,"Ġvocal":4524,"Ã³f":4525,"Ġ1987":4526,"Ġth":4527,"ĠMod":4528,"Ġchegar":4529,"Ġceleb":4530,"ĠÃ³":4531,"irma":4532,"ires":4533,"Ġescritor":4534,"ĠAnton":4535,"inter":4536,"Ġ35":4537,"ĠEdu":4538,"rido":4539,"usa":4540,"ĠArqu":4541,"ardim":4542,"ĠMarc":4543,"Ġinclui":4544,"Ãªnio":4545,"ake":4546,"dustrial":4547,"ĠreferÃªncia":4548,"Ġincluem":4549,"ict":4550,"ĠAugu":4551,"ses":4552,"Ġteatro":4553,"Ġpas":4554,"ski":4555,"ecial":4556,"Ġsuger":4557,"Ġ1985":4558,"ĠPoss":4559,"ĠIor":4560,"ĠHom":4561,"plo":4562,"envolv":4563,"ĠDireito":4564,"Ġcoisa":4565,"itais":4566,"US":4567,"ĠBand":4568,"Ġcompart":4569,"ĠBranc":4570,"Ġâ":4571,"iago":4572,"Ag":4573,"Ã³m":4574,"ocra":4575,"ĠBern":4576,"ĠNossa":4577,"erm":4578,"ĠGl":4579,"Ġunidade":4580,"ĠEssa":4581,"Ġperceb":4582,"Ġacad":4583,"ĠCD":4584,"Esc":4585,"Ġtransmit":4586,"Ġincor":4587,"ĠmudanÃ§a":4588,"ĠpolÃŃticas":4589,"rv":4590,"Ġpermite":4591,"ÃŃcie":4592,"2014":4593,"Ġabandon":4594,"Reg":4595,"Ġtab":4596,"Ġconforme":4597,"htt":4598,"Ġestrang":4599,"dios":4600,"Ġestados":4601,"Ġrecom":4602,"ĠEra":4603,"Ġbi":4604,"TE":4605,"Ġbatalha":4606,"Ġefet":4607,"orta":4608,"ĠIV":4609,"Ġcondado":4610,"Ġbaixa":4611,"Ġlonga":4612,"emÃ¡tica":4613,"Ġtemperatura":4614,"Ġ1984":4615,"elef":4616,"80":4617,"rov":4618,"Ġtorneio":4619,"Ad":4620,"estra":4621,"Ġby":4622,"Ġprofissionais":4623,"ÃĩÃĥO":4624,"orda":4625,"ĠSab":4626,"Ãºc":4627,"Ġseguir":4628,"ĠIorque":4629,"Ġespanhol":4630,"ĠseleÃ§Ã£o":4631,"90":4632,"ĠInc":4633,"Ġpret":4634,"Ġcantor":4635,"Ġcint":4636,"itÃ¡rio":4637,"ĠFlor":4638,"ĠcomeÃ§a":4639,"Ġcomuna":4640,"ÃŃdia":4641,"Ġvisto":4642,"Ġchin":4643,"iores":4644,"Ġabertura":4645,"Ġbeb":4646,"ĠfunÃ§Ãµes":4647,"Ġtiveram":4648,"Ġexistem":4649,"Ġvolt":4650,"HÃ¡":4651,"ĠCidade":4652,"Ġ1982":4653,"Ġcivil":4654,"Ġdiminu":4655,"Ġpropriedade":4656,"ĠGil":4657,"urar":4658,"Ã³rm":4659,"Ġmelho":4660,"como":4661,"ĠPrimeira":4662,"ĠpeÃ§as":4663,"eiÃ§Ã£o":4664,"IV":4665,"Ġusada":4666,"Ġtecnologia":4667,"Ġhomenagem":4668,"ĠManuel":4669,"ĠserÃ£o":4670,"Ġtamanho":4671,"mann":4672,"Ġ80":4673,"Ġaeron":4674,"Compartilhar":4675,"istema":4676,"Ġpaci":4677,"2015":4678,"erat":4679,"Ġesfor":4680,"Ġescolas":4681,"ĠJustiÃ§a":4682,"ilar":4683,"ester":4684,"ĠAmaz":4685,"Ġrespeito":4686,"Ġnesse":4687,"ĠAntÃ´nio":4688,"Ġestadual":4689,"ĠCalifÃ³rnia":4690,"ĠtÃŃtulos":4691,"ĠRecords":4692,"Ġdout":4693,"ota":4694,"ĠcomÃ©dia":4695,"Ġconsequ":4696,"Ġintit":4697,"Ġefeito":4698,"Ġsexo":4699,"Ġcidad":4700,"ĠmunicÃŃpios":4701,"Ġviagem":4702,"ĠLife":4703,"nÃ¡":4704,"Ġmasculino":4705,"ocrÃ¡t":4706,"olit":4707,"ĠTal":4708,"Ġfug":4709,"tagon":4710,"Ġit":4711,"Ġconvers":4712,"ĠMichael":4713,"OL":4714,"Ġajudar":4715,"Ġhouve":4716,"ĠclassificaÃ§Ã£o":4717,"Ã³st":4718,"ĠpÃ³s":4719,"ĠcomunicaÃ§Ã£o":4720,"Ġdeixar":4721,"ĠmÃ£o":4722,"Ġ36":4723,"ĠPen":4724,"och":4725,"Ġconsiderada":4726,"Ġfrancesa":4727,"Ġimagens":4728,"ĠBon":4729,"Ġvalores":4730,"Ġchefe":4731,"pas":4732,"ĠPalomar":4733,"Ġiniciou":4734,"Ġ70":4735,"rava":4736,"Ġtransporte":4737,"Ġdesp":4738,"ulta":4739,"Ġamigo":4740,"Elenco":4741,"ĠNovo":4742,"Ġdeputado":4743,"ertas":4744,"seg":4745,"Ġdesaf":4746,"Ġdocument":4747,"Ġvila":4748,"Ġmusicais":4749,"Ġpod":4750,"ĠDO":4751,"Ġcultural":4752,"Ãį":4753,"ĠInform":4754,"ĠCivil":4755,"onia":4756,"ernos":4757,"Ġdisputa":4758,"antino":4759,"Ġsemanas":4760,"Ġplanej":4761,"undos":4762,"ĠRede":4763,"Programas":4764,"Ġmetade":4765,"Ġigual":4766,"ĠCristo":4767,"ĠMiguel":4768,"Ġespe":4769,"Ġpreocup":4770,"ĠNEAT":4771,"Ã³is":4772,"pira":4773,"Ġdesenh":4774,"ĠRei":4775,"ream":4776,"Ã©gio":4777,"Ġefeitos":4778,"quela":4779,"Ġorden":4780,"ĠdistÃ¢ncia":4781,"hop":4782,"Ġprodutor":4783,"ring":4784,"ĠEg":4785,"ĠNot":4786,"Ã´s":4787,"Ġtrabalhou":4788,"ĠÃįndia":4789,"||":4790,"ĠBal":4791,"ĠpolÃŃticos":4792,"elaÃ§Ã£o":4793,"ED":4794,"mb":4795,"Mas":4796,"Ġopin":4797,"Par":4798,"MunicÃŃpios":4799,"oph":4800,"ĠTour":4801,"edido":4802,"ĠDef":4803,"Ġmassa":4804,"Ġfederal":4805,"Ġterras":4806,"Ġfacil":4807,"ĠcontrÃ¡rio":4808,"AC":4809,"Ġestat":4810,"2017":4811,"ĠFaz":4812,"Nos":4813,"ĠHou":4814,"iso":4815,"Pl":4816,"Ġhora":4817,"Ġrealizar":4818,"ĠEmbora":4819,"ĠmÃ©dico":4820,"ÃŃtulo":4821,"rid":4822,"wood":4823,"peÃµes":4824,"ĠmissÃ£o":4825,"gen":4826,"vers":4827,"any":4828,"Quando":4829,"ĠepisÃ³dios":4830,"ĠLet":4831,"Ġcuja":4832,"2003":4833,"Ġamar":4834,"ĠeletrÃ´nicos":4835,"Ġ1950":4836,"Ġnecessidade":4837,"Ġinicialmente":4838,"Ġhor":4839,"Ġanteriores":4840,"Te":4841,"ĠrÃ¡dio":4842,"enciais":4843,"ĠgestÃ£o":4844,"Ġsabe":4845,"Ġdestaque":4846,"osos":4847,"guai":4848,"sal":4849,"Ġcomposta":4850,"Ã³pter":4851,"ĠNor":4852,"idar":4853,"Ast":4854,"Ġclubes":4855,"ĠprÃªmio":4856,"Ġfreguesia":4857,"ĠadministraÃ§Ã£o":4858,"Ġram":4859,"Ġblog":4860,"Ġprefeito":4861,"Ġ1983":4862,"Ġitaliano":4863,"ĠDin":4864,"ĠtÃ©cnico":4865,"ĠvÃŃt":4866,"Ġinfant":4867,"Ã¢nea":4868,"Ġsen":4869,"Ġcump":4870,"Ġbranco":4871,"Ġparece":4872,"Ġexpress":4873,"Ġnenhuma":4874,"Ãµe":4875,"ĠtÃ©cnica":4876,"orth":4877,"Ġprovavelmente":4878,"etura":4879,"ĠcÃ³p":4880,"ĠFrank":4881,"Ao":4882,"Ġartes":4883,"Ġvon":4884,"oporto":4885,"Ġfaixas":4886,"ĠbritÃ¢nico":4887,"low":4888,"rec":4889,"Ġ2023":4890,"Ġpergu":4891,"ordeste":4892,"Ġmagn":4893,"Ãºsica":4894,"uba":4895,"ĠSha":4896,"ĠAir":4897,"Ġaust":4898,"eiramente":4899,"ĠdoenÃ§a":4900,"ĠDivisÃ£o":4901,"ĠBras":4902,"erican":4903,"urt":4904,"Ġpopulacional":4905,"ĠGeorge":4906,"Ġrele":4907,"xo":4908,"Ġcujo":4909,"ĠmÃ©dio":4910,"var":4911,"ĠhistÃ³rico":4912,"ĠEstad":4913,"orial":4914,"idÃ£o":4915,"Ġfronteira":4916,"ĠcÃ©l":4917,"Ġromance":4918,"umin":4919,"Depois":4920,"Ġparceria":4921,"postos":4922,"Ġdecidiu":4923,"ĠPaulista":4924,"Ġconceito":4925,"rel":4926,"divers":4927,"Ġintroduz":4928,"ground":4929,"ussÃ£o":4930,"Ġtorno":4931,"ificaÃ§Ãµes":4932,"Ġredes":4933,"Ġ1979":4934,"Ġpossuem":4935,"ĠÃŃnd":4936,"ĠexistÃªncia":4937,"86":4938,"anhÃ£":4939,"upla":4940,"ĠCondado":4941,"ĠChamp":4942,"zer":4943,"ĠindÃºstria":4944,"ingo":4945,"ĠquÃŃm":4946,"Mais":4947,"Ġturn":4948,"Ġdado":4949,"Ġcontato":4950,"ĠvisÃ£o":4951,"Ġselecion":4952,"ĠPapa":4953,"Ġsel":4954,"Ġtropas":4955,"Ġrapidamente":4956,"onso":4957,"quet":4958,"Ġveio":4959,"UN":4960,"mith":4961,"''":4962,"Ġpros":4963,"Jos":4964,"uch":4965,"Ġ1975":4966,"atus":4967,"ĠOuro":4968,"Port":4969,"Ġformato":4970,"Ġfundada":4971,"ogrÃ¡fica":4972,"burg":4973,"vÃŃncia":4974,"ĠAÃ§":4975,"Ġult":4976,"uls":4977,"ĠCatarina":4978,"CanÃ§Ãµes":4979,"empor":4980,"omo":4981,"Ġinfer":4982,"iblioteca":4983,"Ġantigos":4984,"Ġfonte":4985,"amba":4986,"ĠAngeles":4987,"Ġfort":4988,"Ġatra":4989,"Ġcombate":4990,"Ġlinhas":4991,"iba":4992,"ĠAlegre":4993,"2002":4994,"ĠNic":4995,"ĠedifÃŃcio":4996,"uco":4997,"ĠfamÃŃlias":4998,"essoas":4999,"sch":5000,"ĠSÃ©rie":5001,"istem":5002,"ĠÐ":5003,"ĠvÃ£o":5004,"Ġmedalha":5005,"cons":5006,"ĠWest":5007,"ĠMi":5008,"over":5009,"97":5010,"ĠHenrique":5011,"ĠHot":5012,"ko":5013,"Ġoriginalmente":5014,"Ġprotagon":5015,"Ġoficiais":5016,"ĠmÃŃn":5017,"Åį":5018,"Ġtit":5019,"Ġfrequentemente":5020,"Ġcomposto":5021,"Ġrecon":5022,"rich":5023,"ĠprÃ³xim":5024,"Ġquart":5025,"Ġaparece":5026,"ĠCe":5027,"ĠLima":5028,"Ġ1976":5029,"ĠLove":5030,"Ġespecif":5031,"Ġinternacionais":5032,"Ġnovel":5033,"Ġfazem":5034,"Ġsejam":5035,"Ġ90":5036,"ĠPlay":5037,"ĠPorÃ©m":5038,"ĠrazÃ£o":5039,"Ġbel":5040,"andas":5041,"ĠEcon":5042,"Ġenvol":5043,"ĠprÃ³xima":5044,"ĠAssembleia":5045,"Ġproduzido":5046,"Ġcarta":5047,"ĠdistribuiÃ§Ã£o":5048,"orme":5049,"ÃŃculos":5050,"Ġesteve":5051,"Ã³rmula":5052,"ĠRegiÃ£o":5053,"Ġ....":5054,"ĠcomeÃ§aram":5055,"pet":5056,"tra":5057,"Ġfrut":5058,"ĠBot":5059,"ÃŃss":5060,"Ġsobreviv":5061,"Ġobteve":5062,"Ġsetor":5063,"Ġglob":5064,"iros":5065,"Ġimperador":5066,"Ã©rias":5067,"Ġprecisa":5068,"div":5069,"Ġrisco":5070,"Ġquarta":5071,"Ġetapa":5072,"ĠeleiÃ§Ã£o":5073,"iocese":5074,"ĠFel":5075,"ĠgÃ©n":5076,"izados":5077,"ĠEsse":5078,"ĠNet":5079,"Ġ1981":5080,"Ġ1978":5081,"ĠBarb":5082,"Ġdiretamente":5083,"umas":5084,"ĠComissÃ£o":5085,"ĠRel":5086,"Esta":5087,"ÃŃculo":5088,"ovo":5089,"Ġextrem":5090,"ĠFacebook":5091,"iverso":5092,"Ġcasou":5093,"ĠsequÃªncia":5094,"urou":5095,"ĠAlf":5096,"ĠAntÃ³nio":5097,"ury":5098,"Ġpost":5099,"ĠRam":5100,"Ġapresentou":5101,"Ġcontinuou":5102,"Ġvirt":5103,"ville":5104,"ĠcontÃ©m":5105,"igh":5106,"Ġproposta":5107,"ĠParanÃ¡":5108,"Ġsustent":5109,"Ġcaptura":5110,"Ġcoorden":5111,"Ġ1974":5112,"idados":5113,"ĠprisÃ£o":5114,"iev":5115,"ĠPod":5116,"culo":5117,"umo":5118,"ĠSalvador":5119,"ĠmudanÃ§as":5120,"IM":5121,"Ġfilm":5122,"perial":5123,"Po":5124,"Ġcomem":5125,"ĠCel":5126,"NA":5127,"Ġdescritos":5128,"istÃ£o":5129,"ÃŃcil":5130,"inados":5131,"Ġdesempenho":5132,"ĠJac":5133,"ĠbÃ¡s":5134,"pla":5135,"Ã³qu":5136,"Ġentrar":5137,"ĠcomentÃ¡rios":5138,"Ġinclusive":5139,"Ġparticipar":5140,"ĠRic":5141,"ĠpeÃ§a":5142,"Ã¢ntico":5143,"ĠHÃ¡":5144,"Ġtaxa":5145,"reia":5146,"pest":5147,"Ġviaj":5148,"ere":5149,"ultados":5150,"ernamb":5151,"Ġweb":5152,"Ġdetalh":5153,"Ġbrasileiros":5154,"Ġali":5155,"Ġdecor":5156,"ÃŃram":5157,"right":5158,"Ġros":5159,"ĠJun":5160,"ĠVis":5161,"Ġdupla":5162,"envolvimento":5163,"ĠfÃŃsica":5164,"89":5165,"ĠFaculdade":5166,"ĠOp":5167,"ĠFerro":5168,"empo":5169,"ĠcrianÃ§a":5170,"ĠAdminist":5171,"ĠAnderson":5172,"ĠforÃ§":5173,"Ġregular":5174,"Ġtotalmente":5175,"olina":5176,"ĠhistÃ³rias":5177,"Ġindependente":5178,"king":5179,"Ġevitar":5180,"PS":5181,"oll":5182,"ild":5183,"urada":5184,"Ġcook":5185,"ĠGro":5186,";\"":5187,"Ġprest":5188,"Ġsed":5189,"ĠsuperfÃŃcie":5190,"ĠVitÃ³ria":5191,"Ġfinalmente":5192,"Ġnaturais":5193,"ĠCongresso":5194,"ĠWeb":5195,"Ġoficialmente":5196,"gica":5197,"Pal":5198,"Ġinim":5199,"ĠTrans":5200,"Ġdesses":5201,"Ġdep":5202,"enses":5203,"Ã³i":5204,"Site":5205,"Ġsonora":5206,"oviÃ©tica":5207,"Ġdela":5208,"Ġgradu":5209,"ĠDesde":5210,"rof":5211,"enham":5212,"irl":5213,"endas":5214,"Ġadequ":5215,"Medalh":5216,"ĠPereira":5217,"ĠCity":5218,"Ã©rea":5219,"Ġcompositor":5220,"rei":5221,"estrutura":5222,"Ġconden":5223,"Rio":5224,"Ġrua":5225,"ĠMerc":5226,"Ã³veis":5227,"ĠpressÃ£o":5228,"Ġmencion":5229,"Ġcompanhia":5230,"Ġplantas":5231,"ĠCir":5232,"ĠMich":5233,"osc":5234,"ĠForm":5235,"Ã©rios":5236,"ashington":5237,"Ġperdeu":5238,"ĠCaval":5239,"icado":5240,"lov":5241,"ĠEqu":5242,"ym":5243,"ĠmÃ£os":5244,"Ġnacionais":5245,"Ġcores":5246,"Ġleva":5247,"ball":5248,"ĠInter":5249,"ĠTim":5250,"Ã³logo":5251,"ĠPortuguesa":5252,"Ġgost":5253,"Ã¢ncias":5254,"AlÃ©m":5255,"ĠdifÃŃcil":5256,"VD":5257,"Ġcomprimento":5258,"Cidades":5259,"Ġexce":5260,"Ġrealidade":5261,"Ġvide":5262,"Ġles":5263,"ĠirmÃ£os":5264,"ĠSoci":5265,"Entre":5266,"ransp":5267,"ĠAna":5268,"Ġlar":5269,"Ġjornalista":5270,"Ġcriou":5271,"xe":5272,"Ġemissora":5273,"ensis":5274,"ĠFIFA":5275,"Ġcomprom":5276,"Ġpsic":5277,"Ġprocessos":5278,"dom":5279,"1999":5280,"aut":5281,"ĠdÃ³l":5282,"Ġpartidas":5283,"pol":5284,"ĠconstruÃŃdo":5285,"ucle":5286,"ĠBlack":5287,"su":5288,"ĠOt":5289,"Ġpoucos":5290,"Ġbot":5291,"âĢĶ":5292,"span":5293,"ĠAwards":5294,"ĠLuiz":5295,"2018":5296,"ĠolÃŃmpicos":5297,"Ġempreg":5298,"Ġautoridade":5299,"ĠSom":5300,"ĠCoreia":5301,"ĠCatÃ³lica":5302,"ĠConst":5303,"Ġpassando":5304,"Class":5305,"ĠinstituiÃ§Ã£o":5306,"eget":5307,"Ġfalar":5308,"ĠgeraÃ§Ã£o":5309,"Ġresid":5310,"ship":5311,"ingles":5312,"Ġpesquis":5313,"rina":5314,"Eu":5315,"Ġ1972":5316,"ĠAtualmente":5317,"ĠMov":5318,"ĠEnquanto":5319,"oft":5320,"72":5321,"adoras":5322,"udos":5323,"Ġespect":5324,"Ġpreserv":5325,"Ġvit":5326,"ĠoperaÃ§Ã£o":5327,"Ġcasas":5328,"umes":5329,"Ã¡cia":5330,"Ġbanc":5331,"Ġmandato":5332,"Ġbio":5333,"Ġcosta":5334,"Ġporta":5335,"Ġ1973":5336,"Ġestimada":5337,"icou":5338,"Ġparal":5339,"EI":5340,"til":5341,"lesc":5342,"Ġimped":5343,"Ġadic":5344,"ĠPossui":5345,"Ġonline":5346,"jeto":5347,"Ġpedido":5348,"ĠArte":5349,"rador":5350,"au":5351,"Ġobter":5352,"Ġraio":5353,"Ġ1977":5354,"Ġsemelhante":5355,"GC":5356,"avo":5357,"inf":5358,"Ġbispo":5359,"Ġ1930":5360,"Ġlugares":5361,"Ġusados":5362,"PÃ¡gina":5363,"Ġcontin":5364,"Ġnormalmente":5365,"Ġpresid":5366,"Ġreform":5367,"ocl":5368,"ificada":5369,"Ġ48":5370,"Ġadvog":5371,"hen":5372,"Ġciv":5373,"Ġ1968":5374,"ures":5375,"ĠJean":5376,"adura":5377,"Ġliteratura":5378,"ĠMartin":5379,"eph":5380,"rif":5381,"Ġitaliana":5382,"Ġafet":5383,"ĠArtes":5384,"Ġhttp":5385,"Ġnota":5386,"Ġmarcou":5387,"iloto":5388,"Ġrealmente":5389,"ariamente":5390,"Ã³pteros":5391,"arou":5392,"Man":5393,"enov":5394,"ĠNaÃ§Ãµes":5395,"ĠcomÃ©rcio":5396,"ĠÃ¡rv":5397,"Ġmarido":5398,"ĠprogramaÃ§Ã£o":5399,"ÃŃmbol":5400,"Ġhumano":5401,"nto":5402,"Ġreais":5403,"EP":5404,"ĠFlora":5405,"ropolit":5406,"ĠSc":5407,"Ġaconteceu":5408,"Ġfontes":5409,"Ġcorte":5410,"Ã³nia":5411,"ĠpÃºblicos":5412,"Ã´nimo":5413,"Ã³polis":5414,"ĠcomentÃ¡rio":5415,"iante":5416,"alizado":5417,"BT":5418,"Ġfix":5419,"73":5420,"74":5421,"ariam":5422,"Ġ1964":5423,"Ġlevar":5424,"Ġmetal":5425,"ĠHam":5426,"Ġnaveg":5427,"Sub":5428,"Ġterm":5429,"esia":5430,"ĠSociedade":5431,"rota":5432,"ĠDaniel":5433,"71":5434,"Ġpeso":5435,"ross":5436,"ny":5437,"lado":5438,"Ġcorrida":5439,"Ġtrilha":5440,"ĠTeatro":5441,"issa":5442,"Ġafirma":5443,"di":5444,"dora":5445,"Ġfundamental":5446,"ĠEstadual":5447,"ismos":5448,"icidade":5449,"sen":5450,"Ġdeco":5451,"95":5452,"Ġprovoc":5453,"ET":5454,"Liv":5455,"Ġestas":5456,"uvent":5457,"Ġhistori":5458,"Melhor":5459,"Ġpublicada":5460,"Ġadicion":5461,"raram":5462,"ĠterÃ¡":5463,"Ġgente":5464,"Ġtempest":5465,"Vida":5466,"Ã©rito":5467,"ĠirmÃ£":5468,"Ġlocalidades":5469,"Pat":5470,"Ġescrav":5471,"Ãĵ":5472,"elli":5473,"ĠEduardo":5474,"dados":5475,"ĠSÃ©r":5476,"ĠVas":5477,"ĠSerra":5478,"Ġrepro":5479,"ĠquestÃµes":5480,"Ġemo":5481,"stein":5482,"Ġcerto":5483,"Ġfigura":5484,"Ġvisit":5485,"Ġcic":5486,"ĠSenhor":5487,"Ã¢mica":5488,"onde":5489,"ĠCharles":5490,"Ġpresentes":5491,"ĠIN":5492,"ĠoperaÃ§Ãµes":5493,"ronze":5494,"assem":5495,"Ġcrise":5496,"ĠTre":5497,"ĠBil":5498,"Ġnossos":5499,"Ġ500":5500,"ĠturnÃª":5501,"Ġobjeto":5502,"Ġrit":5503,"Ġarmaz":5504,"Ġdipl":5505,"arca":5506,"Hist":5507,"Ġperda":5508,"iciÃªncia":5509,"Ġnove":5510,"rup":5511,"Ġesport":5512,"ritas":5513,"Ġmunicipal":5514,"Ġproced":5515,"Ġgrat":5516,"Ġautores":5517,"Ġapresentar":5518,"Ġilust":5519,"Ġassumiu":5520,"ĠcatÃ³l":5521,"ĠRoy":5522,"ĠPÃ¡gina":5523,"Tel":5524,"Ġaqueles":5525,"Ġpequenas":5526,"Ġdando":5527,"sor":5528,"Medalhistas":5529,"guÃ©m":5530,"acial":5531,"ĠMot":5532,"irit":5533,"ĠBiodivers":5534,"ĠpublicaÃ§Ã£o":5535,"ĠAinda":5536,"Ġregime":5537,"aves":5538,"ebra":5539,"osas":5540,"Ġ1940":5541,"ucion":5542,"Ġtrabalha":5543,"ulada":5544,"ĠMach":5545,"Ġreserv":5546,"tica":5547,"ĠTwitter":5548,"ĠRoberto":5549,"Ġpassagem":5550,"Ġfat":5551,"ĠIsrael":5552,"Ġentrevista":5553,"ĠcrÃŃticas":5554,"ĠBrasÃŃlia":5555,"Ã³vel":5556,"ĠRichard":5557,"AB":5558,"Ġverdad":5559,"Ġincorpo":5560,"AP":5561,"Ġpequenos":5562,"ĠRua":5563,"valho":5564,"ĠapresentaÃ§Ã£o":5565,"imp":5566,"Ġcintura":5567,"sc":5568,"presas":5569,"ĠAlguns":5570,"cÃ£o":5571,"ĠFerreira":5572,"Ġjorn":5573,"ĠinstituiÃ§Ãµes":5574,"ĠmÃ¡qu":5575,"ĠIta":5576,"ustria":5577,"ĠAst":5578,"ism":5579,"Ġastero":5580,"ĠKing":5581,"ĠSP":5582,"Ġmateriais":5583,"Ġrespectivamente":5584,"Grupo":5585,"Ġhumana":5586,"Cat":5587,"ulheres":5588,"Ð°":5589,"Ġtentativa":5590,"ĠWashington":5591,"ÃŃfico":5592,"Ġdeveria":5593,"Ġimprensa":5594,"ĠTodos":5595,"Ġliberdade":5596,"eco":5597,"Ġfen":5598,"ĠPet":5599,"DB":5600,"ĠsaÃŃda":5601,"ĠSpe":5602,"ĠcomposiÃ§Ã£o":5603,"Cap":5604,"ĠnÃºmeros":5605,"Ġinvas":5606,"ĠFa":5607,"Ġparticipantes":5608,"cipl":5609,"Ġproib":5610,"ĠPi":5611,"Ġlevant":5612,"ĠInternational":5613,"ĠGeneral":5614,"ĠPhil":5615,"uiz":5616,"Ġencontram":5617,"ĠMend":5618,"Ġamericana":5619,"Ġtemas":5620,"core":5621,"ĠFundaÃ§Ã£o":5622,"ycl":5623,"rÃ£o":5624,"arte":5625,"Ġred":5626,"ĠPass":5627,"85":5628,"ĠpolÃŃcia":5629,"Ġnavio":5630,"men":5631,"Ġinternet":5632,"Ġfinais":5633,"Ġrodada":5634,"nologia":5635,"Ġpublicou":5636,"Ġconduz":5637,"1998":5638,"quis":5639,"Ġpotencial":5640,"pes":5641,"Ġelabora":5642,"ĠAmerican":5643,"Ġderiv":5644,"Ġusa":5645,"rimÃ´nio":5646,"Ġtelef":5647,"Ma":5648,"ĠMora":5649,"Ġfeitas":5650,"isp":5651,"ĠPac":5652,"ĠParque":5653,"itÃ¡ria":5654,"isf":5655,"Sa":5656,"Ġ1969":5657,"ĠSel":5658,"Ġmer":5659,"ĠjurÃŃd":5660,"Ġpaz":5661,"Copa":5662,"ĠSuÃ©cia":5663,"ĠMay":5664,"inÃ¡rio":5665,"Ġdesapar":5666,"Ġbra":5667,"ĠJa":5668,"ĠDistrito":5669,"Ġwith":5670,"ĠIlha":5671,"uÃ§Ãµes":5672,"Ġsou":5673,"Ġ1971":5674,"Ġformado":5675,"Ġatuou":5676,"olÃ³gicos":5677,"RS":5678,"Tre":5679,"itz":5680,"Ãºst":5681,"Ġbon":5682,"eceram":5683,"And":5684,"ĠVale":5685,"Cor":5686,"Ġpassag":5687,"panhia":5688,"ualidade":5689,"uldades":5690,"eixe":5691,"Ġrealizou":5692,"Ġdesconhec":5693,"Ġmodelos":5694,"Ġtropical":5695,"cher":5696,"ilizaÃ§Ã£o":5697,"ĠStud":5698,"Ġcandidato":5699,"Ġrepet":5700,"Ġministro":5701,"ĠdÃº":5702,"Ġferram":5703,"rian":5704,"retanto":5705,"Ġobjetos":5706,"fera":5707,"vas":5708,"arÃ£o":5709,"Ġnessa":5710,"Ġ49":5711,"ĠrealizaÃ§Ã£o":5712,"ĠNatal":5713,"Ġescolha":5714,"ÃŃtio":5715,"Ġguer":5716,"Ġprefer":5717,"Cal":5718,"Pres":5719,"ĠNas":5720,"ĠversÃµes":5721,"Ġgl":5722,"Prof":5723,"Ġpossibilidade":5724,"ograf":5725,"ĠindÃŃg":5726,"Ġfizeram":5727,"ĠproteÃ§Ã£o":5728,"ĠMes":5729,"Ġtreinador":5730,"rato":5731,"ette":5732,"ortaleza":5733,"Ġapos":5734,"rÃ¡fico":5735,"Ġderrota":5736,"ĠStates":5737,"ji":5738,"aras":5739,"nÃ£o":5740,"Ġconhecidos":5741,"ĠdomÃŃnio":5742,"ĠtÃ©cnicas":5743,"ted":5744,"Ġparl":5745,"ĠTex":5746,"udou":5747,"ĠAÃ§ores":5748,"Ev":5749,"Ġguitarra":5750,"Ġvenda":5751,"ĠPS":5752,"Pre":5753,"ĠSupre":5754,"inn":5755,"cr":5756,"Ġhaviam":5757,"ĠdÃ³lares":5758,"Ġcomuns":5759,"entais":5760,"ĠThomas":5761,"ĠNational":5762,"Ġmeados":5763,"Ġsimplesmente":5764,"Ġesquerda":5765,"eibol":5766,"Ġaprove":5767,"ĠVan":5768,"Ġespeciais":5769,"ĠStar":5770,"ĠFal":5771,"TC":5772,"riel":5773,"tal":5774,"Ġvendas":5775,"Sem":5776,"ĠDepartamento":5777,"Ġprazo":5778,"ĠCON":5779,"Ġadolesc":5780,"bro":5781,"Do":5782,"ĠdÃ©cadas":5783,"els":5784,"ĠLeon":5785,"eus":5786,"Ġdisposit":5787,"ĠmemÃ³ria":5788,"Ġcontexto":5789,"Sh":5790,"Ġmuita":5791,"ĠindivÃŃduos":5792,"Ġconsci":5793,"Ġabsol":5794,"Ġbomb":5795,"Ġvin":5796,"Ġba":5797,"Post":5798,"Ġdiante":5799,"UL":5800,"presidente":5801,"Ġsala":5802,"Ġapareceu":5803,"Ġtemos":5804,"entas":5805,"ricultura":5806,"Ã³graf":5807,"Ġtira":5808,"Ġmadeira":5809,"ĠScho":5810,"ĠatuaÃ§Ã£o":5811,"ĠConstituiÃ§Ã£o":5812,"ecida":5813,"riqu":5814,"ĠBur":5815,"Ġcompleto":5816,"ĠCastro":5817,"ety":5818,"ãĥ":5819,"orou":5820,"ĠEp":5821,"Ġfogo":5822,"Ġacidente":5823,"Ġcort":5824,"Ġnavios":5825,"adrid":5826,"ÃŃÃ§a":5827,"ĠHon":5828,"Ġtop":5829,"ĠEt":5830,"jetos":5831,"ĠTa":5832,"ĠVI":5833,"inÃ¡ria":5834,"Ġcursos":5835,"Ġsecund":5836,"Gal":5837,"ĠtradiÃ§Ã£o":5838,"Ġjud":5839,"ĠpÃ¡gina":5840,"Ã¡cil":5841,"Ġauto":5842,"ĠnÃŃveis":5843,"ĠEspÃŃrito":5844,"gia":5845,"ĠSon":5846,"Ġposto":5847,"agos":5848,"Ġdireto":5849,"atÃ³ria":5850,"ecia":5851,"pot":5852,"Ġdisp":5853,"Ġpermaneceu":5854,"Ã´metros":5855,"ĠProc":5856,"ĠFC":5857,"Ġintelig":5858,"Ġapont":5859,"undaÃ§Ãµes":5860,"Ġanteriormente":5861,"ĠServi":5862,"uncia":5863,"Ġmedalh":5864,"ĠCorpo":5865,"venÃ§Ã£o":5866,"ĠMer":5867,"ioso":5868,"Ġcasal":5869,"Ġhaver":5870,"Ġriv":5871,"ÃŃsticos":5872,"naval":5873,"Ġaus":5874,"ĠOpera":5875,"ĠFinal":5876,"ÅĤ":5877,"ÃŃdio":5878,"Ġelog":5879,"ĠGoi":5880,"Ġremo":5881,"ĠIsabel":5882,"Ġ1967":5883,"Pessoas":5884,"deia":5885,"Ġanunciado":5886,"ĠmÃ©todo":5887,"ĠPernamb":5888,"azz":5889,"ĠInternet":5890,"anal":5891,"Ġund":5892,"inou":5893,"ĠCer":5894,"Ġganhar":5895,"eja":5896,"ĠÃģustria":5897,"itoral":5898,"Ġcompletamente":5899,"aior":5900,"ĠextensÃ£o":5901,"Ġquinta":5902,"rol":5903,"Ġregul":5904,"ĠAer":5905,"Ã©mio":5906,"Ġord":5907,"Ġsoldados":5908,"cott":5909,"ases":5910,"ĠdiferenÃ§a":5911,"ĠEditora":5912,"Ġqueda":5913,"Ġplataforma":5914,"Ġserviu":5915,"Ġbateria":5916,"Ġcompl":5917,"Ġliga":5918,"ĠDig":5919,"ĠLo":5920,"Ġescrever":5921,"Ġcult":5922,"Ġlarg":5923,"imar":5924,"ĠRad":5925,"clam":5926,"ĠFederaÃ§Ã£o":5927,"Ġestrelas":5928,"esto":5929,"ĠexpressÃ£o":5930,"asta":5931,"arch":5932,"ĠGomes":5933,"Ġvolume":5934,"Ġvag":5935,"Fl":5936,"ĠDA":5937,"ĠdisponÃŃvel":5938,"Ġcontempor":5939,"Ġdizendo":5940,"Ġtrata":5941,"Ġgrau":5942,"Ġcarreg":5943,"Cons":5944,"erado":5945,"ĠMem":5946,"Ġbrin":5947,"ganizaÃ§Ã£o":5948,"Ġgast":5949,"Ġprata":5950,"jor":5951,"Ã¡stica":5952,"Ġcompleta":5953,"Ġveget":5954,"Ġaltitude":5955,"Ġdessas":5956,"Ġdepartamento":5957,"rosso":5958,"uso":5959,"Ġclientes":5960,"Ġcontinua":5961,"Ġiniciat":5962,"Ġcomportamento":5963,"ĠMarinha":5964,"Ġpil":5965,"Ġ1945":5966,"Ġconseguir":5967,"ĠNight":5968,"Ġsusp":5969,"ĠciÃªncia":5970,"ĠalguÃ©m":5971,"pat":5972,"Ġartigos":5973,"rante":5974,"Ġpassaram":5975,"Ġcerim":5976,"Ġfrom":5977,"Ġentret":5978,"Ġcompon":5979,"Ã¡logo":5980,"Ã³gica":5981,"Rob":5982,"Ġ34":5983,"ĠAntonio":5984,"ĠexposiÃ§Ã£o":5985,"1997":5986,"ĠSuperior":5987,"DO":5988,"Ã´nico":5989,"Ġencontrada":5990,"site":5991,"unes":5992,"ĠmÃŃdia":5993,"Ġ38":5994,"ĠsÃŃmbol":5995,"ĠCampo":5996,"Vol":5997,"Ġpun":5998,"itava":5999,"ĠCro":6000,"Ġdelas":6001,"Ġcookies":6002,"Ġcena":6003,"Ġ1966":6004,"ĠÃģsia":6005,"Ġrecorde":6006,"Ġfutebolista":6007,"ague":6008,"ĠAmor":6009,"ĠRodrigues":6010,"ĠVerde":6011,"Ġazul":6012,"pia":6013,"Ġsolic":6014,"ansÃ£o":6015,"Ġvoltar":6016,"ĠAndrÃ©":6017,"izou":6018,"ĠCastelo":6019,"taÃ§Ãµes":6020,"alidades":6021,"Ġang":6022,"vidas":6023,"Ġexec":6024,"ĠBre":6025,"%.":6026,"Ġemit":6027,"ĠCinema":6028,"ĠMark":6029,"endÃ¡rio":6030,"ĠPark":6031,"Bandas":6032,"Ġrenov":6033,"Ġisol":6034,"ĠSoviÃ©tica":6035,"Bar":6036,"reau":6037,"Ġclaro":6038,"Ġescal":6039,"Ġdescoberta":6040,"2019":6041,"mira":6042,"Ġsair":6043,"ĠPeter":6044,"ĠpÃºblicas":6045,"Nascidos":6046,"ĠRoc":6047,"Ġconfront":6048,"ĠMesa":6049,"ĠSmith":6050,"Ġvelho":6051,"Ġletras":6052,"ĠcÃ©lulas":6053,"Ġcorrespond":6054,"ĠAno":6055,"ruturas":6056,"http":6057,"ĠAqu":6058,"dere":6059,"entro":6060,"ĠHall":6061,"Ġlog":6062,"ĠconstruÃŃda":6063,"ĠBarcel":6064,"Ġmel":6065,"Ġavent":6066,"Ġlinguagem":6067,"Ġdram":6068,"Ġtrabalhadores":6069,"1996":6070,"Ġpersegu":6071,"Ġastron":6072,"sula":6073,"Arqu":6074,"Ġreconhecimento":6075,"estas":6076,"ĠChampion":6077,"Ġjogar":6078,"Ġpiloto":6079,"Ġconflito":6080,"ricas":6081,"amentais":6082,"americana":6083,"ĠJan":6084,"putados":6085,"oura":6086,"ĠpÃ©":6087,"Ġ32":6088,"Ġdesenvolvido":6089,"Ġfesta":6090,"Ġpropriet":6091,"Ġso":6092,"Ġapresentado":6093,"Ġprofund":6094,"Ġdescrita":6095,"69":6096,"essem":6097,"Ġroup":6098,"Dist":6099,"ĠExt":6100,"Ġestudantes":6101,"MS":6102,"Ġsoft":6103,"John":6104,"Ġrecus":6105,"Ġaberto":6106,"Ġprotest":6107,"Ã©ticos":6108,"erme":6109,"65":6110,"Ġviver":6111,"ĠtransmissÃ£o":6112,"Ġlibert":6113,"bit":6114,"ĠBaix":6115,"ĠalemÃ£":6116,"Ãªnia":6117,"ĠCre":6118,"plas":6119,"Ġdiss":6120,"Ġprej":6121,"ĠPolÃŃcia":6122,"ĠTÃ©cn":6123,"ĠJÃº":6124,"Ġmedidas":6125,"Ġformar":6126,"Ã©st":6127,"vÃ£o":6128,"Ġpatro":6129,"ĠPos":6130,"ĠGlobal":6131,"Ġdesenvolver":6132,"Ġcurta":6133,"ĠviolÃªncia":6134,"Ġorg":6135,"ĠLor":6136,"Disc":6137,"Ġindustrial":6138,"ogle":6139,"ush":6140,"Ġafast":6141,"ĠcÃ³pias":6142,"ĠDoc":6143,"1995":6144,"Ġrefor":6145,"Alg":6146,"rick":6147,"Ġvizinh":6148,"Ġbril":6149,"Ġmenores":6150,"Ġ1920":6151,"ĠFilho":6152,"Ġconsider":6153,"ĠCarvalho":6154,"ificados":6155,"ultado":6156,"Ġ1962":6157,"Ġmovimentos":6158,"background":6159,"lÃ¢ndia":6160,"ĠcoraÃ§Ã£o":6161,"ĠKn":6162,"fin":6163,"Co":6164,"Ã©cies":6165,"Ġfotos":6166,"ĠAven":6167,"uela":6168,"rÃªncia":6169,"ĠBatalha":6170,"ĠGer":6171,"ĠfÃ¡cil":6172,"axon":6173,"ĠCatalina":6174,"exic":6175,"Ġformada":6176,"Ġdocumentos":6177,"><":6178,"Ġ1965":6179,"ÃŃba":6180,"ĠNeste":6181,"ĠCompanhia":6182,"Ġaposent":6183,"ĠVocÃª":6184,"Ġfala":6185,"uaÃ§Ã£o":6186,"ĠSaint":6187,"ĠLin":6188,"Ġretorno":6189,"aldo":6190,"ĠpoderÃ¡":6191,"ĠBor":6192,"olÃ³gicas":6193,"Ġregras":6194,"Ã¢neo":6195,"MP":6196,"Ã©lio":6197,"ĠCSS":6198,"endente":6199,"oard":6200,"ĠCole":6201,"Ġtroca":6202,"Ġsuficiente":6203,"Ġsexta":6204,"ianas":6205,"Ãºcleo":6206,"Ġhuman":6207,"Ġolhos":6208,"ĠMadrid":6209,"Ġpintura":6210,"usc":6211,"yr":6212,"Ġmim":6213,"Ġestrada":6214,"ÃŃrus":6215,"ĠnegÃ³cios":6216,"tel":6217,"Ġliter":6218,"Ġjude":6219,"rendo":6220,"ĠprincÃŃpio":6221,"ensÃµes":6222,"oni":6223,"ĠFe":6224,"poss":6225,"eder":6226,"Ġencontrado":6227,"orno":6228,"Ġsinal":6229,"ĠLev":6230,"ĠpreÃ§o":6231,"Ġing":6232,"PrÃªmios":6233,"ĠOcidental":6234,"Ġconven":6235,"ceano":6236,"ĠalcanÃ§ou":6237,"rab":6238,"andro":6239,"ĠCard":6240,"TÃŃtulos":6241,"todos":6242,"ĠÃ¡lbuns":6243,"ĠGran":6244,"uas":6245,"ĠprÃ³prios":6246,"ifer":6247,"Ġpud":6248,"100":6249,"Ãªme":6250,"Ã¢ntica":6251,"ioca":6252,"Ġrefere":6253,"Ġcard":6254,"Ġsp":6255,"itch":6256,"isse":6257,"Ġimplement":6258,"uck":6259,"Ġfinan":6260,"ĠverÃ£o":6261,"teis":6262,"Ġimig":6263,"ÃŃna":6264,"Ġadqu":6265,"riÃ§Ã£o":6266,"Ġfundado":6267,"Ġequipa":6268,"Ġconvoc":6269,"Ġperform":6270,"ĠmÃ¡ximo":6271,"Ġconcurso":6272,"ĠDay":6273,"Ġrend":6274,"ĠaplicaÃ§Ã£o":6275,"ĠRog":6276,"ÃŃcul":6277,"Ġutilizada":6278,"ĠSac":6279,"Ġpassageiros":6280,"ĠcrÃ©d":6281,"ibus":6282,"Min":6283,"----":6284,"Ġilhas":6285,"itados":6286,"antos":6287,"meida":6288,"ĠVida":6289,"ilherme":6290,"ĠvizinhanÃ§a":6291,"Is":6292,"Ġ1963":6293,"ĠOscar":6294,"ĠDias":6295,"ĠsoluÃ§Ã£o":6296,"ĠusuÃ¡rios":6297,"ĠquilÃ´metros":6298,"ĠTri":6299,"icago":6300,"ĠCultural":6301,"ĠDisney":6302,"Ġpec":6303,"yd":6304,"Ġterren":6305,"ĠBureau":6306,"ĠveÃŃculos":6307,"ĠSara":6308,"ĠvÃ¡l":6309,"ĠBiodiversity":6310,"utenÃ§Ã£o":6311,"ĠCr":6312,"Ġoferece":6313,"burgo":6314,"urs":6315,"Ġdaquele":6316,"Ġbaseada":6317,"Form":6318,"inguÃ©m":6319,"ĠgÃ©nero":6320,"ĠChile":6321,"Ġterror":6322,"Ġimag":6323,"Ġproduzir":6324,"ĠlÃŃnguas":6325,"Singles":6326,"ĠJornal":6327,"Ġpele":6328,"Ġqueria":6329,"Ġjun":6330,"Ġmanifest":6331,"ĠSuÃŃÃ§a":6332,"Ġplanos":6333,"Ġfran":6334,"ĠestÃ¡dio":6335,"BS":6336,"cer":6337,"ĠcÃ³digo":6338,"Ġperc":6339,"ĠHan":6340,"Ġarmazen":6341,"Äģ":6342,"TP":6343,"Ġ45":6344,"Ġlist":6345,"Ġbanco":6346,"Ġsegue":6347,"ĠCu":6348,"Ġencontro":6349,"ĠVerm":6350,"Ġdeixando":6351,"Ġmortos":6352,"ĠPeru":6353,"ĠCampos":6354,"Ġpagamento":6355,"Ð¾":6356,"pi":6357,"vin":6358,"Ġplaneta":6359,"Ter":6360,"itiva":6361,"Ġextre":6362,"Ġsangue":6363,"pse":6364,"Ġcategorias":6365,"reiro":6366,"ĠRon":6367,"ĠLegisl":6368,"med":6369,"ĠCamb":6370,"uventude":6371,"Ġestrela":6372,"Ġposse":6373,"ĠDVD":6374,"ĠmanhÃ£":6375,"Rev":6376,"Di":6377,"ĠfuncionÃ¡rios":6378,"Alunos":6379,"ĠBlu":6380,"Ġinov":6381,"Ġtub":6382,"Ġmudar":6383,"Resultados":6384,"ĠMonte":6385,"Ġacres":6386,"ĠShow":6387,"Ġchegada":6388,"Ġdireita":6389,"Ġpaul":6390,"1992":6391,"Ġsil":6392,"ĠCop":6393,"ĠfÃ¡b":6394,"ĠMass":6395,"Ġvoo":6396,"win":6397,"ĠFab":6398,"Ġescala":6399,"rac":6400,"aba":6401,"ĠBanco":6402,"|}":6403,"ĠUN":6404,"64":6405,"vent":6406,"ĠCens":6407,"ĠresistÃªncia":6408,"ĠBru":6409,"Ġpossa":6410,"omos":6411,"Ġinferior":6412,"afa":6413,"IB":6414,"Ġantigas":6415,"Ġplac":6416,"Ġdeclarou":6417,"Ġexcel":6418,"Ġconsegue":6419,"ĠNesse":6420,"ĠMadeira":6421,"ets":6422,"gin":6423,"Ġexplora":6424,"Ġpp":6425,"tion":6426,"Ġarran":6427,"ians":6428,"Ġrecebe":6429,"ĠMax":6430,"ontade":6431,"ĠAlexandre":6432,"ĠLibert":6433,"Mus":6434,"Ġoportunidade":6435,"Ġideias":6436,"Ġnam":6437,"Ġculturais":6438,"ocol":6439,"Ġnovela":6440,"Ser":6441,"ĠNev":6442,"kin":6443,"Ġ*":6444,"Ġconsiste":6445,"Ġ1939":6446,"Ġmorto":6447,"ĠoposiÃ§Ã£o":6448,"ĠexpansÃ£o":6449,"Ġluc":6450,"tera":6451,"ĠutilizaÃ§Ã£o":6452,"Ġcusto":6453,"bon":6454,"lboard":6455,"iki":6456,"ĠcondiÃ§Ã£o":6457,"ĠSecretaria":6458,"Ġencerra":6459,"Ġsexual":6460,"ison":6461,"ĠBranco":6462,"quetebol":6463,"inÃ§Ã£o":6464,"ClassificaÃ§Ã£o":6465,"Ġbe":6466,"Ġfortes":6467,"Ġvant":6468,"ĠsÃ©culos":6469,"Ġdor":6470,"ĠgravaÃ§Ã£o":6471,"Desde":6472,"alizar":6473,"ĠEntÃ£o":6474,"ĠRosa":6475,"Ġ1958":6476,"Ġdescoberto":6477,"ĠacadÃªm":6478,"Ġvencedor":6479,"gh":6480,"Ġdro":6481,"Ġmistura":6482,"ĠGold":6483,"Ġten":6484,"Ġrebel":6485,"Ġato":6486,"Ġtempestade":6487,"keting":6488,"Ġautoridades":6489,"posiÃ§Ãµes":6490,"inadores":6491,"ogia":6492,"Ã©ia":6493,"Ġexterior":6494,"Ġ1961":6495,"Ġaquele":6496,"Ġcrime":6497,"Ġbronze":6498,"Ġhospital":6499,"Ġplanta":6500,"ĠBill":6501,"ĠgalÃ¡x":6502,"Ġnucle":6503,"ances":6504,"Ġvocais":6505,"93":6506,"ĠEuropeia":6507,"Equ":6508,"Ġ300":6509,"Ġdiagrama":6510,"Ġsupera":6511,"ĠLeague":6512,"bert":6513,"erica":6514,"Ġ000":6515,"ĠSeb":6516,"Ġendere":6517,"Ind":6518,"ĠSousa":6519,"ĠopiniÃ£o":6520,"Ġperder":6521,"ĠjaponÃªs":6522,"Ġadministrativa":6523,"ander":6524,"Ġdestes":6525,"ĠPlant":6526,"ĠNat":6527,"ĠMill":6528,"Ġtentar":6529,"eÃ§":6530,"Ġgar":6531,"Ġalimentos":6532,"ĠLeÃ£o":6533,"ĠSchool":6534,"Ġjul":6535,"ĠPopular":6536,"ĠFoot":6537,"indows":6538,"ĠligaÃ§Ã£o":6539,"ĠGonÃ§":6540,"UC":6541,"Ġgarantir":6542,"ĠMur":6543,"ĠLee":6544,"ĠsatÃ©l":6545,"Ġorqu":6546,"ĠinÃºm":6547,"Ġdiret":6548,"Ġseriam":6549,"Ġrodo":6550,"ogrÃ¡fico":6551,"Ġchega":6552,"ĠPrograma":6553,"bres":6554,"Ġvs":6555,"Ġtaref":6556,"ĠbilhÃµes":6557,"ĠÃ¡guas":6558,"Ã¡ginas":6559,"Ġatingiu":6560,"Ãºlt":6561,"field":6562,"astia":6563,"Ġpopulares":6564,"Ġataques":6565,"Ġvira":6566,"ĠHospital":6567,"chi":6568,"Ġcampos":6569,"Ġresponsabilidade":6570,"Ġadvers":6571,"ĠFol":6572,"ĠMP":6573,"uo":6574,"Ġagu":6575,"Ġfamoso":6576,"DA":6577,"Ġresto":6578,"Ġhidro":6579,"Ġleis":6580,"Ġfisc":6581,"ĠFri":6582,"ĠJud":6583,"Ġinfluenci":6584,"Ġot":6585,"Ġcara":6586,"Ġanalis":6587,"Ãļ":6588,"ĠexecuÃ§Ã£o":6589,"ĠÃĵ":6590,"Ġrealizadas":6591,"ĠCla":6592,"ĠAre":6593,"Ġconcelho":6594,"Ġpergunt":6595,"ĠcenÃ¡rio":6596,"Ġpossib":6597,"Ġconstruir":6598,"Ġtomar":6599,"ĠPÃºblico":6600,"92":6601,"Ġaumentar":6602,"ĠYo":6603,"ĠConde":6604,"Ġ978":6605,"ĠXVIII":6606,"rey":6607,"udes":6608,"BI":6609,"Ġvinte":6610,"Ġroteiro":6611,"ĠdisponÃŃveis":6612,"ceae":6613,"ĠAlmeida":6614,"Ġencer":6615,"Ġambas":6616,"ĠFar":6617,"ĠprÃŃncipe":6618,"Ġproteg":6619,"Ġcontou":6620,"ĠSw":6621,"Ġconsist":6622,"ĠFemin":6623,"Ġformou":6624,"Ġequipamentos":6625,"ĠficÃ§Ã£o":6626,"teriores":6627,"Ġnaquele":6628,"Ã©sar":6629,"Ġcomputador":6630,"Not":6631,"Ð¸":6632,"Ġemerg":6633,"Ġpesquisas":6634,"tex":6635,"ĠXVI":6636,"Ġpad":6637,"Ġmanteve":6638,"ĠEntretanto":6639,"Blog":6640,"ĠLar":6641,"edida":6642,"67":6643,"Ġcima":6644,"ocracia":6645,"ĠLy":6646,"Ġconquista":6647,"ouro":6648,"ĠLop":6649,"ologias":6650,"Ãł":6651,"ĠRibeiro":6652,"Ġcomerciais":6653,"anismo":6654,"Ã©sia":6655,"intas":6656,"ika":6657,"Ġcompra":6658,"essora":6659,"ĠĠĠ":6660,"Franc":6661,"ĠBrown":6662,"ugo":6663,"ĠmatÃ©ria":6664,"ily":6665,"Ġaborda":6666,"cies":6667,"Ġviu":6668,"ĠfundaÃ§Ã£o":6669,"Ġtitular":6670,"Ġvale":6671,"ĠinvestigaÃ§Ã£o":6672,"Ġmeios":6673,"itivo":6674,"Ã¢nc":6675,"ĠRegional":6676,"Ġarque":6677,"Ġimpacto":6678,"ĠPap":6679,"Ġrelev":6680,"ĠindependÃªncia":6681,"Ġtenham":6682,"net":6683,"chas":6684,"si":6685,"Ġfeitos":6686,"orizonte":6687,"Ġreforma":6688,"ĠRevoluÃ§Ã£o":6689,"ociaÃ§Ãµes":6690,"Ġshows":6691,"ple":6692,"Ġreflet":6693,"presa":6694,"Ġmeia":6695,"Ġadqui":6696,"Ġlegal":6697,"Sal":6698,"Ġ33":6699,"sul":6700,"Ġclima":6701,"Ġconsult":6702,"ĠAtÃ©":6703,"ĠTorn":6704,"ĠChe":6705,"ĠBay":6706,"tudo":6707,"Ġlevando":6708,"Super":6709,"Ġdiscut":6710,"94":6711,"ĠirÃ¡":6712,"emit":6713,"ĠBillboard":6714,"ĠIb":6715,"ĠAugusto":6716,"ĠCant":6717,"ĠDesenvolvimento":6718,"ĠbritÃ¢nica":6719,"aliza":6720,"ĠAnn":6721,"deal":6722,"quete":6723,"bio":6724,"ĠreligiÃ£o":6725,"Ġiria":6726,"ĠChampionship":6727,"uÃ¡rio":6728,"Ġpromover":6729,"91":6730,"ĠSob":6731,"Ġrelacionamento":6732,"ĠvÃª":6733,"fede":6734,"ĠRem":6735,"ĠStre":6736,"Ġconsumo":6737,"anhas":6738,"rativo":6739,"duÃ§Ãµes":6740,"Apesar":6741,"imbra":6742,"Ġcru":6743,"Ġreino":6744,"ĠPernambuco":6745,"Ġvul":6746,"ĠBerlim":6747,"Ġpreso":6748,"Ġrusso":6749,"ĠNorm":6750,"ĠCirc":6751,"ONE":6752,"irou":6753,"ĠreuniÃ£o":6754,"ston":6755,"Ġsag":6756,"Ġparque":6757,"Ġprol":6758,"ertain":6759,"itÃª":6760,"tro":6761,"Ġsucess":6762,"ĠameaÃ§":6763,"inga":6764,"isi":6765,"qÃ¼":6766,"ÃŃnas":6767,"idez":6768,"CC":6769,"Ġdirec":6770,"Ġquadr":6771,"li":6772,"Ġfilosofia":6773,"elle":6774,"fa":6775,"New":6776,"87":6777,"Ġmotivo":6778,"Ġquadro":6779,"ĠCensus":6780,"ĠeconÃ´mica":6781,"ĠIndepend":6782,"ĠRicardo":6783,"Ġidentidade":6784,"Ġassassin":6785,"ĠFun":6786,"aborat":6787,"Ġvontade":6788,"Ġ$":6789,"uru":6790,"Ġprovas":6791,"ĠSeus":6792,"DE":6793,"Ġmesmos":6794,"ĠLouis":6795,"Ġacaba":6796,"Comunas":6797,"Ã¢nd":6798,"ĠcrÃŃticos":6799,"Ġportugueses":6800,"ĠÃ¢mb":6801,"Ġ1944":6802,"endia":6803,"Ġdefens":6804,"Ġevent":6805,"ations":6806,"Ġjuntos":6807,"1994":6808,"endem":6809,"Ġruas":6810,"ĠorganizaÃ§Ãµes":6811,"ĠreduÃ§Ã£o":6812,"ĠfÃ£s":6813,"Ġatua":6814,"ĠPraia":6815,"ĠBarcelona":6816,"ĠocasiÃ£o":6817,"Ã©rm":6818,"Ġcontinuar":6819,"Ġintitulado":6820,"Ġacontece":6821,"nce":6822,"Ġpermitir":6823,"Ġtextos":6824,"Ġcolocado":6825,"ĠcoleÃ§Ã£o":6826,"lig":6827,"ĠPrÃŃncipe":6828,"Ã³sito":6829,"eff":6830,"Ġcred":6831,"ĠusuÃ¡rio":6832,"Ġtalvez":6833,"urgia":6834,"yclop":6835,"ĠUr":6836,"oland":6837,"ĠGrÃ©cia":6838,"Ġvariedade":6839,"xa":6840,"Ġrecente":6841,"Ġpedra":6842,"Ġtraduz":6843,"Ġverde":6844,"ĠrÃ¡pido":6845,"Ġcarga":6846,"ÃŃticos":6847,"Ġsuje":6848,"ultos":6849,"landa":6850,"olas":6851,"rupÃ§Ã£o":6852,"ilos":6853,"Ġlocaliza":6854,"Ġassunto":6855,"ble":6856,"ivelmente":6857,"Ġcaminh":6858,"ĠEgito":6859,"Ġpodemos":6860,"Ġtestem":6861,"%).":6862,"ĠmanutenÃ§Ã£o":6863,"arqu":6864,"Ġecl":6865,"ĠCearÃ¡":6866,"ĠediÃ§Ãµes":6867,"PR":6868,"Ġprofessores":6869,"ĠDemocrÃ¡t":6870,"Ġante":6871,"Ġsoci":6872,"retor":6873,"ĠMartins":6874,"Ġpena":6875,"fÃ©":6876,"Ġficando":6877,"Ġvisita":6878,"Ġfundador":6879,"ĠRet":6880,"Ġindividual":6881,"iliares":6882,"ĠHill":6883,"ĠcomeÃ§o":6884,"Ġincom":6885,"iversÃ¡rio":6886,"Ġcomplexo":6887,"entre":6888,"abil":6889,"ĠWill":6890,"ÃŃr":6891,"Ġsofreu":6892,"uven":6893,"Ġpreciso":6894,"84":6895,"ami":6896,"GE":6897,"Mat":6898,"ĠdoenÃ§as":6899,"Ġdanos":6900,"zi":6901,"Ġvan":6902,"Ġdeixa":6903,"Ġcoz":6904,"Ġatuais":6905,"Ġconhecer":6906,"viar":6907,"ĠJoaqu":6908,"Ãºr":6909,"ĠHenry":6910,"ĠHal":6911,"ĠsÃ¡b":6912,"ĠOx":6913,"ĠNav":6914,"ĠUru":6915,"rono":6916,"Ġproduzida":6917,"Ġnascimento":6918,"ĠÃ³rgÃ£o":6919,"Ġqueb":6920,"Ġestudou":6921,"eirÃ£o":6922,"Ġeditor":6923,"ĠAlves":6924,"ĠPas":6925,"otes":6926,"DF":6927,"Ġnobre":6928,"ĠSistema":6929,"Ġrainha":6930,"ĠevoluÃ§Ã£o":6931,"ĠAlberto":6932,"Ġmensagem":6933,"Cant":6934,"ices":6935,"Ġgrego":6936,"ĠVia":6937,"ĠsÃŃ":6938,"Il":6939,"iti":6940,"Inst":6941,"Ġsurgiu":6942,"AA":6943,"oli":6944,"Ġvil":6945,"ĠRus":6946,"Ġcenas":6947,"Ġaspect":6948,"raria":6949,"Ġdescont":6950,"odas":6951,"Cr":6952,"rente":6953,"teza":6954,"ĠAfonso":6955,"Nas":6956,"Ġ1959":6957,"SÃ©ries":6958,"Ġanimal":6959,"ĠlideranÃ§a":6960,"ĠSat":6961,"ĠfrequÃªncia":6962,"Ġfazia":6963,"ĠForÃ§a":6964,"nasc":6965,"Ġ1943":6966,"ĠEstre":6967,"ĠChicago":6968,"ierre":6969,"Ġ1942":6970,"Ġmass":6971,"JosÃ©":6972,"ĠMary":6973,"Ã¼r":6974,"ĠfÃŃsico":6975,"ĠOficial":6976,"Ġconclus":6977,"eng":6978,"eda":6979,"Ġevid":6980,"Ġsubs":6981,"Ġequival":6982,"Ġfins":6983,"Ġparcial":6984,"ĠIsto":6985,"riga":6986,"itiba":6987,"ĠPalm":6988,"Dec":6989,"ĠtÃŃp":6990,"Ġcancel":6991,"ĠEspecial":6992,"rog":6993,"ĠPubl":6994,"Ã´mbia":6995,"ĠEM":6996,"ĠPalÃ¡cio":6997,"Mic":6998,"ower":6999,"Ġarquitetura":7000,"mat":7001,"icada":7002,"porto":7003,"Ġcompost":7004,"oroeste":7005,"Ġtentou":7006,"ediÃ§Ã£o":7007,"ibiliz":7008,"FamÃŃlia":7009,"Ġmoderna":7010,"rary":7011,"ĠOne":7012,"izadas":7013,"ols":7014,"cife":7015,"Äĩ":7016,"Ġapel":7017,"QU":7018,"ĠBook":7019,"van":7020,"mentos":7021,"fal":7022,"Ġaspectos":7023,"Ġnormal":7024,"ĠEngenh":7025,"ĠMinistro":7026,"ertainment":7027,"ĠterritÃ³rios":7028,"Ġferrovi":7029,"Ġfoss":7030,"62":7031,"ĠPesqu":7032,"ÃŃmpico":7033,"Ġsegundos":7034,"Ġnatal":7035,"Ãºnior":7036,"EG":7037,"Ġsuporte":7038,"ission":7039,"PA":7040,"Ġutilizados":7041,"ĠGirl":7042,"elect":7043,"Ġdentre":7044,"61":7045,"Ġdeus":7046,"Ġmob":7047,"ĠprÃªmios":7048,"andes":7049,"ĠhistÃ³rica":7050,"ratado":7051,"amen":7052,"ĠduraÃ§Ã£o":7053,"Ġbandeira":7054,"Ġeduc":7055,"Ã©lgica":7056,"2020":7057,"Ġrealizados":7058,"ÃŃfer":7059,"Ġsaiu":7060,"Ã¡ter":7061,"ĠAssoc":7062,"ĠascendÃªncia":7063,"Ġletra":7064,"ĠMaur":7065,"63":7066,"ispos":7067,"ali":7068,"olf":7069,"Ġrelacionados":7070,"Ġmit":7071,"Particip":7072,"box":7073,"rior":7074,"Ġconstante":7075,"ĠaÃŃ":7076,"ology":7077,"ĠFilm":7078,"omy":7079,"ĠJim":7080,"irem":7081,"Ġciclo":7082,"top":7083,"ĠnotÃŃcias":7084,"Ġdescritas":7085,"yan":7086,"inopse":7087,"Ġcomandante":7088,"dez":7089,"Ġpista":7090,"iosa":7091,"Ġdesej":7092,"âĢĭ":7093,"ĠSand":7094,"Ġconfig":7095,"Ġsoftware":7096,"ĠGreg":7097,"ĠÃĢ":7098,"Ġatletas":7099,"azer":7100,"Ġsituada":7101,"ĠSociety":7102,"Ġmomentos":7103,"ĠPaÃŃses":7104,"ces":7105,"ĠAN":7106,"Ġbloc":7107,"ĠColle":7108,"ĠSin":7109,"Ġpropriedades":7110,"pis":7111,"Ġtrip":7112,"rum":7113,"onha":7114,"Ġvere":7115,"Ã§ado":7116,"ĠâĢĺ":7117,"arta":7118,"ratos":7119,"Ġtradicionais":7120,"Ġreinado":7121,"Ã¡stico":7122,"ĠLetras":7123,"ĠTempo":7124,"Ġ1956":7125,"ĠÃ¢mbito":7126,"Ġapresentam":7127,"Ġchegando":7128,"Ġgolpe":7129,"Ġcens":7130,"1993":7131,"Ġ1948":7132,"ĠTy":7133,"provÃŃncia":7134,"Ġrequer":7135,"ĠEntertainment":7136,"Ġcarros":7137,"raph":7138,"ution":7139,"Ġafric":7140,"Ġvencer":7141,"ration":7142,"ĠempresÃ¡rio":7143,"ĠBritÃ¢n":7144,"rot":7145,"Ġessencial":7146,"lei":7147,"ĠÃ³p":7148,"Film":7149,"Ġclara":7150,"arav":7151,"Ġfrag":7152,"Ġmuseu":7153,"Ġinicia":7154,"ONEOS":7155,"ĠSm":7156,"Ġpreto":7157,"baix":7158,"Ġfantas":7159,"Ġestiv":7160,"ĠLONEOS":7161,"Ġengenheiro":7162,"quim":7163,"Ġquestion":7164,"Ã³logos":7165,"Ġdiplom":7166,"Ġconsol":7167,"ping":7168,"Prin":7169,"idi":7170,"Ġregistro":7171,"ĠÃ´":7172,"ĠestaÃ§Ãµes":7173,"Ġsaud":7174,"Ġpasso":7175,"Ġadvogado":7176,"edral":7177,"Marc":7178,"ĠBaixos":7179,"iosos":7180,"americanos":7181,"ĠCÃ©sar":7182,"Ġjogou":7183,"ĠWindows":7184,"Ġroub":7185,"ĠÎ":7186,"Ġequil":7187,"rud":7188,"Ġencontrados":7189,"Ġ47":7190,"Ġchamados":7191,"Ġpul":7192,"ĠtrÃ¡s":7193,"rizes":7194,"ni":7195,"Ġargument":7196,"Ġfatores":7197,"Lu":7198,"ĠLuis":7199,"Ġimplant":7200,"Ġsobretudo":7201,"ĠHistory":7202,"Ġterem":7203,"ĠvitÃ³rias":7204,"Ġromano":7205,"Ġtorc":7206,"ĠSupremo":7207,"tada":7208,"Ġanual":7209,"Ġdificuldades":7210,"Ġdit":7211,"ĠDer":7212,"ĠcomeÃ§ar":7213,"\"),":7214,"ĠSenado":7215,"fÃŃb":7216,"Ġgram":7217,"Ġgravadora":7218,"Ġadquir":7219,"Fran":7220,"ĠinfÃ¢ncia":7221,"Ġassinou":7222,"ĠSi":7223,"Ġherd":7224,"ĠSebast":7225,"83":7226,"ĠGuilherme":7227,"ti":7228,"Sua":7229,"ye":7230,"ĠRoyal":7231,"ĠBig":7232,"Ġretornou":7233,"Ġatingir":7234,"raestrutura":7235,"ĠprÃ³ximos":7236,"Ġincl":7237,"Seu":7238,"peÃ£":7239,"ĠVenez":7240,"nibus":7241,"1990":7242,"ĠalemÃ£es":7243,"ĠBi":7244,"ĠMÃºsica":7245,"ĠTrabalho":7246,"ĠopÃ§Ã£o":7247,"ĠBob":7248,"ĠrecÃ©m":7249,"Ġcolocar":7250,"Ġbens":7251,"Outros":7252,"Cole":7253,"ĠPrinc":7254,"ray":7255,"Ġteste":7256,"Ph":7257,"oco":7258,"can":7259,"Ġpalco":7260,"Ġincent":7261,"ĠâĢ¢":7262,"Don":7263,"Ġvert":7264,"Ġficaram":7265,"ĠTexas":7266,"Empresas":7267,"Ġdetalhes":7268,"Ġdeleg":7269,"Ġ1954":7270,"ificou":7271,"ĠPel":7272,"ĠTop":7273,"ĠLim":7274,"aros":7275,"Ġtenho":7276,"lad":7277,"ĠcÃ¢m":7278,"ĠresidÃªncia":7279,"mm":7280,"Ġmad":7281,"ĠAtlÃ©tico":7282,"ontes":7283,"ĠKe":7284,"Ġimpress":7285,"Ġsituado":7286,"Ðµ":7287,"uar":7288,"ĠConf":7289,"ĠcapitÃ£o":7290,"Aut":7291,"Ġ37":7292,"Ġ1941":7293,"Ġplant":7294,"Clubes":7295,"Leia":7296,"Ġpessoais":7297,"ĠavaliaÃ§Ã£o":7298,"ĠlÃŃderes":7299,"ĠPÃºblica":7300,"ĠlanÃ§ados":7301,"ricidade":7302,"Public":7303,"ts":7304,"colas":7305,"intos":7306,"elhas":7307,"ridas":7308,"ĠCada":7309,"Ol":7310,"Ġpoeta":7311,"Ġestaduais":7312,"Ġespalh":7313,"ĠPolÃ´nia":7314,"Ġpeg":7315,"%,":7316,"Mon":7317,"ĠJr":7318,"Ã¡ce":7319,"ĠMaran":7320,"ĠÅ":7321,"Mortos":7322,"ĠCart":7323,"Ġdada":7324,"Ġcomunidades":7325,"ĠLatina":7326,"Ġquis":7327,"alizada":7328,"Rece":7329,"ĠCompany":7330,"Ġinfantil":7331,"Ġpodendo":7332,"kins":7333,"enz":7334,"Ġtornaram":7335,"Ġpacientes":7336,"Ġmig":7337,"endido":7338,"ĠFreder":7339,"une":7340,"rabe":7341,"Atores":7342,"antemente":7343,"Ġimediatamente":7344,"ition":7345,"ĠCollege":7346,"Ġestruturas":7347,"Ġembarc":7348,"Cicl":7349,"Ġeleg":7350,"manda":7351,"fica":7352,"Ġcandidatos":7353,"atar":7354,"Ġcong":7355,"list":7356,"ĠSÃ³":7357,"sem":7358,"Ġdestino":7359,"ĠÃ¡c":7360,"Ġhosp":7361,"ank":7362,"ĠFlores":7363,"Ġiniciativa":7364,"Ġdesenvolveu":7365,"ĠsecretÃ¡rio":7366,"endentes":7367,"ĠCoimbra":7368,"ĠBrit":7369,"ENT":7370,"Notas":7371,"Ġperf":7372,"oth":7373,"ersÃ£o":7374,"inks":7375,"Ã³cia":7376,"Ġapaix":7377,"ĠDar":7378,"Ġchegaram":7379,"omen":7380,"ĠOutros":7381,"ĠIrlanda":7382,"ĠSci":7383,"cebispo":7384,"Ġvaga":7385,"ĠDuque":7386,"Ġrecurso":7387,"Ġrios":7388,"Ġtopo":7389,"JoÃ£o":7390,"pal":7391,"ĠÃ³t":7392,"ĠGram":7393,"ĠPost":7394,"Ġquinto":7395,"Ġdocumento":7396,"Ġenorme":7397,"Ġ1955":7398,"ĠZel":7399,"Ġcompartilh":7400,"ĠmatemÃ¡tica":7401,"1991":7402,"Ġperde":7403,"Ġextremamente":7404,"ĠBelo":7405,"ĠSeguranÃ§a":7406,"Ã¢ncer":7407,"azar":7408,"ĠPesso":7409,"Ġmelhorar":7410,"JÃ¡":7411,"ĠposiÃ§Ãµes":7412,"Ġ39":7413,"Ġcerta":7414,"ĠÃ³rgÃ£os":7415,"ĠParl":7416,"ĠprÃ¡ticas":7417,"ĠUE":7418,"ĠTaxon":7419,"ministro":7420,"Ġlimite":7421,"ĠmilhÃ£o":7422,"Ġchamou":7423,"yclopedia":7424,"ĠpalÃ¡cio":7425,"Ġ1938":7426,"CP":7427,"Ġsep":7428,"ĠFootball":7429,"Ġentender":7430,"rade":7431,"Ġcad":7432,"ĠassociaÃ§Ã£o":7433,"Ġestudar":7434,"load":7435,"prim":7436,"'t":7437,"endendo":7438,"ĠTecnologia":7439,"ser":7440,"ĠanimaÃ§Ã£o":7441,"Ã³so":7442,"ĠLit":7443,"edo":7444,"ĠBÃ©lgica":7445,"Ã§ul":7446,"Ġturno":7447,"ĠSouth":7448,"ĠJackson":7449,"UR":7450,"dy":7451,"ĠSta":7452,"Ġtrou":7453,"ĠColÃ´mbia":7454,"Ġrenda":7455,"SA":7456,"Ġ08":7457,"ĠEstes":7458,"ÃŃsica":7459,"Ġlonge":7460,"fab":7461,"oga":7462,"Ġguarda":7463,"Ġrelativamente":7464,"Ġemprego":7465,"ĠcarÃ¡ter":7466,"Ġvac":7467,"ĠRÃ¡dio":7468,"ĠUnidas":7469,"ĠKa":7470,"Final":7471,"ĠdefiniÃ§Ã£o":7472,"Ġ01":7473,"ĠJuan":7474,"Ġproporcion":7475,"Ġinser":7476,"ĠParÃ¡":7477,"Ġtestes":7478,"ĠTerc":7479,"ĠAgu":7480,"amarca":7481,"Ġglobal":7482,"Sinopse":7483,"ĠsÃ©ries":7484,"elar":7485,"oo":7486,"Ġdesfil":7487,"uva":7488,"Ġpraia":7489,"Ġmostrar":7490,"ridge":7491,"ĠSing":7492,"Ġporto":7493,"Ġdesloc":7494,"ĠAvenida":7495,"eixes":7496,"ĠCabo":7497,"Ġcoop":7498,"ĠSantiago":7499,"Ġaulas":7500,"Ġbaseados":7501,"Ġacrescent":7502,"Ġleitura":7503,"Ġbl":7504,"ĠprincÃŃpios":7505,"ĠHomem":7506,"PE":7507,"emburgo":7508,"ĠEsporte":7509,"Bas":7510,"Ġlav":7511,"Ġestou":7512,"ensa":7513,"Ġresg":7514,"Ġ1952":7515,"rÃ³":7516,"ricos":7517,"Ġeditora":7518,"ĠJoseph":7519,"heim":7520,"ĠAlc":7521,"ĠFÃ³rmula":7522,"Ġentidade":7523,"yo":7524,"ody":7525,"Ġ1957":7526,"ouco":7527,"ĠJardim":7528,"ĠcompetiÃ§Ãµes":7529,"Ġdesenho":7530,"Ã§amento":7531,"Ġexperiment":7532,"sky":7533,"Casa":7534,"ĠFut":7535,"Ġparticularmente":7536,"ĠScott":7537,"ĠGrosso":7538,"Ġjaponesa":7539,"Ġanti":7540,"ĠjustiÃ§a":7541,"Cin":7542,"Å¡":7543,"anÃ§o":7544,"Ġjudeus":7545,"ĠRap":7546,"the":7547,"Ġpovos":7548,"ĠCP":7549,"ĠAntes":7550,"Ġmorre":7551,"ĠLes":7552,"SC":7553,"Ġdura":7554,"ĠEstÃ¡dio":7555,"Ġacum":7556,"ordes":7557,"Ãªnt":7558,"Ġbola":7559,"rativos":7560,"Ġtenta":7561,"ĠeletrÃ´nico":7562,"Ġdiscipl":7563,"ĠPia":7564,"Ġbusc":7565,"Ġtreinamento":7566,"Ġsai":7567,"IO":7568,"Ã§ar":7569,"ÃŃria":7570,"Ġfossem":7571,"ĠMato":7572,"ĠSouza":7573,"ĠgraÃ§as":7574,"ĠMedicina":7575,"mond":7576,"Ġ41":7577,"ĠLuz":7578,"Ġexpand":7579,"Ġcastelo":7580,"VID":7581,"zy":7582,"Ġbater":7583,"ĠHorizonte":7584,"ĠFM":7585,"Ġagrad":7586,"Ġinstru":7587,"erdo":7588,"ecidos":7589,"âĢ¢":7590,"Livros":7591,"\").":7592,"ĠVin":7593,"rimÃ³nio":7594,"elson":7595,"ises":7596,"Obras":7597,"inete":7598,"FundaÃ§Ãµes":7599,"Ġrecentes":7600,"ĠEP":7601,"ourn":7602,"Ġsuspe":7603,"Ġfuncionamento":7604,"81":7605,"ĠUp":7606,".:":7607,"Ġuniversidade":7608,"Ġpatroc":7609,"Ġloja":7610,"ilaÃ§Ã£o":7611,"ĠmÃ©todos":7612,"Sobre":7613,"Ġbic":7614,"Ġfoco":7615,"ĠfÃ©":7616,"ĠninguÃ©m":7617,"Ġler":7618,"Ġ1936":7619,"unn":7620,"ĠsubstituÃŃdo":7621,"Ġvermelho":7622,"Ġbandas":7623,"iria":7624,"Discografia":7625,"Rom":7626,"Nova":7627,"cast":7628,"ĠPrin":7629,"Ġ;":7630,"Ġregional":7631,"ĠagrÃŃ":7632,"Ġcombust":7633,"Ġmicro":7634,"Ġ1946":7635,"work":7636,"Ġmedic":7637,"Ã¡culo":7638,"Ġopt":7639,"ÃŃsmo":7640,"ĠColÃ©gio":7641,"ĠeconÃ´mico":7642,"ecimentos":7643,"ĠPraÃ§a":7644,"Ġrecebido":7645,"Sim":7646,"ĠAdministraÃ§Ã£o":7647,"82":7648,"Ġtrono":7649,"Ġmexic":7650,"icia":7651,"itadas":7652,"Ġuniverso":7653,"amo":7654,"ĠMosc":7655,"Ġingress":7656,"acho":7657,"row":7658,"Ġbiz":7659,"ungria":7660,"bi":7661,"Bo":7662,"ery":7663,"ĠPs":7664,"ĠAlto":7665,"inental":7666,"ilton":7667,"ĠContudo":7668,"entar":7669,"Ġcore":7670,"dol":7671,"ĠdomÃ©st":7672,"ĠHouse":7673,"thur":7674,"tico":7675,"Ġreje":7676,"ipes":7677,"ĠRomano":7678,"Respon":7679,"Ġcomemora":7680,"ĠDat":7681,"ĠOrig":7682,"Ã©culo":7683,"ervo":7684,"ĠGoiÃ¡s":7685,"inth":7686,"Ġvet":7687,"itamente":7688,"ĠRevista":7689,"Ġvive":7690,"ty":7691,"ĠUrb":7692,"ĠFam":7693,"ĠTime":7694,"idth":7695,"ĠrepresentaÃ§Ã£o":7696,"ĠDC":7697,"ĠGreen":7698,"Ġdiagn":7699,"ĠDigital":7700,"Ġutilizando":7701,"2021":7702,"ello":7703,"ĠUs":7704,"Ġrecentemente":7705,"ĠItal":7706,"struÃ§Ã£o":7707,"Ġescolhido":7708,"ĠCarolina":7709,"Ġconsiderados":7710,"Ġpediu":7711,"ĠendereÃ§o":7712,"Ġcliente":7713,"Ġsemelhantes":7714,"ain":7715,"ĠintenÃ§Ã£o":7716,"Ġend":7717,"Ġmedo":7718,"Ġinstrumentos":7719,"Ġmoral":7720,"Ġpraticamente":7721,"ĠnegÃ³cio":7722,"ady":7723,"ĠpromoÃ§Ã£o":7724,"ĠCenter":7725,"ĠinstalaÃ§Ã£o":7726,"ĠBom":7727,"Ġvaz":7728,"ĠLive":7729,"ĠprÃ©dio":7730,"Ġtemporadas":7731,"Ġblo":7732,"ambigu":7733,"reta":7734,"ĠprÃ³prias":7735,"Ġconect":7736,"Rel":7737,"Ġartilh":7738,"ĠAM":7739,"ĠsituaÃ§Ãµes":7740,"range":7741,"raft":7742,"ĠclÃ¡ssico":7743,"ĠEuropeu":7744,"geral":7745,"wan":7746,"Ġespet":7747,"Ġpagar":7748,"ĠJones":7749,"Ġfeliz":7750,"Geral":7751,"ĠlÃŃqu":7752,"Ġaustral":7753,"Ã¡via":7754,"ĠBut":7755,"Ġpensamento":7756,"ĠBraga":7757,"interest":7758,"Ġbreve":7759,"ĠAngola":7760,"ÃŃnsula":7761,"ĠtraduÃ§Ã£o":7762,"ĠSk":7763,"Ġoriginais":7764,"Ġperspect":7765,"Ġpast":7766,"________":7767,"bilidade":7768,"ĠEns":7769,"Ġ46":7770,"1989":7771,"ĠNO":7772,"ĠGrand":7773,"Univers":7774,"ĠgÃ¡s":7775,"ĠindÃŃgenas":7776,"bat":7777,"ĠOriental":7778,"Ġ1947":7779,"ĠDefesa":7780,"Ġmedalhas":7781,"ĠMun":7782,"enhum":7783,"ĠcidadÃ£os":7784,"Sp":7785,"andemia":7786,"CD":7787,"Ġentra":7788,"ĠRay":7789,"ĠcolaboraÃ§Ã£o":7790,"Ġquadrinhos":7791,"Ġcapa":7792,"don":7793,"ĠWhite":7794,"Ãºncia":7795,"ĠRecife":7796,"Ġenvolvendo":7797,"etn":7798,"ĠWay":7799,"ĠRub":7800,"ĠcristÃ£os":7801,"ĠaudiÃªncia":7802,"quÃªs":7803,"inÃ©":7804,"Ġtela":7805,"Ġtratado":7806,"omet":7807,"ĠAmerica":7808,"Ġcoro":7809,"ICA":7810,"Astero":7811,"ĠpÃ¡ginas":7812,"ĠTrÃªs":7813,"Ġreligiosa":7814,"Ġponte":7815,"Ġocidental":7816,"ĠMarco":7817,"ĠColl":7818,"ĠaniversÃ¡rio":7819,"Ġcolor":7820,"Ġcivis":7821,"Mo":7822,"ĠBento":7823,"Ġutilizar":7824,"Ġ1934":7825,"Ġdisputou":7826,"ĠedifÃŃcios":7827,"ĠLinha":7828,"Ġromanos":7829,"ĠOrch":7830,"Ġtonel":7831,"ĠcaracterÃŃstica":7832,"Ġsemif":7833,"iri":7834,"Professores":7835,"ĠcolocaÃ§Ã£o":7836,"Ġasteroide":7837,"rentes":7838,"arias":7839,"ĠascensÃ£o":7840,"icialmente":7841,"ĠTrabalh":7842,"uca":7843,"ape":7844,"Ġexibido":7845,"Ġ400":7846,"Ġconsecut":7847,"Ġocorrer":7848,"ĠEdward":7849,"ĠmÃŃnimo":7850,"Ġintelect":7851,"Ġespanhola":7852,"Ġconde":7853,"ĠGame":7854,"ĠYe":7855,"ĠDen":7856,"aixÃ£o":7857,"Ġconver":7858,"Ġ09":7859,"ĠEncyclopedia":7860,"ĠCarl":7861,"Ġhumor":7862,"iation":7863,"ĠveÃŃculo":7864,"Ġach":7865,"erante":7866,"Ġguard":7867,"Ġ1953":7868,"ĠMendes":7869,"Ġpeda":7870,"ĠvÃŃtimas":7871,"ĠGoogle":7872,"Ġusadas":7873,"ĠlegislaÃ§Ã£o":7874,"ecas":7875,"elly":7876,"Ġpropag":7877,"Ġdesf":7878,"Ġmilhares":7879,"Ġidi":7880,"Ġcorrente":7881,"ĠocupaÃ§Ã£o":7882,"ĠTar":7883,"Ġpoderiam":7884,"HO":7885,"SO":7886,"ĠAires":7887,"Ġcapela":7888,"ĠrÃ¡pida":7889,"urus":7890,"Ġreflex":7891,"rub":7892,"Ð½":7893,"ĠresponsÃ¡veis":7894,"Ġtabela":7895,"emitÃ©rio":7896,"Filmografia":7897,"ĠShe":7898,"rÃ©s":7899,"Objetos":7900,"ÃŃmetros":7901,"ĠcontÃŃn":7902,"Ġinteresses":7903,"ĠadaptaÃ§Ã£o":7904,"IG":7905,"Ġmestre":7906,"ĠSud":7907,"tambÃ©m":7908,"well":7909,"Ġtransport":7910,"ĠTro":7911,"Ġassinado":7912,"Ġindica":7913,"Ġpiano":7914,"ĠBeat":7915,"ĠPict":7916,"Ġcomprar":7917,"ĠfenÃ´m":7918,"ciÃ³n":7919,"ĠAlm":7920,"ĠpreÃ§os":7921,"ĠAli":7922,"itÃ¡rios":7923,"Ġproduzidos":7924,"Ġlimites":7925,"ĠFilip":7926,"ĠÃ´nibus":7927,"agn":7928,"ĠVenezuela":7929,"ĠJoaquim":7930,"Ġfar":7931,"Fac":7932,"domin":7933,"Ġox":7934,"Ġdeterminado":7935,"Ġaberta":7936,"ĠGol":7937,"futebol":7938,"fos":7939,"ĠmÃ¡xima":7940,"ĠHoje":7941,"eries":7942,"ãĤ":7943,"Ġaldeia":7944,"Ġvence":7945,"Ġapost":7946,"Ġprefeitura":7947,"ropolitana":7948,"ĠLag":7949,"Ġrecol":7950,"Ġcanad":7951,"Ġdisponibiliz":7952,"eum":7953,"Ġeconom":7954,"ragÃ£o":7955,"ĠHav":7956,"rew":7957,"Ġmotivos":7958,"Ġelemento":7959,"ĠServ":7960,"ĠAtlÃ¢ntico":7961,"ĠPortuguÃªs":7962,"egas":7963,"ĠAdam":7964,"Maria":7965,"ĠmÃ©dicos":7966,"ĠGust":7967,"ĠLopes":7968,"Ġpoderes":7969,"ĠPolÃŃtica":7970,"ÃŃferos":7971,"Ġterrest":7972,"ĠEstÃ¡":7973,"ĠmantÃ©m":7974,"anz":7975,"Ġcontar":7976,"ophy":7977,"Ġlocalidade":7978,"Ġengenharia":7979,"atÃ³rias":7980,"ĠBarros":7981,"Ġnecessidades":7982,"VocÃª":7983,"Ġrepresentantes":7984,"Ġplay":7985,"Ġideal":7986,"Ġfura":7987,"ĠMesmo":7988,"ilia":7989,"seis":7990,"Ġtomou":7991,"crÃ¢nia":7992,"ĠClass":7993,"ĠindicaÃ§Ãµes":7994,"Ġchef":7995,"Ġcoleg":7996,"Enviar":7997,"ĠsÃ©t":7998,"ĠFortaleza":7999,"ĠHigh":8000,"ĠNorth":8001,"ĠTimes":8002,"ropri":8003,"Igreja":8004,"Ãºltip":8005,"Ġnossas":8006,"Ġindividuais":8007,"usto":8008,"Ġterreno":8009,"ĠpÃ©s":8010,"ĠEsses":8011,"Wh":8012,"Ġconhecidas":8013,".).":8014,"ĠXVII":8015,"Ġjulgamento":8016,"ibe":8017,"ĠgÃªneros":8018,"Ġeng":8019,"Ġtrabalhando":8020,"ĠpadrÃµes":8021,"Embora":8022,"Ġestabelecer":8023,"ĠcÃ¡l":8024,"Ġpapa":8025,"Ġsenhor":8026,"Ġperfil":8027,"ĠcÃ¢mara":8028,"sey":8029,"Ġpron":8030,"Ġpermitindo":8031,"Desambigu":8032,"Ġcomunic":8033,"Ġagreg":8034,"ianismo":8035,"ĠinvasÃ£o":8036,"gada":8037,"ips":8038,"Ġparada":8039,"Ġmoradores":8040,"ĠMachado":8041,"Fre":8042,"Ġga":8043,"Ã´micos":8044,"Ġasp":8045,"Ãªut":8046,"ĠEstudos":8047,"unicipais":8048,"uminense":8049,"Ġalvo":8050,"ati":8051,"Ġerro":8052,"ĠReis":8053,"ped":8054,"ĠLibrary":8055,"Ã©lia":8056,"ĠLas":8057,"Ġfamiliar":8058,"ĠOriente":8059,"Ġassuntos":8060,"edentes":8061,"Ã©ticas":8062,"Ġcobertura":8063,"ĠNews":8064,"Ġdirigidos":8065,"ĠrelatÃ³rio":8066,"mor":8067,"Ġnascido":8068,"entou":8069,"Ġseguido":8070,"Ġservir":8071,"ĠNi":8072,"Ġdireta":8073,"Ġran":8074,"ĠWilliams":8075,"ÑĢ":8076,"Ġampla":8077,"inadas":8078,"Ġobjetivos":8079,"ĠPaz":8080,"Ġparlament":8081,"Ġcabo":8082,"Ġsubt":8083,"EspÃ©cies":8084,"Ġlojas":8085,"real":8086,"ĠMÃ©d":8087,"Ġ55":8088,"Ġ1937":8089,"uth":8090,"ĠRD":8091,"iov":8092,"Ġatendimento":8093,"ĠaprovaÃ§Ã£o":8094,".;":8095,"viÃµes":8096,"Cond":8097,"Ġcalor":8098,"',":8099,"PolÃŃtica":8100,"ĠcÃ¢ncer":8101,"ĠnÃºcleo":8102,"Ġ120":8103,"Ġresist":8104,"Ġmodern":8105,"Ġrepresentante":8106,"Ġ1951":8107,"ĠalteraÃ§Ãµes":8108,"ĠhipÃ³t":8109,"ĠexperiÃªncias":8110,"Ġcriat":8111,"Ġencontrou":8112,"Ġ1933":8113,"Ġespecificamente":8114,"Ġultrap":8115,"ĠIlhas":8116,"imental":8117,"ĠBus":8118,"amas":8119,"ĠartÃŃstica":8120,"ĠCorte":8121,"Ġfoto":8122,"ĠdanÃ§a":8123,"lywood":8124,"ĠSerg":8125,"ĠBow":8126,"ĠCharl":8127,"IP":8128,"ativamente":8129,"ĠWilson":8130,"ĠPrimeiro":8131,"Ġhistoriador":8132,"ĠDesta":8133,"Ġespacial":8134,"itaÃ§Ãµes":8135,"ĠRoss":8136,"ĠdÃŃ":8137,"eo":8138,"Ġib":8139,"ason":8140,"ĠAfric":8141,"din":8142,"uj":8143,"peonatos":8144,"afael":8145,"ĠSong":8146,"iadas":8147,"uega":8148,"ĠanÃºn":8149,"ĠÃļ":8150,"ĠEscÃ³cia":8151,"ĠDinamarca":8152,"Ġsovi":8153,"esi":8154,"Ġestabeleceu":8155,"Ġescolher":8156,"ĠespaÃ§os":8157,"Ġdiscurso":8158,"onomia":8159,"Ġatmos":8160,"ipÃ©l":8161,"ĠOh":8162,"restling":8163,"Ġbeleza":8164,"Ġ1932":8165,"Ġtivesse":8166,"ĠKim":8167,"ĠexploraÃ§Ã£o":8168,"ĠKo":8169,"ĠmÃºsico":8170,"Ġcurto":8171,"Ġverdadeiro":8172,"Ġdesejo":8173,"ĠMarcos":8174,"ĠhorÃ¡rio":8175,"enberg":8176,"Ġpobre":8177,"able":8178,"ĠreaÃ§Ã£o":8179,"Inf":8180,"Ãªx":8181,"Ġaquela":8182,"Ġvisual":8183,"ĠHow":8184,"Ġ44":8185,"ĠcrÃŃtico":8186,"Ġtorre":8187,"Ġaeronave":8188,"ĠpapÃ©is":8189,"Cast":8190,"ĠON":8191,"adeia":8192,"Ġproxim":8193,"day":8194,"ĠKar":8195,"Ġcapac":8196,"vido":8197,"abeth":8198,"........":8199,"ĠPoder":8200,"vora":8201,"ĠLi":8202,"SE":8203,"ĠPom":8204,"ĠPrefeitura":8205,"ĠGrÃ£":8206,"hs":8207,"Ġassumir":8208,"Ġmostrou":8209,"Ġdisputada":8210,"ĠLondon":8211,"ĠalcanÃ§ar":8212,"inthians":8213,"ĠLan":8214,"Ã§amb":8215,"Ġarma":8216,"aylor":8217,"ĠPacÃŃfico":8218,"Ġsamba":8219,"ĠLivro":8220,"ĠNob":8221,"Gra":8222,"Ġambiental":8223,"Ġfestival":8224,"Ġrevelou":8225,"ĠSilv":8226,"Ġ04":8227,"ĠelÃ©trica":8228,"ĠInfant":8229,"ĠBad":8230,"Eventos":8231,"Ġgig":8232,"pido":8233,"Ġparadas":8234,"ister":8235,"ĠIll":8236,"ĠEstaÃ§Ã£o":8237,"Ġfolhas":8238,"ĠZo":8239,"Ġigrejas":8240,"Ġtoneladas":8241,"Ġ1949":8242,"TambÃ©m":8243,"ĠPC":8244,"ĠinterpretaÃ§Ã£o":8245,"Ġexemplos":8246,"Ġpred":8247,"ĠVicente":8248,"ĠWood":8249,":#":8250,"ĠsessÃ£o":8251,"uitos":8252,"Ġfundou":8253,"Ã³leo":8254,"Wil":8255,"stem":8256,"ĠSev":8257,"Ġatores":8258,"Ġfornecer":8259,"ĠAÃ©rea":8260,"ĠEnd":8261,"odia":8262,"Ġagente":8263,"ugar":8264,"Ġpolicial":8265,"ĠUniversal":8266,"egal":8267,"Ġobject":8268,"Ġconex":8269,"AG":8270,"ĠMaranhÃ£o":8271,"500":8272,"Ġabsor":8273,"Ġmargem":8274,"ĠCiÃªncia":8275,"Ġexistentes":8276,"Ġpartidos":8277,"Ġviveu":8278,"ãģ":8279,"Ġ03":8280,"Ġconselho":8281,"berto":8282,"Ġaeronaves":8283,"ĠOu":8284,"Val":8285,"eiÃ§Ãµes":8286,"Ġpoucas":8287,"retanha":8288,"Ġoit":8289,"ĠUcrÃ¢nia":8290,"Ġuns":8291,"Ġdistingu":8292,"On":8293,"Ġespirit":8294,"Ġajudou":8295,"Ġmoda":8296,"Antes":8297,"Ġvagas":8298,"ĠJÃºnior":8299,"Ġestran":8300,"Ġseres":8301,"ĠcafÃ©":8302,"ĠaÃ§":8303,"dutor":8304,"ĠlocalizaÃ§Ã£o":8305,"bgcolor":8306,"sur":8307,"ĠAnim":8308,"Ã¢metro":8309,"Ġchave":8310,"hr":8311,"Ġ05":8312,"unta":8313,"Ġ64":8314,"Ġcrimes":8315,"ĠexercÃŃcio":8316,"Ġexclusivamente":8317,"ĠGabriel":8318,"Ġsinais":8319,"visÃ£o":8320,"ritores":8321,"Ã³grafo":8322,"Ġentretanto":8323,"ĠTen":8324,"Ġdefender":8325,"ĠWalter":8326,"Ġinsc":8327,"ĠâĢĭ":8328,"Ġconvidado":8329,"Ġboas":8330,"Ġmest":8331,"ĠmuÃ§ul":8332,"ĠAP":8333,"ĠConstantino":8334,"Ġgaro":8335,"abase":8336,"ione":8337,"Ġconsag":8338,"Ġtemplo":8339,"Ġsoz":8340,"ines":8341,"Ġfoc":8342,"Ġelet":8343,"ĠaviÃ£o":8344,"ĠSoares":8345,"oclipe":8346,"ĠpossuÃŃa":8347,"1988":8348,"ÃŃbrio":8349,"Ġindicado":8350,"ĠFight":8351,"Ġanex":8352,"chen":8353,"1985":8354,"Treinadores":8355,"UT":8356,"Ġnotas":8357,"Ġcho":8358,"ĠFigu":8359,"Ġjard":8360,"Ġchama":8361,"Ġcartas":8362,"Ġromana":8363,"Ġcoluna":8364,"ronomia":8365,"ĠinstalaÃ§Ãµes":8366,"Ġacel":8367,"ĠVictor":8368,"à¤":8369,"Ġautoria":8370,"ĠindivÃŃduo":8371,"ogue":8372,"ĠUlt":8373,"Ġabre":8374,"rix":8375,"ĠBorg":8376,"ĠconclusÃ£o":8377,"Ġmoderno":8378,"Ġvoto":8379,"ĠOeste":8380,"Ġ1935":8381,"ĠsatÃ©lite":8382,"Ġpossam":8383,"ĠJohnson":8384,"Ġpintor":8385,"Ġcav":8386,"Ġfranceses":8387,"ĠesforÃ§os":8388,"ĠSag":8389,"Ġdesemb":8390,"Ã´nicas":8391,"Ġautora":8392,"ĠOxford":8393,"ĠRu":8394,"ĠfÃ¡brica":8395,"ĠtransferÃªncia":8396,"ĠBlog":8397,"Ġassinatura":8398,"ĠesforÃ§o":8399,"Ġpion":8400,"Ġreserva":8401,"ĠsÃŃmbolo":8402,"ilv":8403,"ĠLogo":8404,"Ġ42":8405,"Ġjuiz":8406,"Ġdomingo":8407,"ĠestratÃ©gia":8408,"Ġcaiu":8409,"ĠvÃŃdeos":8410,"Ġamplamente":8411,"Bl":8412,"ao":8413,"Ġrural":8414,"ĠBab":8415,"Ġtropicais":8416,"Govern":8417,"rista":8418,"feita":8419,"Ġcanais":8420,"Faixas":8421,"fund":8422,"2022":8423,"Ġmatem":8424,"Ġsimilar":8425,"erb":8426,"Ġfortal":8427,"Ciclistas":8428,"Ġdoze":8429,"ĠEvang":8430,"Ġjuntou":8431,"ĠDra":8432,"Ġatuar":8433,"ĠpossÃŃveis":8434,"ograph":8435,"ĠFernandes":8436,"Ġfiguras":8437,"Ġdecreto":8438,"urais":8439,"Ġhonra":8440,"ĠVill":8441,"ĠLucas":8442,"ĠCara":8443,"ĠclÃŃn":8444,"ipÃ©lago":8445,"ĠParaÃŃba":8446,"Ġmarcas":8447,"Ġeuropeus":8448,"ĠMarcelo":8449,"ĠCria":8450,"Ġsatisf":8451,"Ġ43":8452,"Ġpensar":8453,"ĠGuarda":8454,"Ġinterrom":8455,"Ġmediev":8456,"Ġderrot":8457,"Ã©trica":8458,"ĠGard":8459,"ĠSum":8460,"ĠPinto":8461,"Ġamericanos":8462,"Ġvar":8463,"ĠWW":8464,"ĠvÃŃtima":8465,"Ġagricultura":8466,"ittle":8467,"Ela":8468,"Ġaeroporto":8469,"idel":8470,"Ġcasado":8471,"Trata":8472,"ĠÃ©t":8473,"ĠdiferenÃ§as":8474,"Ġdrogas":8475,"futebolista":8476,"Ġpermitiu":8477,"Ġbranca":8478,"CIA":8479,"Dav":8480,"kes":8481,"Ġamost":8482,"ĠHistÃ³rico":8483,"ĠDevido":8484,"FL":8485,"Ġutiliza":8486,"Ġhid":8487,"ĠFilipe":8488,"Ġ02":8489,"Ġroupas":8490,"ulto":8491,"Ġprofessora":8492,"Ġigualmente":8493,"Enc":8494,"Ġonda":8495,"Ġcontendo":8496,"Ã³rida":8497,"atu":8498,"ĠReb":8499,"Gen":8500,"ĠTest":8501,"ĠIdade":8502,"Dire":8503,"Ã³quio":8504,"ju":8505,"Ġprejud":8506,"Ġ1910":8507,"ĠNordeste":8508,"ĠJov":8509,"ĠMost":8510,"1987":8511,"hl":8512,"Ġimposs":8513,"Ġdescobertos":8514,"ĠDatabase":8515,"%)":8516,"ĠPens":8517,"Ġcarne":8518,"aki":8519,"Ġapaixon":8520,"Ġdestas":8521,"Ġambientados":8522,"hal":8523,"Ġrecomend":8524,"Ã§ada":8525,"Ġprodutores":8526,"ĠÃºltimas":8527,"inger":8528,"Ġentrega":8529,"Ġjornais":8530,"Ġgest":8531,"eranÃ§a":8532,"Ġprincesa":8533,"ĠCrim":8534,"Ġinvad":8535,"Ġexecutivo":8536,"metragem":8537,"Responder":8538,"Veja":8539,"ĠStreet":8540,"icon":8541,"obo":8542,"ĠAssociation":8543,"ĠMargar":8544,"Ġ07":8545,"ĠcomissÃ£o":8546,"ĠFort":8547,"MG":8548,"alves":8549,"etti":8550,"ĠBart":8551,"mont":8552,"Ġproteger":8553,"Ġje":8554,"atic":8555,"Ġ1918":8556,"Ãºl":8557,"ĠtÃ©rm":8558,"Ġestamos":8559,"Ġpandemia":8560,"ĠRodo":8561,"ferm":8562,"ĠMovimento":8563,"ME":8564,"Ġarquivos":8565,"Ġnordeste":8566,"Ġreduzir":8567,"Ġatras":8568,"ĠMcC":8569,"ĠRocha":8570,"ĠBell":8571,"Ġsud":8572,"ĠmÃ¡quina":8573,"Ġembaix":8574,"ght":8575,"esco":8576,"ĠTurquia":8577,"Ġsintomas":8578,"app":8579,"Ġcustos":8580,"ĠCN":8581,"Ġfacto":8582,"Ġfluxo":8583,"ĠPreto":8584,"ĠÃįnd":8585,"Ġcro":8586,"ĠpresidÃªncia":8587,"ĠcomparaÃ§Ã£o":8588,"bita":8589,"randa":8590,"ĠâĢĭâĢĭ":8591,"landÃªs":8592,"Ġsingles":8593,"ĠNoruega":8594,"Ġorganizado":8595,"Ġadicional":8596,"Ġpress":8597,"Ġacredita":8598,"Ġmente":8599,"DescriÃ§Ã£o":8600,"Postado":8601,"istos":8602,"ĠDois":8603,"ĠTeam":8604,"Mod":8605,"Ġrelacionadas":8606,"Be":8607,"Du":8608,"ĠgrÃ¡f":8609,"undiais":8610,"Ġ1914":8611,"ĠStan":8612,"ĠVolta":8613,"arreg":8614,"ĠCunha":8615,"ĠInformation":8616,"acos":8617,"hann":8618,"copa":8619,"Ġfabrica":8620,"aire":8621,"etrÃ³leo":8622,"ird":8623,"presso":8624,"Ġesporte":8625,"Ġ06":8626,"ĠYoung":8627,"Ġseguiu":8628,"ÃŃblia":8629,"Ġabriu":8630,"Atualmente":8631,"nome":8632,"Ġposterior":8633,"Ġurbana":8634,"ĠBiblioteca":8635,"Ġaves":8636,"Ġpersonalidade":8637,"Ġenviado":8638,"Ġestrel":8639,"Cantores":8640,"ĠWall":8641,"Ġartic":8642,"Ġvolunt":8643,"RecepÃ§Ã£o":8644,"Ãºcar":8645,"ext":8646,"Ġale":8647,"ten":8648,"ĠPT":8649,"ĠPode":8650,"ĠGonz":8651,"Pra":8652,"pop":8653,"Ġviagens":8654,"ĠCastela":8655,"rinho":8656,"Ġfeminina":8657,"ors":8658,"Ġdescreveu":8659,"Ġperi":8660,"ĠmÃºsicos":8661,"entado":8662,"Ġcentros":8663,"ĠespÃŃrito":8664,"Ġadultos":8665,"Ġfuncional":8666,"Ã¢nicos":8667,"ĠImperial":8668,"Ġasseg":8669,"Ġexplos":8670,"ĠPinterest":8671,"ĠnecessÃ¡ria":8672,"1979":8673,"CE":8674,"wo":8675,"adrÃ£o":8676,"Doc":8677,"ĠmÃºltip":8678,"Ã³rica":8679,"1986":8680,"Portugal":8681,"Mulheres":8682,"velmente":8683,"ĠdanÃ§":8684,"Ġbor":8685,".âĢĿ":8686,"Ainda":8687,"ĠLoc":8688,"Ġassistente":8689,"Ġ1912":8690,"ĠincÃªn":8691,"Ġestrangeiros":8692,"ĠSor":8693,"ĠIB":8694,"Santa":8695,"ingos":8696,"Ġsignificado":8697,"ĠYour":8698,"Ġlago":8699,"anÃ§amento":8700,"Ġagentes":8701,"ĠSantana":8702,"Ġintegrantes":8703,"Ġfacilmente":8704,"ĠcatÃ³licos":8705,"ĠLaw":8706,"Ġcaixa":8707,"Ġpromovido":8708,"ĠProv":8709,"ĠFox":8710,"ĠMÃ¡rio":8711,"Ġmotiv":8712,"ĠCuritiba":8713,"Ġign":8714,"ĠBran":8715,"Ġ150":8716,"iform":8717,"Ġcontratado":8718,"ĨĴ":8719,"uÃ¡ria":8720,"ĠausÃªncia":8721,"Ġgelo":8722,"ĠOk":8723,"ĠZelÃ¢ndia":8724,"Ġinvestimento":8725,"Ġlong":8726,"ĠBandeira":8727,"Alex":8728,"cob":8729,"Ġhel":8730,"ĠOrganizaÃ§Ã£o":8731,"ĠHungria":8732,"ĠÃ¡rvores":8733,"Ġtrav":8734,"Ġtimes":8735,"ĠAnos":8736,"ĠKenn":8737,"Ġcerc":8738,"eij":8739,"Ġ1919":8740,"1980":8741,"Ped":8742,"actos":8743,"ĠProjeto":8744,"Ã©us":8745,"ĠHy":8746,"Ġsurpre":8747,"Ġcorpos":8748,"ĠSteph":8749,"rust":8750,"ĠConfede":8751,"ĠdepressÃ£o":8752,"ose":8753,"ĠMara":8754,"ĠUFC":8755,"ÃŃtico":8756,"Ġ1929":8757,"Minist":8758,"Ġclasses":8759,"liga":8760,"ÃŃam":8761,"Ġflor":8762,"Ġchamar":8763,"ĠForam":8764,"Ã´nsul":8765,"ĠPRO":8766,"Ġdificuldade":8767,"edas":8768,"reiras":8769,"ĠVieira":8770,"Ġproduziu":8771,"ĠPublic":8772,"Ġcren":8773,"amÃŃferos":8774,"ÃŃncias":8775,"ĠJoe":8776,"ĠrazÃµes":8777,"**":8778,"emplo":8779,"ĠreferÃªncias":8780,"Ġvantagem":8781,"Ġvas":8782,"Ġexer":8783,"ĠMol":8784,"Ġsenador":8785,"Ġcresceu":8786,"ĠinÃ©d":8787,"Ġinstrumento":8788,"Ġferramentas":8789,"Ġholand":8790,"Ġargent":8791,"Ġassassinato":8792,"Ġcelular":8793,"lan":8794,"ĠGod":8795,"Ġcircun":8796,"Person":8797,"ividades":8798,"revendo":8799,"ĠDal":8800,"ĠHu":8801,"Ġtelenov":8802,"ĠLong":8803,"Ġdiscos":8804,"Ġti":8805,"Ġtiro":8806,"ĠNesta":8807,"aboratÃ³rio":8808,"Ġdial":8809,"ario":8810,"Ġhomenage":8811,"Ġgravado":8812,"Ġordens":8813,"Ġaltas":8814,"Quem":8815,"ĠpÃ´":8816,"quesa":8817,"radores":8818,"Ġconfer":8819,"ĠSÃ¡":8820,"phy":8821,"Ġeleitoral":8822,"Ġteat":8823,"Ġremov":8824,"Ġoferecer":8825,"ĠPot":8826,"ĠFeminino":8827,"MO":8828,"ĠlanÃ§a":8829,"Ġface":8830,"formas":8831,"emy":8832,"Ġfamosa":8833,"key":8834,"portivo":8835,"endida":8836,"ĠÂł":8837,"igaÃ§Ã£o":8838,"Ġassociado":8839,"Ġseguindo":8840,"ĠOpen":8841,"Ġpodia":8842,"Ġexibida":8843,"ĠNick":8844,"Ġdefinido":8845,"ĠGonÃ§alves":8846,"ĠCy":8847,"etano":8848,"Ġelevado":8849,"estro":8850,"ĠCanÃ§Ã£o":8851,"ĠInstit":8852,"Ġatos":8853,"ĠGeorg":8854,"Ġserve":8855,"Ġfotografia":8856,"ox":8857,"Ġmental":8858,"Ġfrota":8859,"Ã¡quia":8860,"apor":8861,"ĠdivulgaÃ§Ã£o":8862,"aster":8863,"ĠPosteriormente":8864,"ĠtendÃªncia":8865,"Ġdescrito":8866,"Ġline":8867,"ĠpraÃ§a":8868,"ĠvotaÃ§Ã£o":8869,"Ġramo":8870,"ournal":8871,"For":8872,"Ġfa":8873,"Ġpredomin":8874,"Ġcomponentes":8875,"ĠopÃ§Ãµes":8876,"Ġ1917":8877,"ĠServiÃ§o":8878,"ĠAlgumas":8879,"fogo":8880,"Ġ65":8881,"ĠPAR":8882,"ĠComunidade":8883,"raqu":8884,"Nov":8885,"ĠconcentraÃ§Ã£o":8886,"face":8887,"ProduÃ§Ã£o":8888,"Ġdesempenh":8889,"dex":8890,"Ġ1928":8891,"Ã³stico":8892,"ĠPictures":8893,"ĠLew":8894,"ĠCanal":8895,"ĠSuas":8896,"attle":8897,"ĠCorn":8898,"ility":8899,"ĠExecut":8900,"ĠCass":8901,"ĠMuitos":8902,"ĠArch":8903,"Ġintegral":8904,"ĠPlan":8905,"ĠJon":8906,"ĠCos":8907,"Ġarrec":8908,"Perfil":8909,"ĠVII":8910,"ĠUruguai":8911,"ĠdocumentÃ¡rio":8912,"ĠGroup":8913,"ĠAD":8914,"ĠParaguai":8915,"pha":8916,"Ġdito":8917,"abe":8918,"Outras":8919,"Ġfirm":8920,"ĠartÃŃstico":8921,"Ġcura":8922,"Ġvindo":8923,"ĠTit":8924,"Ġnut":8925,"avi":8926,"izade":8927,"estes":8928,"ADE":8929,"ĠÃ³leo":8930,"Paul":8931,"Mor":8932,"essÃµes":8933,"Ãªmica":8934,"ĠFranco":8935,"ĠPR":8936,"Ġcre":8937,"Ġvou":8938,"icientes":8939,"Ġescritos":8940,"hora":8941,"Ġexpect":8942,"Ġfamiliares":8943,"ĠAR":8944,"Ġrob":8945,"Ġimperial":8946,"Caracter":8947,"Pos":8948,"cept":8949,"Ġrevistas":8950,"Ġsacerdo":8951,"Ġ1924":8952,"ĠEssas":8953,"ĠNC":8954,"ĠCle":8955,"Ġsupl":8956,"ĠSpecies":8957,"Ġ1931":8958,"ĠKat":8959,"ĠRainha":8960,"Ġhabilidades":8961,"ku":8962,"ĠcrÃ©dito":8963,"ÃŃculas":8964,"Ã©rico":8965,"Assim":8966,"rosoft":8967,"ĠGood":8968,"Ġentidades":8969,"ĠconsciÃªncia":8970,"sta":8971,"avier":8972,"Ġacontecer":8973,"ĠorientaÃ§Ã£o":8974,"ĠAeroporto":8975,"Et":8976,"Ġflorestas":8977,"Ġbairros":8978,"iscos":8979,"ĠdeverÃ¡":8980,"ĠbenefÃŃcios":8981,"onal":8982,"ĠPhy":8983,"Ġneu":8984,"Ġusou":8985,"agram":8986,"1984":8987,"He":8988,"ĠLÃ¡":8989,"ĠAndrade":8990,"ĠFlÃ³rida":8991,"ĠcerimÃ´nia":8992,"Ġcarnaval":8993,"ĠdenominaÃ§Ã£o":8994,"ecom":8995,"edy":8996,"Ġmeus":8997,"bas":8998,"iff":8999,"Ġ75":9000,"Ġpublicados":9001,"guesias":9002,"onder":9003,"Ġprotagonista":9004,"ĠdiscussÃ£o":9005,"Ġpoliciais":9006,"ĠdecisÃµes":9007,"ĠtransiÃ§Ã£o":9008,"ĠBrand":9009,"Dia":9010,"ulou":9011,"Ġevang":9012,"Leg":9013,"fim":9014,"Ġcontas":9015,"ĠÂ»":9016,"ĠST":9017,"Ġbrilh":9018,"ĠCampeÃµes":9019,"ĠrecuperaÃ§Ã£o":9020,"Ġintera":9021,"Ġ<":9022,"Ġsolar":9023,"izaÃ§Ãµes":9024,"culino":9025,"rano":9026,"Ġportas":9027,"Ġrepublic":9028,"Station":9029,"ĠProfessor":9030,"Ġcerteza":9031,"avera":9032,"cal":9033,"ĠTaÃ§a":9034,"Ġgravadas":9035,"ize":9036,"Ġclassificado":9037,"ĠBruno":9038,"ĠfusÃ£o":9039,"Ġquin":9040,"Ġativo":9041,"Ã´mica":9042,"Ġgosta":9043,"ĠSeries":9044,"Ġtrouxe":9045,"Ġrequis":9046,"Ġindo":9047,"Ġfaleceu":9048,")\"":9049,"umi":9050,"ĠEngenharia":9051,"Ġpoesia":9052,"ÃŃmica":9053,"ĠcristÃ£":9054,"ĠpotÃªncia":9055,"LA":9056,"ken":9057,"Ã³quia":9058,"Ġformando":9059,"arquia":9060,"ĠFrancesa":9061,"Ġaltamente":9062,"ocar":9063,"ĠVolume":9064,"Ġeg":9065,"ĠChris":9066,"ĠIns":9067,"Tube":9068,"ĠaÃ©re":9069,"ĠalimentaÃ§Ã£o":9070,"ĠsÃŃtio":9071,"Ġcontinente":9072,"ĠMelo":9073,"ĠÃģl":9074,"Ġempate":9075,"Ġexceto":9076,"Ġtrem":9077,"ĠSr":9078,"Ã§u":9079,"Ġmesmas":9080,"rativas":9081,"atina":9082,"1983":9083,"uvas":9084,"ĠPonte":9085,"Ġcron":9086,"Ġinsetos":9087,"Ġverdadeira":9088,"Ã¡ut":9089,"Ġsug":9090,"ĠlanÃ§ar":9091,"ĠComitÃª":9092,"ĠTransp":9093,"alizaÃ§Ãµes":9094,"Loc":9095,"ÃĬ":9096,"ugh":9097,"ĠCorinthians":9098,"Ġorganizada":9099,"aios":9100,"ĠColumb":9101,"Ġpaulista":9102,"fÃŃbios":9103,"Ġarco":9104,"ericanas":9105,"Ġpertence":9106,"RJ":9107,"Ġfunciona":9108,"PrÃªmio":9109,"jecto":9110,"Ġtocar":9111,"Ġultrapass":9112,"ĠLic":9113,"osco":9114,"Ġnaquela":9115,"ĠJord":9116,"duaÃ§Ã£o":9117,"Ġcrescente":9118,"Ġ1922":9119,"ĠHollywood":9120,"Ġoferta":9121,"Ġtan":9122,"Ġadmit":9123,"ĠRodrigo":9124,"ĠuniÃ£o":9125,"ĠhistÃ³ricos":9126,"ĠUF":9127,"Ġapart":9128,"Ġcarb":9129,"Ġhotel":9130,"ĠfilÃ³so":9131,"Ã¡culos":9132,"ĠCup":9133,"ĠRuss":9134,"Ãªncio":9135,"Ġlatim":9136,"Ġmut":9137,"ĠList":9138,"Ġenfrentar":9139,"Ġkg":9140,"ĠconsequÃªncia":9141,"ideo":9142,"Ho":9143,"Ġleve":9144,"Ġmesa":9145,"ĠexibiÃ§Ã£o":9146,"Pesqu":9147,"post":9148,"Ne":9149,"ĠMÃ©dio":9150,"enciamento":9151,"ĠassistÃªncia":9152,"Ġdan":9153,"Ġur":9154,"Ġjo":9155,"Ġsudeste":9156,"Ġconflitos":9157,"Ġreceberam":9158,"Ġvisitantes":9159,"Ġinaugurado":9160,"ĠestÃ¡t":9161,"adoria":9162,"Ġdebate":9163,"rome":9164,"Ġabrir":9165,"Ġmedicina":9166,"ĠBR":9167,"oston":9168,"Ġandar":9169,"Ġpan":9170,"adia":9171,"argas":9172,"Ġvocalista":9173,"ĠPortal":9174,"Ġenviou":9175,"ĠQU":9176,"Ġperformance":9177,"ĠÃŃndice":9178,"Ġsimult":9179,"ĠMoscou":9180,"ĠAk":9181,"ĠPublish":9182,"Ġexplica":9183,"Ġetapas":9184,"onto":9185,"Ġrevolucion":9186,"Ġatleta":9187,"Ġsuperiores":9188,"erca":9189,"Ġsofre":9190,"hu":9191,"ĠOceano":9192,"Ġposicion":9193,"Ġresultou":9194,"mais":9195,"Ġgreg":9196,"essas":9197,"ĠDecreto":9198,"Ġsemi":9199,"uvenil":9200,"Ġleite":9201,"tre":9202,"Ġitens":9203,"Ġarro":9204,"alÃ©m":9205,"ĠÃ¡rabe":9206,"ĠexceÃ§Ã£o":9207,"Ġexat":9208,"Ġreconhecido":9209,"Ġimigrantes":9210,"ĠsÃ¡bado":9211,"idal":9212,"Ġgosto":9213,"Ġond":9214,"atÃ³rios":9215,"ĠÃºtil":9216,"Mont":9217,"ĠCra":9218,"ĠcaÃ§a":9219,"Ã¢nio":9220,"Ġ?":9221,"iol":9222,"lag":9223,"erd":9224,"eld":9225,"Ġvamos":9226,"ĠAL":9227,"ĠHor":9228,"Ãªnero":9229,"Ġpermanente":9230,"ĠpontuaÃ§Ã£o":9231,"Ġare":9232,"Ġdubl":9233,"Ġapresentada":9234,"Ġsalv":9235,"ĠvÃŃrus":9236,"ĠconservaÃ§Ã£o":9237,"Ġdestaca":9238,"Ġimpression":9239,"Ñģ":9240,"Ġcanto":9241,"izando":9242,"ĠStudios":9243,"Ġarrecad":9244,"gado":9245,"ĠComm":9246,"ĠnaÃ§Ã£o":9247,"Ġcontudo":9248,"Ġcapazes":9249,"ĠNap":9250,"Ġlateral":9251,"Ġaventura":9252,"Ġreiv":9253,"Ġmarcado":9254,"ĠMath":9255,"quad":9256,"Ã±a":9257,"ESP":9258,"Ġanc":9259,"ĠPM":9260,"viaÃ§Ã£o":9261,"ĠNotÃŃcias":9262,"Ġtrazer":9263,"ĠJeff":9264,"Ġexterna":9265,"ĠMit":9266,"unÃ§Ã£o":9267,"Ġgerais":9268,"ĠĠĠĠĠĠĠĠĠĠĠĠĠĠĠĠ":9269,"ĠquÃŃmica":9270,"Ġadot":9271,"ĠameaÃ§a":9272,"HistÃ³rico":9273,"ĠSus":9274,"ĠÃ¡rvore":9275,"Ġtratar":9276,"Ġdenominado":9277,"ĠNelson":9278,"ĠnecessÃ¡rios":9279,"rie":9280,"Ġfatos":9281,"astas":9282,"ĠintervenÃ§Ã£o":9283,"Primeira":9284,"Ġdescobrir":9285,"Ġafro":9286,"Ã³lico":9287,"Ġdividido":9288,"ĠHay":9289,"Ġformam":9290,"Ã³tico":9291,"Ġfinanceira":9292,"Äį":9293,"Ġusam":9294,"bel":9295,"Fal":9296,"Ġdescobriu":9297,"Ġabordagem":9298,"ĠLula":9299,"Ġjuda":9300,"amengo":9301,"ĠraÃ§a":9302,"ĠcapÃŃtulo":9303,"Ġvisu":9304,"ĠFamÃŃlia":9305,"ĠGuinÃ©":9306,"ĠEng":9307,"ĠFerra":9308,"ĠVers":9309,"inaÃ§Ãµes":9310,"ĠOff":9311,"Ġfederais":9312,"Ġderrotou":9313,"It":9314,"Ġpadre":9315,"pressa":9316,"sito":9317,"This":9318,"ĠUEFA":9319,"Ġsobera":9320,"ĠinvÃ©s":9321,"ĠEug":9322,"Ġprogress":9323,"rÃŃvel":9324,"ÃŃvia":9325,"ouri":9326,"Ġstatus":9327,"ĠSÃ©rgio":9328,"VA":9329,"Ġganha":9330,"Ġadicionais":9331,"acau":9332,"ciamento":9333,"Ġnomeadamente":9334,"ĠIrm":9335,"ĠParticip":9336,"Ġinverno":9337,"ecret":9338,"ĠTaylor":9339,"apt":9340,"ĠIsland":9341,"Ġestiver":9342,"Ġ1900":9343,"aneamente":9344,"ĠArg":9345,"Ġvendido":9346,"Ġnoroeste":9347,"ĠBuenos":9348,"iner":9349,"ĠNasc":9350,"unicÃŃpio":9351,"empenho":9352,"Ġfortemente":9353,"ĠLG":9354,"Ġacord":9355,"Ġeuropeu":9356,"ĠLÃº":9357,"ravo":9358,"ĠperÃŃodos":9359,"iclet":9360,"inae":9361,"Carlos":9362,"Ġaquis":9363,"ĠBarbosa":9364,"ĠpopulaÃ§Ãµes":9365,"Ste":9366,"ĠAgora":9367,"Ġequivalente":9368,"aj":9369,"ÃŃticas":9370,"Ġdistritos":9371,"Ġmatar":9372,"intendo":9373,"ĠEstende":9374,"Ġaltos":9375,"Ġwebsite":9376,"ĠTeoria":9377,"Ġriqu":9378,"etta":9379,"ĠRol":9380,"Ġnaz":9381,"ifa":9382,"Ġprivada":9383,"ĠTudo":9384,"Ã³nica":9385,"Ġfabric":9386,"pp":9387,"ĠIP":9388,"ĠsoluÃ§Ãµes":9389,"Ġaspecto":9390,"ĠLand":9391,"Ãªnis":9392,"oriais":9393,"\":":9394,"\";":9395,"ĠFazenda":9396,"ografias":9397,"Cha":9398,"Ġatender":9399,"itage":9400,"Ġvolumes":9401,"Ġmotores":9402,"Ġlados":9403,"ĠInteg":9404,"cil":9405,"wer":9406,"ĠVo":9407,"ĠDJ":9408,"Ġcargos":9409,"ĠapresentaÃ§Ãµes":9410,"eixeira":9411,"andra":9412,"adi":9413,"ĠMTV":9414,"ĠHard":9415,"VitÃ³ria":9416,"ĠintroduÃ§Ã£o":9417,"raque":9418,"Ġ1926":9419,"ĠComics":9420,"enciado":9421,"Ġinterpretou":9422,"Ġrestantes":9423,"Ġreligioso":9424,"rÃ´n":9425,"Ġcuidados":9426,"Ġestando":9427,"ĠHit":9428,"ĠagÃªncia":9429,"Ġneut":9430,"ĠCE":9431,"ĠArthur":9432,"rabes":9433,"Ã³rgia":9434,"ilvÃ¢nia":9435,"Ġbrasileiras":9436,"Ġpossibil":9437,"Ġcadeia":9438,"Ġdemanda":9439,"ĠWat":9440,"grÃ¡f":9441,"Ġ1911":9442,"ilas":9443,"oque":9444,"aly":9445,"Ġconseguiram":9446,"Ġexpul":9447,"Ġcomplement":9448,"Af":9449,"here":9450,"ĠOlimp":9451,"Ġinimigos":9452,"hor":9453,"Ġvivem":9454,"ĠBelÃ©m":9455,"ĠCOVID":9456,"pont":9457,"Ġindependentes":9458,"ĠPira":9459,"ĠVel":9460,"Ã§ambique":9461,"Ġrebaix":9462,"ĠseÃ§Ã£o":9463,"Ġconheceu":9464,"Ġencom":9465,"Ġteor":9466,"Orig":9467,"rons":9468,"ĠLivre":9469,"Ġrevela":9470,"enia":9471,"ĠSun":9472,"ĠpropÃ³sito":9473,"Ġlou":9474,"1982":9475,"eman":9476,"Ġescl":9477,"Ġaluno":9478,"ĠdeclaraÃ§Ã£o":9479,"Ġdescreve":9480,"ĠEstas":9481,"lovÃ¡quia":9482,"rÃ©st":9483,"Ãµem":9484,"ĠgravaÃ§Ãµes":9485,"ĠhÃ¡b":9486,"ĠAmazonas":9487,"Ġ1913":9488,"roc":9489,"ativ":9490,"Ġficam":9491,"Ġinvestimentos":9492,"ĠParlamento":9493,"inst":9494,"Ġpior":9495,"Ġress":9496,"ĠManch":9497,"ĠâĢ¦":9498,"putaÃ§Ã£o":9499,"Todos":9500,"mus":9501,"TRA":9502,"ĠfÃªme":9503,"oqu":9504,"Ġobst":9505,"Ġrac":9506,"ĠTam":9507,"Ġcontam":9508,"Ġfloresta":9509,"itÃ¡rias":9510,"Ġcostum":9511,"ĠÃ¡cido":9512,"ĠCarta":9513,"Ġcolonial":9514,"Ġvendeu":9515,"Ġvelha":9516,"vias":9517,"unh":9518,"Ġanuncia":9519,"ificadas":9520,"Ġgrega":9521,"Tempo":9522,"Ġduque":9523,"Ġpaciente":9524,"ĠDil":9525,"ĠchinÃªs":9526,"Ġsegura":9527,"ĠEnsino":9528,"Ġabast":9529,"Ġvento":9530,"ĠconfianÃ§a":9531,"Ġderrub":9532,"Ġlevado":9533,"HA":9534,"rilha":9535,"Deputados":9536,"Ġsudo":9537,"ĠBlo":9538,"Ġprivil":9539,"Ġrealiza":9540,"imarÃ£es":9541,"ĠHeritage":9542,"Ġmort":9543,"criÃ§Ãµes":9544,"idaÃ§Ã£o":9545,"Ġexcelente":9546,"ied":9547,"len":9548,"Ġcomet":9549,"ĠTai":9550,"ĠinteligÃªncia":9551,"0000":9552,"ĠeconÃ³m":9553,"Ġresolver":9554,"bar":9555,"ande":9556,"Ġbatal":9557,"Ġdenominada":9558,"Ġritmo":9559,"ĠgalÃ¡xia":9560,"Ġsei":9561,"Ġchamadas":9562,"Ġinterno":9563,"ĠRepublic":9564,"ĠSegu":9565,"Ġmortes":9566,"Ġbordo":9567,"ÃŃnia":9568,"Ġdorm":9569,"Ġencontradas":9570,"Ġalternativa":9571,"Ġgravou":9572,"ĠespecÃŃfico":9573,"Ġescravos":9574,"Ġfest":9575,"Ġajust":9576,"ĠBatista":9577,"ĠPaula":9578,"Ġestabelecimento":9579,"Ġ1927":9580,"Ġpain":9581,"ĠHarris":9582,"Ã¡p":9583,"ĠBÃŃblia":9584,"ĠBest":9585,"Ġcriando":9586,"Ġilum":9587,"Ġ52":9588,"Ġrig":9589,"ĠSax":9590,"Ġcinemat":9591,"Ġdissol":9592,"mel":9593,"Ġ1925":9594,"istemas":9595,"uan":9596,"Pint":9597,"Ġmoviment":9598,"ĠMid":9599,"Ġaprender":9600,"Ġpossivelmente":9601,"ĠNatural":9602,"Ġturismo":9603,"ĠdÃºvida":9604,"Const":9605,"Men":9606,"ĠTratado":9607,"jar":9608,"plic":9609,"Ġedu":9610,"ule":9611,"elm":9612,"ĠBBC":9613,"ĠDream":9614,"Ġocorrido":9615,"Ġatravess":9616,"Dan":9617,"ĠRafael":9618,"ĠaparÃªncia":9619,"ĠKarl":9620,"aw":9621,"Ã³gico":9622,"ĠDiego":9623,"athan":9624,"Ġgin":9625,"Ġrepresentou":9626,"ĠresoluÃ§Ã£o":9627,"ĠPessoa":9628,"orada":9629,"Ġsudoeste":9630,"AF":9631,"Ġjanela":9632,"ĠPes":9633,"rata":9634,"ĠPlayStation":9635,"ĠDisc":9636,"ĠMarvel":9637,"ĠpetrÃ³leo":9638,"arin":9639,"Ġreligiosos":9640,"Ġcolegas":9641,"cool":9642,"Ã©ricas":9643,"Ġmang":9644,"Ġtomada":9645,"ĠVasco":9646,"ĠCÃ³digo":9647,"izabeth":9648,"Ġrepresentar":9649,"missÃ£o":9650,"AtÃ©":9651,"Ġassociados":9652,"alto":9653,"ĠTu":9654,"Ġ1908":9655,"Ġderrotado":9656,"ĠTÃ³quio":9657,"ĠMuseum":9658,"diÃ§Ãµes":9659,"Ġeleitos":9660,"Ġnormas":9661,"Ġpassam":9662,"unk":9663,"Ã¢ng":9664,"Ġinterval":9665,"Dom":9666,"ĠHab":9667,"Ġalma":9668,"Ġrepresentando":9669,"ĠexpediÃ§Ã£o":9670,"ĠEncont":9671,"Econ":9672,"Ġenredo":9673,"ĠAC":9674,"ĠAG":9675,"Ġdispositivo":9676,"Ġcatal":9677,"ĠTeixeira":9678,"Ġmarketing":9679,"Ġdesm":9680,"chos":9681,"cript":9682,"ĠLight":9683,"ĠsÃ³l":9684,"ĠKong":9685,"Ġmode":9686,"Ġ1923":9687,"estado":9688,"Ġapresentando":9689,"Ġple":9690,"Ġtera":9691,"ĠDor":9692,"Ġmanifesta":9693,"Ġpropostas":9694,"far":9695,"ĠÃ¡l":9696,"ĠGuer":9697,"Ġesteja":9698,"ĠTab":9699,"Ġnerv":9700,"Ġdispositivos":9701,"Ġsuport":9702,"ĠArn":9703,"Ġrecebendo":9704,"ĠEspanh":9705,"ĠBoy":9706,"Ġcolocou":9707,"Ġfator":9708,"Ã©e":9709,"ĠYouTube":9710,"Ġoportunidades":9711,"ĠBibliografia":9712,"lah":9713,"ĠMichel":9714,"Ġdinastia":9715,"InÃŃcio":9716,"campeÃ£o":9717,"ĠSÃ©rvia":9718,"ingen":9719,"Cultura":9720,"ĠdiÃ¢metro":9721,"ĠZona":9722,"Dev":9723,"junto":9724,"osl":9725,"Ġviria":9726,"Ġelimin":9727,"rs":9728,"ĠfÃ³s":9729,"ĠConserv":9730,"Bretanha":9731,"Ġorb":9732,"Estados":9733,"ĠSO":9734,"ĠGet":9735,"My":9736,"ĠOutro":9737,"Lei":9738,"estino":9739,"Ġsubmet":9740,"ĠChaves":9741,"ĠBerg":9742,"Ġexatamente":9743,"ids":9744,"Ġzonas":9745,"idaceae":9746,"Ã³tica":9747,"text":9748,"iger":9749,"Ã³rd":9750,"urados":9751,"Ġtrecho":9752,"ĠTaxonomy":9753,"Ġcanadense":9754,"ĠCho":9755,"Ġtip":9756,"ourt":9757,"Ġdurou":9758,"Ġtrama":9759,"SeleÃ§Ã£o":9760,"Ã¢nsito":9761,"Americanos":9762,"ĠpublicaÃ§Ãµes":9763,"mod":9764,"Ġenterra":9765,"Ġpilotos":9766,"itetura":9767,"ĠPlano":9768,"ĠAlt":9769,"Ġregra":9770,"ĠnotÃ¡vel":9771,"ĠLeste":9772,"ĠJe":9773,"LO":9774,"San":9775,"Ġabord":9776,"Ġ85":9777,"Ġnumeros":9778,"ĠAlbert":9779,"ĠConceiÃ§Ã£o":9780,"Ġreligiosas":9781,"Ġparticiparam":9782,"Ġcentenas":9783,"Ġclim":9784,"Ġbons":9785,"Ġirreg":9786,"Alguns":9787,"Ã©ns":9788,"Escritores":9789,"ĠcÃ¡":9790,"icÃŃdio":9791,"Ġestabelecido":9792,"Ġfundados":9793,"ĠCuba":9794,"NGC":9795,"Ġpinturas":9796,"Ġdescobre":9797,"ĠQuem":9798,"Ġback":9799,"Ġoriental":9800,"Ġlivres":9801,"oros":9802,"heu":9803,"Ġprision":9804,"Ġdign":9805,"Ġprecisam":9806,"ĠViena":9807,"Ġdigitais":9808,"ĠRac":9809,"onÃªs":9810,"Ġhe":9811,"ĠOnline":9812,"ĠvocÃªs":9813,"Ġdetect":9814,"ĠmissÃµes":9815,"ĠLÃŃb":9816,"ĠTorre":9817,"ĠPriv":9818,"oney":9819,"Ġregistros":9820,"ĠequilÃŃbrio":9821,"illo":9822,"ogu":9823,"Ġperspectiva":9824,"Div":9825,"Ã©reas":9826,"onesa":9827,"David":9828,"ÃŃqu":9829,"Ġsonho":9830,"ĠCardoso":9831,"Ġgas":9832,"Ġmunicipais":9833,"elado":9834,"Ġgrave":9835,"ĠPesquisa":9836,"icismo":9837,"Ġalfab":9838,"Ġexplic":9839,"Ġcircuito":9840,"rik":9841,"Ã¢mico":9842,"ĠVermelho":9843,"ÃŃv":9844,"ĠdaÃŃ":9845,"ĠComunicaÃ§Ã£o":9846,"Ġhar":9847,"Ġinteiro":9848,"Ġlevaram":9849,"Ġsucessor":9850,"Ġjoga":9851,"ĠLago":9852,"redores":9853,"ĠFried":9854,"Ġabrig":9855,"Prem":9856,"ogrÃ¡ficas":9857,"Ġbanh":9858,"ÃŃadas":9859,"ĠJam":9860,"Ġ250":9861,"ĠAlexander":9862,"ionalmente":9863,"ĠPrem":9864,"ĠEstrada":9865,"ĠFlamengo":9866,"ÃŃnios":9867,"Ġretrat":9868,"panhas":9869,"ĠMicrosoft":9870,"ĠJournal":9871,"Ġenvolvidos":9872,"Camp":9873,"Ġfach":9874,"Ġdeputados":9875,"Ã³gio":9876,"ĠInverno":9877,"regaÃ§Ã£o":9878,"Ġdesenhos":9879,"urno":9880,"ĠNetwork":9881,"Ġnuclear":9882,"cm":9883,"Ġlhes":9884,"ĠFluminense":9885,"Ġbases":9886,"Ġcabelo":9887,"Fonte":9888,"Ġsites":9889,"Ġ51":9890,"irst":9891,"Ġbiblioteca":9892,"ÃŃrculo":9893,"Ġprior":9894,"Ġolhar":9895,"CaracterÃŃsticas":9896,"Ġregress":9897,"onna":9898,"Ġcomprov":9899,"uga":9900,"Ġmodernos":9901,"Ġlutar":9902,"ĠLeop":9903,"ocrat":9904,"Ã©mica":9905,"ĠdestruiÃ§Ã£o":9906,"ĠRou":9907,"ĠGuimarÃ£es":9908,"ĠcÃ©u":9909,"ĠCov":9910,"Ġparede":9911,"ĠtÃ©cnicos":9912,"ĠHero":9913,"!!!":9914,"ĠcirculaÃ§Ã£o":9915,"Ġgratu":9916,"ĠapariÃ§Ã£o":9917,"nch":9918,"Ġdaqu":9919,"Ġfrase":9920,"idou":9921,"Ġrussa":9922,"ĠSE":9923,"ĠId":9924,"Que":9925,"adrez":9926,"Ġ>":9927,"ĠRamos":9928,"ĠHale":9929,"Ġcardeal":9930,"1978":9931,"CON":9932,"rÃ³p":9933,"Ġfundos":9934,"Ġdescon":9935,"Ġdivert":9936,"Ġrenome":9937,"Ġsentir":9938,"Ã¨re":9939,"ĠSpring":9940,"Ġretirada":9941,"Ġregionais":9942,"ĠBoa":9943,"ĠprÃ³ximas":9944,"Ġcausar":9945,"1981":9946,"ĠAdv":9947,"Ġconquistar":9948,"Ġmargens":9949,"ĠMoÃ§ambique":9950,"ĠDireitos":9951,"Ġtentando":9952,"ĠJerus":9953,"Ġrestante":9954,"ben":9955,"ĠNintendo":9956,"Ġfranquia":9957,"pson":9958,"ĠbritÃ¢nicos":9959,"ĠperiÃ³d":9960,"ĠaÃ©rea":9961,"hot":9962,"ĠTerceira":9963,"Mil":9964,"ĠinscriÃ§Ã£o":9965,"ĠCambridge":9966,"jamento":9967,"ĠSebastiÃ£o":9968,"ĠEstat":9969,"Da":9970,"Ã³x":9971,"Ġatacante":9972,"ribuiÃ§Ã£o":9973,"ĠBoston":9974,"ĠproprietÃ¡rio":9975,"Ġpopularidade":9976,"umental":9977,"ADO":9978,"Ġclassificou":9979,"Ġ59":9980,"Ġdedicado":9981,"Har":9982,"ĠDam":9983,"ĠMike":9984,"Ġconhece":9985,"ĠBall":9986,"positores":9987,"ĠNGC":9988,"Ġouvir":9989,"idada":9990,"ĠDie":9991,"ĠindicaÃ§Ã£o":9992,"Ġdeterminar":9993,"Ġeuros":9994,"Ġ1915":9995,"ĠclÃ¡ssica":9996,"Ġabrang":9997,"ĠInvest":9998,"ĠlÃ³gica":9999,"Ã´nios":10000,"Ġboca":10001,"Ãºrb":10002,"ĠMario":10003,"uki":10004,"Ġposteriores":10005,"Ġpav":10006,"Ã´mico":10007,"Ġ54":10008,"Ġespecialista":10009,"Ġecol":10010,"ĠSÃ©":10011,"ĠSex":10012,"Cruz":10013,"gueiro":10014,"Ġefica":10015,"Ġvideoclipe":10016,"cular":10017,"ĠidentificaÃ§Ã£o":10018,"ĠCampinas":10019,"ĠLegislativa":10020,"Tom":10021,"ouch":10022,"ĠFrancis":10023,"ĠCoop":10024,"Ð¾Ð":10025,"Ġpercor":10026,"Proc":10027,"ĠBarra":10028,"Ġafirmando":10029,"ocrata":10030,"ĠPu":10031,"ĠTak":10032,"Ãºne":10033,"Ġgovernos":10034,"Ġcientistas":10035,"dis":10036,"cionado":10037,"ĠmÃ©dica":10038,"Princip":10039,"iew":10040,"Ã©f":10041,"ĠHolanda":10042,"Ġ1921":10043,"ĠCapitÃ£o":10044,"zas":10045,"ĠBrad":10046,"Ġapoiar":10047,"Ġtrinta":10048,"Ġcandidatura":10049,"ĠTÃ©cnico":10050,"ĠTi":10051,"Ġexport":10052,"Ġdecide":10053,"ĠPrÃ©mio":10054,"Ã³rum":10055,"ĠXXI":10056,"egro":10057,"ĠMaia":10058,"Trans":10059,"ĠConv":10060,"ĠdescriÃ§Ã£o":10061,"Ġguitarrista":10062,"ĠExistem":10063,"Ġfases":10064,"ĠescritÃ³rio":10065,"ĠVargas":10066,"Ġmostram":10067,"ĠTrin":10068,"Ġpresos":10069,"ĠJunior":10070,"Ġpesquisadores":10071,"Basquetebol":10072,"fia":10073,"Ġfinanceiro":10074,"Ġseguro":10075,"Ġhumanidade":10076,"utt":10077,"Ġconceitos":10078,"ĠinclinaÃ§Ã£o":10079,"hol":10080,"turas":10081,"Ġsalas":10082,"ENTO":10083,"Ġdividida":10084,"ĠrevoluÃ§Ã£o":10085,"Ġocorreram":10086,"Ġenvolve":10087,"Ġlargura":10088,"Ġdown":10089,"Desporto":10090,"Ġartific":10091,"Ġsh":10092,"ÑĤ":10093,"ĠMÃ©dia":10094,"Ġranking":10095,"ecos":10096,"ĠThre":10097,"ĠemprÃ©st":10098,"Ġinteressante":10099,"ÃŃngua":10100,"Ġcapit":10101,"Ġmantendo":10102,"Jornal":10103,"etts":10104,"Ġfornece":10105,"Ġcm":10106,"ÃŃzes":10107,"ĠevidÃªncias":10108,"Ġespiritual":10109,"ĠBuc":10110,"ropical":10111,"Ġperdendo":10112,"ĠBea":10113,"Ġcompat":10114,"iane":10115,"Ġelevada":10116,"ĠCarn":10117,"Ġligado":10118,"Centro":10119,"Hen":10120,"ĠTeresa":10121,"Ġtelev":10122,"Ġcertos":10123,"ĠFire":10124,"Ra":10125,"ĠinÃºmeras":10126,"Ġ1916":10127,"Ġtaxas":10128,"Desempenho":10129,"ĠKu":10130,"Ġutilizadas":10131,"ĠcombinaÃ§Ã£o":10132,"Ġarquiteto":10133,"Ġdoce":10134,"ĠHip":10135,"ĠAustral":10136,"Ġconfirmou":10137,"Ġeventualmente":10138,"ĠXIII":10139,"Ġfaculdade":10140,"ĠprovÃŃncias":10141,"Ã´nias":10142,"Ġespecialistas":10143,"1976":10144,"Ġpeixes":10145,"entor":10146,"ĠPetro":10147,"Ġarre":10148,"Ġmm":10149,"ĠCount":10150,"Ãºjo":10151,"Ġarcebispo":10152,"Ġestrelado":10153,"Ġtroc":10154,"ĠGall":10155,"Ġparedes":10156,"ĠSav":10157,"baixada":10158,"anni":10159,"cy":10160,"ĠGarcia":10161,"Ã¡vio":10162,"Ġbancos":10163,"ĠmÃ¡quinas":10164,"Pe":10165,"cionamento":10166,"Ġaparecer":10167,"Ġcausas":10168,"Ġinaugurada":10169,"BO":10170,"Fund":10171,"ĠorÃ§amento":10172,"Ġbaixas":10173,"jac":10174,"ĠBrian":10175,"ĠCamar":10176,"ridos":10177,"Ã´nimos":10178,"ĠastronÃ´micos":10179,"rÃ©sc":10180,"Cinema":10181,"],":10182,"Enquanto":10183,"ĠClÃ¡":10184,"ĠMulher":10185,"Ġtarefa":10186,"ection":10187,"Ġflex":10188,"Ang":10189,"Ġgab":10190,"Ġportal":10191,"itudes":10192,"riÃ§Ãµes":10193,"logia":10194,"ĠPadre":10195,"Ġbara":10196,"Ġmontanha":10197,"ĠVietn":10198,"Mart":10199,"Sol":10200,"Ġ56":10201,"Ġponta":10202,"Ġconstitucional":10203,"Ġidentificar":10204,"ĠSl":10205,"ĠnotÃŃcia":10206,"ĠSid":10207,"Ã³noma":10208,"Ġestudante":10209,"Ġauxiliar":10210,"ĠWarner":10211,"ĠdÃ©cimo":10212,"Ã¡gua":10213,"Ġincap":10214,"ĠaplicaÃ§Ãµes":10215,"Ġrecupera":10216,"abiliz":10217,"Ġocorrem":10218,"use":10219,"ĠBernard":10220,"Ġderam":10221,"ĠMarques":10222,"Ġexistente":10223,"CampeÃ£o":10224,"Ġpudesse":10225,"Ġoper":10226,"Ġdefinir":10227,"ĠSÃŃria":10228,"Ġvidas":10229,"ĠDrag":10230,"ĠNCBI":10231,"Ġnomeou":10232,"1975":10233,"Tem":10234,"ĠGestÃ£o":10235,"evin":10236,"Ġcampanhas":10237,"ĠFrederico":10238,"ĠAud":10239,"Ġdisputar":10240,"pus":10241,"ĠTony":10242,"ĠTelev":10243,"Ġrecusou":10244,"ĠWrestling":10245,"Ġconvidados":10246,"].":10247,"Ġpse":10248,"ĠFord":10249,"veja":10250,"aker":10251,"ĠBrook":10252,"ĠDiÃ¡rio":10253,"Der":10254,"ivid":10255,"book":10256,"ĠSar":10257,"bach":10258,"ĠPL":10259,"blog":10260,"Ã©dios":10261,"Ġplataformas":10262,"Ġcausou":10263,"Ġfib":10264,"Ġteriam":10265,"Ġcomida":10266,"1977":10267,"Ġdeterminada":10268,"bos":10269,"Ġretom":10270,"ĠWWE":10271,"PT":10272,"Publ":10273,"ĠGeÃ³rgia":10274,"ĠHeart":10275,"ÃŃbl":10276,"Ã©rsia":10277,"dist":10278,"Ãºng":10279,"mi":10280,"Ġcontrolar":10281,"rofÃ©u":10282,"Alb":10283,"Ġincluir":10284,"iami":10285,"Ã¡sia":10286,"ĠSobre":10287,"ogador":10288,"Ġinimigo":10289,"ĠXII":10290,"ĠChap":10291,"ĠFrance":10292,"Ġdefinida":10293,"ertar":10294,"ĠMiranda":10295,"ĠForÃ§as":10296,"Ġconcluiu":10297,"Ġrecept":10298,"ĠDio":10299,"Ġsetores":10300,"ĠAnth":10301,"ĠcientÃŃfico":10302,"onÃ©sia":10303,"Ġmundiais":10304,"Ġfel":10305,"ĠÃ³rbita":10306,"ĠHunt":10307,"inson":10308,"ĠImperador":10309,"ĠAraÃºjo":10310,"ulados":10311,"ĠpatrimÃ´nio":10312,"ĠFÃ¡b":10313,"ĠSn":10314,"ĠMaior":10315,"ĠjuÃŃ":10316,"view":10317,"achus":10318,"ĠDados":10319,"Ġergu":10320,"Ġventos":10321,"ĠNenhum":10322,"Ġmuda":10323,"Ġtelenovela":10324,"Ġdesafio":10325,"Ġdepende":10326,"NO":10327,"Ġativa":10328,"ĠextinÃ§Ã£o":10329,"Ġalcance":10330,"ĠDavis":10331,"iveram":10332,"Ġtese":10333,"Ġenerg":10334,"Ĥ¬":10335,"ĠNeto":10336,"Ġretornar":10337,"osh":10338,"ĠbraÃ§o":10339,"ilares":10340,"Ġpermanece":10341,"rÃ©ia":10342,"ĠDomin":10343,"Ġuniversidades":10344,"NotÃŃcias":10345,"ravam":10346,"Ġmata":10347,"Ġbrancos":10348,"ĠesperanÃ§a":10349,"Ġpeixe":10350,"itÃ©":10351,"Ġras":10352,"more":10353,"ulaÃ§Ãµes":10354,"alizou":10355,"ĠCapital":10356,"down":10357,"rosa":10358,"eller":10359,"Ġequipas":10360,"ĠintegraÃ§Ã£o":10361,"ĠFacility":10362,"Ġradio":10363,"emÃ¡ticos":10364,"Flora":10365,"ĠtransformaÃ§Ã£o":10366,"ĠRadio":10367,"ĠRot":10368,"ĠTav":10369,"udia":10370,"BR":10371,"Dis":10372,"ĠKir":10373,"Ġproven":10374,"Nav":10375,"Ġescolar":10376,"ĠhipÃ³tese":10377,"arth":10378,"bras":10379,"Ġescultura":10380,"illy":10381,"ĠFis":10382,"egan":10383,"ĠFilosofia":10384,"ondo":10385,"Ġfogu":10386,"cepÃ§Ã£o":10387,"ĠmarÃŃt":10388,"Ġtirar":10389,"Ġacha":10390,"To":10391,"rip":10392,"ĠState":10393,"doc":10394,"ĠBernardo":10395,"William":10396,"Aves":10397,"ĠQual":10398,"Ġperigos":10399,"ĠDiretor":10400,"ĠMoreira":10401,"Ġcondut":10402,"ĠMÃ©rito":10403,"Ġextraord":10404,"ĠJÃºlio":10405,"Ġexclu":10406,"Ġchuva":10407,"Ġperdido":10408,"Ġrespira":10409,"ches":10410,"Ġnegro":10411,"ĠSystem":10412,"Ġprob":10413,"Ġenx":10414,"Ġmodalidade":10415,"ĠegÃŃp":10416,"Ġrestaura":10417,"ĠEric":10418,"utas":10419,"ĠEast":10420,"Ġrevolta":10421,"ĠMess":10422,"ĠVar":10423,"omot":10424,"igan":10425,"Ġtecnologias":10426,"espera":10427,"Ġvigor":10428,"ĠBispo":10429,"Ġfasc":10430,"Ġhem":10431,"ĠchÃ£o":10432,"Ben":10433,"Transp":10434,"ĠcalendÃ¡rio":10435,"Ġdoutorado":10436,"Vis":10437,"eli":10438,"ÃŃssimo":10439,"ĠÃ©tn":10440,"ĠProt":10441,"ĠlesÃ£o":10442,"ĠJerusalÃ©m":10443,"ange":10444,"Ġtido":10445,"Ġimpostos":10446,"ĠConferÃªncia":10447,"Ġtum":10448,"Trabal":10449,"ĠStone":10450,"ĠGama":10451,"ĠHans":10452,"Ġconvert":10453,"Ġpac":10454,"Ġanime":10455,"Ġreferir":10456,"sex":10457,"Ġconcord":10458,"Ġarquivo":10459,"Ġerros":10460,"Ã¢neas":10461,"Ġbrut":10462,"Ġmediante":10463,"ĠDun":10464,"ĠFelipe":10465,"Ġdemo":10466,"Ġparecer":10467,"Ġconfronto":10468,"Ġurbano":10469,"ĠTib":10470,"Ġaprendiz":10471,"Conf":10472,"Ġrosto":10473,"Ġmedieval":10474,"Ġensin":10475,"Ġpreen":10476,"Ġacho":10477,"esses":10478,"abo":10479,"Ġmorrer":10480,"Ġdestacou":10481,"ĠCircuito":10482,"ales":10483,"ĠMeio":10484,"ĠVista":10485,"Ġdescendentes":10486,"die":10487,"ĠconstruÃŃdos":10488,"ĠdimensÃµes":10489,"ĠLGBT":10490,"Er":10491,"ivar":10492,"ĠEspa":10493,"rens":10494,"Ġ1890":10495,"ĠSecretÃ¡rio":10496,"icus":10497,"Ġporte":10498,"ĠXIV":10499,"Ã³ricos":10500,"Ġcriados":10501,"ĠnaÃ§Ãµes":10502,"Ġpico":10503,"Ġlitoral":10504,"Ġsono":10505,"encer":10506,"1970":10507,"Ġtio":10508,"ASA":10509,"ĠBroad":10510,"RIO":10511,"Ġformal":10512,"ĠHaw":10513,"https":10514,"ĠSony":10515,"Ġproemin":10516,"eirista":10517,"ĠPÃºblicas":10518,"ĠFilipinas":10519,"ĠMestre":10520,"Ġferramenta":10521,"ĠApar":10522,"Ġcertas":10523,"ĠMano":10524,"Ġabra":10525,"ĠPortanto":10526,"glas":10527,"Ãºt":10528,"arial":10529,"Ã©rebro":10530,"Ġcarbono":10531,"Ġlux":10532,"Ġintensidade":10533,"ember":10534,"arat":10535,"Ġcompetiu":10536,"MÃºsica":10537,"ĠHuman":10538,"pensa":10539,"Ġiniciais":10540,"Ġdisputado":10541,"Ġdirigiu":10542,"Paulo":10543,"Ġcontos":10544,"Ġnegros":10545,"ĠUl":10546,"Ġsexto":10547,"Galeria":10548,"ots":10549,"Of":10550,"Ġexcent":10551,"Ġimpedir":10552,"Ġcot":10553,"1974":10554,"Ġesclar":10555,"ĠLibertadores":10556,"cin":10557,"ĠLittle":10558,"rana":10559,"perat":10560,"ĠHarry":10561,"ĠBert":10562,"Ġcompromet":10563,"ĠPower":10564,"ĠRiver":10565,"Segunda":10566,"Ġdeveriam":10567,"achusetts":10568,"ĠMulheres":10569,"mina":10570,"ĠFred":10571,"Ġconceb":10572,"ernidade":10573,"Ġcomputadores":10574,"ĠEconomia":10575,"Cur":10576,"IR":10577,"nascido":10578,"Ġbloco":10579,"Ġesm":10580,"Ġcomumente":10581,"obil":10582,"ĠAgÃªncia":10583,"Ġgr":10584,"Ġmontanhas":10585,"ĠcritÃ©rios":10586,"Ġsant":10587,"ĠHong":10588,"ĠCook":10589,"Ġargentino":10590,"Ġcanh":10591,"Ġdecis":10592,"Existem":10593,"IST":10594,"brasil":10595,"pan":10596,"Ġativos":10597,"Ġsubstituir":10598,"ĠTorres":10599,"ĠTorneio":10600,"ĠPierre":10601,"Ġatmosfera":10602,"etor":10603,"eres":10604,"Ġaparecem":10605,"ĠNegro":10606,"Ġvender":10607,"Ġanualmente":10608,"gane":10609,"ĠOutra":10610,"Ġrecuperar":10611,"ancha":10612,"Ġcamisa":10613,"Ġditadura":10614,"Ġquente":10615,"Ġrecrut":10616,"ĠDuarte":10617,"Ġcompar":10618,"Ġsubord":10619,"Ġchance":10620,"ĠfenÃ´meno":10621,"Ġsig":10622,"ugosl":10623,"achar":10624,"Ġplanejamento":10625,"Ġcedo":10626,"roco":10627,"Ġintim":10628,"Ã³rter":10629,"Ġiniciar":10630,"Ġtend":10631,"Ġpositivo":10632,"Ġrepresentam":10633,"ĠcampeÃ£":10634,"Ġintermed":10635,"ĠLewis":10636,"ĠtensÃ£o":10637,"ĠEngl":10638,"Ġganhando":10639,"Jul":10640,"Ġmando":10641,"perc":10642,"Ġhabilidade":10643,"Ġcadeira":10644,"ĠBrig":10645,"ĠMunicÃŃpio":10646,"cionar":10647,"ĠOutras":10648,"ĠaquisiÃ§Ã£o":10649,"Ġmix":10650,"ĠVice":10651,"Ġ(;":10652,"ĠBack":10653,"vest":10654,"ĠciÃªncias":10655,"Ġsimpl":10656,"ĠComunista":10657,"ĠAct":10658,"armac":10659,"Ca":10660,"Ġadquiriu":10661,"identais":10662,"ecedentes":10663,"ĠrevisÃ£o":10664,"orc":10665,"ĠlicenÃ§a":10666,"ĠHotel":10667,"arque":10668,"ĠseparaÃ§Ã£o":10669,"Ġbuscar":10670,"ml":10671,"cht":10672,"isar":10673,"ĠBenfica":10674,"Grande":10675,"Ġu":10676,"Ġpobres":10677,"Ġreceita":10678,"Ġestilos":10679,"ionar":10680,"Ġagress":10681,"ĠNessa":10682,"ĠcardÃŃ":10683,"ĠPalmeiras":10684,"Ã´lei":10685,"ift":10686,"Ġconsideradas":10687,"IF":10688,"ĠmÃ¡s":10689,"ĠprovÃ¡vel":10690,"Ġexcentricidade":10691,"Ġ00":10692,"Ġofens":10693,"Ġhistor":10694,"olos":10695,"Ġdesignado":10696,"ĠMix":10697,"Ġintitulada":10698,"vard":10699,"Go":10700,"Ġcub":10701,"Ã³w":10702,"Ġaliados":10703,"Ġesportes":10704,"Ġcujos":10705,"Ġterminar":10706,"Nome":10707,"1973":10708,"ĠfuracÃ£o":10709,"Ġmensagens":10710,"iforme":10711,"Ġabund":10712,"Ġ57":10713,"Ġaparentemente":10714,"Ġassociada":10715,"Ġsorte":10716,"ÃŃmpica":10717,"Ġded":10718,"Ġnegoci":10719,"cula":10720,"Ġorn":10721,"ĠGot":10722,"ĠterÃ§a":10723,"Ġcamada":10724,"Telenov":10725,"inalmente":10726,"ĠPav":10727,"ĠcombustÃŃvel":10728,"Ġgravada":10729,"bor":10730,"Ġbrig":10731,"Ġamizade":10732,"Ġaumentou":10733,"Ġlas":10734,"ĠcorrupÃ§Ã£o":10735,"ĠrÃ©":10736,"ĠOd":10737,"RAS":10738,"Esse":10739,"Ġtelefone":10740,"role":10741,"idiano":10742,"ĠSteve":10743,"Ġsucessos":10744,"ĠFu":10745,"enciar":10746,"ĠDemocrÃ¡tico":10747,"ĠnotÃ¡veis":10748,"ĠMam":10749,"Ã¡rqu":10750,"guez":10751,"Ġpouca":10752,"Ġolho":10753,"Ġfestas":10754,"Ġamiga":10755,"ĠChristian":10756,"ĠOhio":10757,"Ġfazenda":10758,"Ġambientes":10759,"Ġgraus":10760,"Pop":10761,"onial":10762,"Ġaceitar":10763,"kov":10764,"Robert":10765,"ĠinspiraÃ§Ã£o":10766,"Basquetebolistas":10767,"ĠSimon":10768,"EA":10769,"Ġfilos":10770,"Sch":10771,"zar":10772,"ranha":10773,"jetÃ³ria":10774,"anger":10775,"Ġpercurso":10776,"Ġnele":10777,"Ġtort":10778,"Ġ53":10779,"Ġfict":10780,"Ã¢neos":10781,"Ġcorresponde":10782,"Ġencarreg":10783,"onda":10784,"ĠVelho":10785,"ĠpreocupaÃ§Ã£o":10786,"Ġmagnitude":10787,"PM":10788,"EstÃ¡":10789,"Ġnave":10790,"ĠestÃ¡gio":10791,"ĠLov":10792,"Ġequipamento":10793,"ĠDeb":10794,"Ġdono":10795,"etra":10796,"famÃŃlia":10797,"Ġvencedores":10798,"Ã³c":10799,"ĠconstituiÃ§Ã£o":10800,"sche":10801,"Ã§ados":10802,"Comp":10803,"Rep":10804,"Essa":10805,"ĠVirg":10806,"enimento":10807,"Ġsor":10808,"Categ":10809,"ĠÃªx":10810,"aso":10811,"ebeu":10812,"Ġ84":10813,"ĠTs":10814,"ĠHome":10815,"Ġparar":10816,"Ġcuidado":10817,"Ġmostrando":10818,"ĠComÃ©rcio":10819,"ĠObserv":10820,"adj":10821,"ĠBlue":10822,"atou":10823,"ecidas":10824,"Ġrelacionado":10825,"ĠBul":10826,"cep":10827,"ĠconstelaÃ§Ã£o":10828,"bour":10829,"ĠGuard":10830,"Ðº":10831,"Ġfilmagens":10832,"Tur":10833,"ĠEdiÃ§Ã£o":10834,"Ġressal":10835,"ĠEquador":10836,"tora":10837,"abelas":10838,"ĠGovernador":10839,"Ġconfund":10840,"endedor":10841,"Ġcorrespondente":10842,"Telenovelas":10843,"ĠBla":10844,"Ġcolocados":10845,"iterr":10846,"Ġhonor":10847,"Ġcostas":10848,"ĠincÃªndio":10849,"retamente":10850,"Ġbur":10851,"Ġcasar":10852,"ĠDNA":10853,"orit":10854,"Ġcircunst":10855,"ricaÃ§Ã£o":10856,"Ġdesconhecido":10857,"Br":10858,"ĠBranca":10859,"Fern":10860,"ĠfÃ³rmula":10861,"ĠHand":10862,"Ġpede":10863,"rÃ©scimo":10864,"Ġtras":10865,"ilde":10866,"Ġestaria":10867,"1972":10868,"icionÃ¡rio":10869,"Ġeurop":10870,"ĠSho":10871,"ĠHugo":10872,"estar":10873,"Ġrota":10874,"ĠcontribuiÃ§Ã£o":10875,"ĠFÃŃsica":10876,"Ġincluiu":10877,"ĠAlta":10878,"manos":10879,"Ġrevelado":10880,"Ġenviar":10881,"ĠAos":10882,"ĠRTP":10883,"riano":10884,"Ġdefende":10885,"ĠimpÃ©rio":10886,"pid":10887,"Ġlidar":10888,"Ġlutas":10889,"Ġenfrentou":10890,"Ġentreg":10891,"ĠCax":10892,"Ġtempor":10893,"Ġinspirado":10894,"Ã¶r":10895,"ĠjurÃŃdica":10896,"Ġmilit":10897,"ĠpreparaÃ§Ã£o":10898,"Ġculto":10899,"ĠJohann":10900,"imb":10901,"ĠdirecÃ§Ã£o":10902,"Ã¡ct":10903,"ĠâĢł":10904,"ĠDead":10905,"ansas":10906,"ĠLog":10907,"upi":10908,"Ġzero":10909,"Ġ360":10910,"Ġdaquela":10911,"ĠNoite":10912,"Ġsabia":10913,"Ġpertencia":10914,"</":10915,"Ġhaja":10916,"iller":10917,"Ġparcialmente":10918,"Ġcoroa":10919,"Ġconvite":10920,"ĠâĨĴ":10921,"ĠLut":10922,"ĠraÃŃzes":10923,"Ġtentativas":10924,"Ġaplicativo":10925,"Ġtermina":10926,"Ġsev":10927,"Ã¡sio":10928,"Ġpromet":10929,"Ġ1905":10930,".),":10931,"ĠEN":10932,"cot":10933,"Ġaceita":10934,"Ġsurge":10935,"Ġvinho":10936,"âĢİ":10937,"ĠPhilip":10938,"ĠNBA":10939,"kg":10940,"Ġpermitem":10941,"Ġcasada":10942,"plos":10943,"Ġregistrou":10944,"ĠArena":10945,"Ġdesist":10946,"Ġitalianos":10947,"Ġsacrif":10948,"Ġcorridas":10949,"Ġsubsequ":10950,"ĠCatedral":10951,"1967":10952,"Ps":10953,"Ġalb":10954,"Ġacol":10955,"ĠMedia":10956,"PG":10957,"sson":10958,"Home":10959,"ĠWolf":10960,"ĠcatÃ³lica":10961,"Ġprofundidade":10962,"Ġfinanci":10963,"Ġmarav":10964,"Michael":10965,"ĠNig":10966,"alizando":10967,"ĠProp":10968,"Sam":10969,"cara":10970,"ĠdÃ£o":10971,"anna":10972,"ĠJuventude":10973,"...]":10974,"ĠColumbia":10975,"Ġparticipa":10976,"Ġconsiderar":10977,"Ġdiversidade":10978,"Ãºstrias":10979,"ĠcÃ´nsul":10980,"uge":10981,"ĠcartÃ£o":10982,"Ġsofrer":10983,"ĠChart":10984,"Ã¢nicas":10985,"Ġmanip":10986,"Ġcos":10987,"ĠAzul":10988,"Ġcompostos":10989,"ĠconexÃ£o":10990,"ĠUniverso":10991,"ĠBolÃŃvia":10992,"Ġaprovado":10993,"Ġmapa":10994,"atem":10995,"Ġvias":10996,"width":10997,"ĠWiki":10998,"Ġsalvar":10999,"Ġautomat":11000,"anth":11001,"ache":11002,"landesa":11003,"ĠTwitterCompartilhar":11004,"govern":11005,"iant":11006,"Ġposta":11007,"Ġmajor":11008,"Ġbenefici":11009,"??":11010,"Ġcine":11011,"ĠSBT":11012,"ĠCarioca":11013,"ĠServiÃ§os":11014,"ĠLus":11015,"Lou":11016,"ĠnegociaÃ§Ãµes":11017,"Å«":11018,"Ġsugere":11019,"Era":11020,"Ġtribunal":11021,"ĠFantas":11022,"ĠalianÃ§a":11023,"Ã©nia":11024,"Ġdestacam":11025,"ĠABC":11026,"Ġpresidencial":11027,"ĠAmara":11028,"ĠPrincip":11029,"LE":11030,"Ġabst":11031,"Ġfundadores":11032,"Ã³via":11033,"Ġaumenta":11034,"ĠBem":11035,"Ġculturas":11036,"Ġdownload":11037,"rigo":11038,"Ġconselh":11039,"Ġcabe":11040,"Ġ1909":11041,"IDADE":11042,"Ġpalest":11043,"ĠBota":11044,"Ġespectadores":11045,"ĠConn":11046,"empre":11047,"ebre":11048,"Ġsignificativa":11049,"ĠaustrÃŃ":11050,"ĠIg":11051,"Ġdesport":11052,"Ã¡rb":11053,"Ġgerar":11054,"Ġantrop":11055,"ĠNeves":11056,"Bra":11057,"lbum":11058,"Ġacontecimentos":11059,".(":11060,"ĠVilla":11061,"Ġrival":11062,"ĠLua":11063,"Luc":11064,"ĠPio":11065,"CS":11066,"ressÃ£o":11067,"ĠElizabeth":11068,"itivos":11069,"Ġrever":11070,"ĠJacob":11071,"ĠmÃ³veis":11072,"Ġonze":11073,"Ġinterpretar":11074,"Ġdependendo":11075,"ĠAmazÃ´nia":11076,"ĠDol":11077,"Ġatira":11078,"ĠimpressÃ£o":11079,"ĠespecÃŃficos":11080,"Red":11081,"ather":11082,"ĠLab":11083,"ĠPelo":11084,"ĠMis":11085,"ĠProvÃŃncia":11086,"Ġexame":11087,"conde":11088,"ĠDown":11089,"Ġoperacional":11090,"Web":11091,"Ġving":11092,"itivamente":11093,"irÃ¡":11094,"1969":11095,"enny":11096,"rast":11097,"Ġgraf":11098,"Ġeduca":11099,"Ġaula":11100,"evedo":11101,"MÃºs":11102,"oide":11103,"Ġjogando":11104,"ĠBomb":11105,"Ġconter":11106,"Ã¢nime":11107,"Ġfamosos":11108,"Ġmete":11109,"ĠaviÃµes":11110,"ĠNam":11111,"ĠavanÃ§o":11112,"ĠXbox":11113,"ntese":11114,"cimento":11115,"ĠSporting":11116,"Ġfinanciamento":11117,"dire":11118,"Ġplaca":11119,"Ġfinalidade":11120,"renÃ§o":11121,"Ġjaponeses":11122,"Ġsinc":11123,"ĠSky":11124,"ĠVIII":11125,"EducaÃ§Ã£o":11126,"ĠRE":11127,"Economia":11128,"ĠHelena":11129,"Ġmecanismo":11130,"Ġatuando":11131,"Ã³pio":11132,"Ġescritores":11133,"Ġcumprir":11134,"reiros":11135,"rost":11136,"RAN":11137,"Ġtecido":11138,"Ġqueim":11139,"ÃŃlica":11140,"Mal":11141,"ences":11142,"Ġjornada":11143,"Ġnew":11144,"Ġrestos":11145,"Ġentregue":11146,"Ġreconhecida":11147,"Universidade":11148,"Ġ1904":11149,"Ġvivas":11150,"ĠIndustrial":11151,"Porto":11152,"ĠLen":11153,"Ã³rcio":11154,"ossex":11155,"ĠcÃ©rebro":11156,"hopping":11157,"Ãºria":11158,"Ġhard":11159,"Ġprodutora":11160,"Ġpermanecer":11161,"Ġfachada":11162,"Qual":11163,"Ġ95":11164,"Ġjudicial":11165,"Ġ78":11166,"ĠRita":11167,"ĠFons":11168,"ĠStory":11169,"ĠdÃºvidas":11170,"iovanni":11171,"ĠMos":11172,"ivais":11173,"ĠDark":11174,"Ġpet":11175,"Ġfilhas":11176,"Ġdefendeu":11177,"Ġia":11178,"ĠFacebookCompartilhar":11179,"Epis":11180,"ĠAlan":11181,"ĠGreat":11182,"Ġincon":11183,"ĠAmericana":11184,"ĠsubstituiÃ§Ã£o":11185,"Ġalimentar":11186,"Ġreferido":11187,"Ġrefug":11188,"Ġprivado":11189,"Ġprolong":11190,"ĠBrangane":11191,"ĠGi":11192,"ĠSaud":11193,"oman":11194,"Torn":11195,"letismo":11196,"anco":11197,"Ġdedicada":11198,"Ġvirtual":11199,"ĠRepresent":11200,"ĠCR":11201,"ogÃªn":11202,"Ġrelatos":11203,"Christ":11204,"Ġ1906":11205,"ĠMand":11206,"ĠanÃ¡l":11207,"zil":11208,"Ġcriminos":11209,"Ġondas":11210,"orks":11211,"ĠAngel":11212,"Ġ1907":11213,"Ġisl":11214,"Her":11215,"Ø§":11216,"ĠÃŃnt":11217,"ĠLt":11218,"ĠCoelho":11219,"Ġdicas":11220,"ĠpartÃŃculas":11221,"1971":11222,"ĠCOM":11223,"ĠCoraÃ§Ã£o":11224,"ĠMult":11225,"Ġtestemun":11226,"ĠLac":11227,"Ġpretende":11228,"Ġconstrut":11229,"ĠMak":11230,"Ġsegmento":11231,"Ġrast":11232,"Ġlimp":11233,"avy":11234,"Ġsolid":11235,"Ġdesenvolvida":11236,"Ġconstituem":11237,"inÃ¡rios":11238,"Ġnativa":11239,"itro":11240,"ĠDesign":11241,"quist":11242,"ĠFundo":11243,"ĠreproduÃ§Ã£o":11244,"Pod":11245,"ĠMiami":11246,"ĠIsa":11247,"ĠOperaÃ§Ã£o":11248,"deias":11249,"ĠPrata":11250,"inois":11251,"ĠMonteiro":11252,"ĠdesignaÃ§Ã£o":11253,"VO":11254,"ĠSir":11255,"Ġeuropeia":11256,"ĠMassachusetts":11257,"ĠÃģlv":11258,"enhas":11259,"inz":11260,"Ġ(),":11261,"ĠdisposiÃ§Ã£o":11262,"ĠCompl":11263,"ĠBeach":11264,"Ã©mios":11265,"ĠThom":11266,"Ġvincul":11267,"ĠCri":11268,"suc":11269,"Ã´nicos":11270,"itÃ³rio":11271,"Ġduplas":11272,"Ġconsiderou":11273,"Pedro":11274,"Ġtransferido":11275,"ĠLam":11276,"ĠIX":11277,"ĠJur":11278,"Ġsucedido":11279,"ĠFront":11280,"iderou":11281,"Ġextremo":11282,"ĠcompreensÃ£o":11283,"Ġantecip":11284,"Ġdesast":11285,"Ġdizem":11286,"ĠinfluÃªncias":11287,"Ġreformas":11288,"gi":11289,"ecular":11290,"Ġ68":11291,"Ġordenou":11292,"Ġguerras":11293,"orf":11294,"Ġobs":11295,"Ġcolocada":11296,"Ġcondenado":11297,"ĠPad":11298,"antar":11299,"ĠAlice":11300,"ĠvariaÃ§Ã£o":11301,"dig":11302,"Ġdemit":11303,"elt":11304,"ĠSic":11305,"Ġ600":11306,"Ġorigens":11307,"ĠaÃ§o":11308,"erias":11309,"Ġresultando":11310,"Ġdesenvolve":11311,"Ġmural":11312,"Ġterminando":11313,"UF":11314,"ĠNunes":11315,"Ġteorias":11316,"ĠMetropolitana":11317,"Ġreis":11318,"aya":11319,"Ãºlio":11320,"Ġidos":11321,"ĠNu":11322,"Ġperigo":11323,"rense":11324,"Ġlimitada":11325,"VI":11326,"obra":11327,"Ġespira":11328,"Ġreconstru":11329,"anÃ§ado":11330,"Ġautonomia":11331,"Ġatuava":11332,"ĠPolit":11333,"imir":11334,"Facebook":11335,"ocas":11336,"kk":11337,"Ġcompromisso":11338,"Ã¸":11339,"ĠMate":11340,"Ġdemocracia":11341,"Ġprevisto":11342,"Ġfantasia":11343,"outh":11344,"ĠClar":11345,"Ġapoia":11346,"ges":11347,"icados":11348,"enÃ¡rios":11349,"ĠCB":11350,"ĠRoger":11351,"Ġdil":11352,"Ġreclam":11353,"shire":11354,"ĠCruzeiro":11355,"ĠGas":11356,"Ġenferm":11357,"Ġlatino":11358,"ĠDiocese":11359,"urch":11360,"Ġacusado":11361,"ĠBotafogo":11362,"ĠMir":11363,"Ġaven":11364,"Ġsentimentos":11365,"Ġacompanhado":11366,"Ġinterpretada":11367,"enÃ§Ãµes":11368,"ĠKent":11369,"ĠTodas":11370,"Ġesf":11371,"Ġocupou":11372,"Intern":11373,"ifÃŃcio":11374,"ĠBarÃ£o":11375,"ĠinteraÃ§Ã£o":11376,"Ġdelic":11377,"ColeÃ³pteros":11378,"ashi":11379,"ĠAmbiente":11380,"Ġquebra":11381,"ĠestrÃ©ia":11382,"ĠeletrÃ´nica":11383,"leos":11384,"Ġresulta":11385,"nov":11386,"Ġadolescentes":11387,"ĠRick":11388,"Ġchinesa":11389,"ĠCapit":11390,"Ġmarcada":11391,"ĠSuc":11392,"Estat":11393,"Ġcomercia":11394,"rate":11395,"reio":11396,"ĠdimensÃ£o":11397,"ouros":11398,"ĠGP":11399,"DesambiguaÃ§Ãµes":11400,"kh":11401,"agon":11402,"Ã©rs":11403,"alhÃ£es":11404,"Ġplacar":11405,"ĠAntiga":11406,"riram":11407,"ulha":11408,"ĠNik":11409,"Ġorganismo":11410,"ĠolÃŃmpico":11411,"Ġquadrados":11412,"Presidente":11413,"ravÃ©s":11414,"Ġpedir":11415,"ĠmolÃ©c":11416,"ĠBour":11417,"Ġdesenvolvidos":11418,"unicaÃ§Ãµes":11419,"Ġrico":11420,"ĠdÃ©cima":11421,"1964":11422,"ĠinauguraÃ§Ã£o":11423,"Ġcai":11424,"Ġcirurgia":11425,"px":11426,"imin":11427,"Ġreporta":11428,"esouro":11429,"ĠconcessÃ£o":11430,"Ġgoleiro":11431,"Ġelite":11432,"retos":11433,"Ġnarrativa":11434,"ĠFinlÃ¢ndia":11435,"ĠmatemÃ¡tico":11436,"UM":11437,"ĠDeputados":11438,"Ġpositiva":11439,"Ġcomentou":11440,"Ġderrotar":11441,"ritÃ³rio":11442,"ĠTomÃ©":11443,"Ġemail":11444,"oud":11445,"pero":11446,"Ġacervo":11447,"ĠMedalha":11448,"Ġmission":11449,"idge":11450,"viamente":11451,"unciou":11452,"Ġvereador":11453,"Mac":11454,"ĠdivisÃµes":11455,"Ġgravar":11456,"Ġpovoado":11457,"ossa":11458,"ĠnecessÃ¡rias":11459,"yer":11460,"Ãºp":11461,"Ġassent":11462,"ucran":11463,"ĠtrÃ¢nsito":11464,"Ġtarefas":11465,"oldo":11466,"atual":11467,"ĠMana":11468,"Ġpublicidade":11469,"Ġcausando":11470,"ĠHenri":11471,"entÃ¡rios":11472,"ĠPequ":11473,"ĠSamuel":11474,"Ġexcess":11475,"Servi":11476,"Ġligados":11477,"Ġsap":11478,"ÃŃamos":11479,"eton":11480,"Ã©lica":11481,"Ġintegrante":11482,"ĠcapÃŃtulos":11483,"ĠMuitas":11484,"1945":11485,"Ġexplicar":11486,"ĠlÃŃquido":11487,"Ġprocedimento":11488,"Ġprocedimentos":11489,"Pode":11490,"Ġvisando":11491,"Ġingressou":11492,"Hom":11493,"Ġperante":11494,"rocos":11495,"rint":11496,"eight":11497,"Ġvoleibol":11498,"Ġsitua":11499,"Ġselo":11500,"Ġuniversal":11501,"Partilhar":11502,"ĠemergÃªncia":11503,"ĠGrav":11504,"ĠErn":11505,"iden":11506,"Ġservidores":11507,"ðŁ":11508,"ĠToda":11509,"Ġtiver":11510,"ĠproduÃ§Ãµes":11511,"Ġorganizar":11512,"weet":11513,"Ġpergunta":11514,"ĠOm":11515,"Ġinformou":11516,"ĠadversÃ¡rio":11517,"ĠmÃ¡g":11518,"urÃ£o":11519,"alizados":11520,"Ġtext":11521,"Ġingles":11522,"ĠfÃŃsicas":11523,"eron":11524,"Ġcontinuidade":11525,"arra":11526,"2023":11527,"ĠmecÃ¢nica":11528,"Ġquinze":11529,"ogen":11530,"ĠChico":11531,"ĠSup":11532,"Ġatacar":11533,"Ġsujeito":11534,"Ġquero":11535,"ĠÃ¡udio":11536,"ĠTurismo":11537,"Ã¡sticos":11538,"Ġtemperaturas":11539,"ĠAdol":11540,"Ret":11541,"ĠFonseca":11542,"orar":11543,"ĠMata":11544,"Ġfama":11545,"ĠparticipaÃ§Ãµes":11546,"oridae":11547,"ĠSemin":11548,"ĠCarol":11549,"Ġabol":11550,"iental":11551,"1966":11552,"rÃ¡fego":11553,"ĠfabricaÃ§Ã£o":11554,"Ã³lio":11555,"Ġliberal":11556,"ĠContinental":11557,"iformes":11558,"aten":11559,"uti":11560,"ianÃ³polis":11561,"ĠPovo":11562,"1965":11563,"erados":11564,"ction":11565,"ĠÃŃndios":11566,"terap":11567,"Ġassume":11568,"Ġhttps":11569,"ĠIraque":11570,"Ãºmero":11571,"Ġaquilo":11572,"Ġsomos":11573,"ĠBet":11574,"Ġjardim":11575,"PP":11576,"ĠinÃºmeros":11577,"Ġriqueza":11578,"wart":11579,"UCN":11580,"Ġprocurar":11581,"ĠInstitute":11582,"oluÃ§Ã£o":11583,"eva":11584,"Ġespecializada":11585,"ĠEver":11586,"Ġestrearam":11587,"ĠOrgan":11588,"Ġescritora":11589,"300":11590,"Ġinfl":11591,"Ġlegais":11592,"ĠCaso":11593,"Char":11594,"CH":11595,"Ġrow":11596,"Ġinfraestrutura":11597,"ĠEditor":11598,"ometria":11599,"Ġligada":11600,"Ġirregular":11601,"ĠrecepÃ§Ã£o":11602,"Ġmecan":11603,"OM":11604,"Ġasteroides":11605,"inclu":11606,"Ġ(-":11607,"ĠBiz":11608,"ĠHart":11609,"Ġovos":11610,"Ġextinta":11611,"Ġcantar":11612,"rong":11613,"Cu":11614,"ĠcaÃ§":11615,"ĠLourenÃ§o":11616,"Ġave":11617,"cao":11618,"ĠcomeÃ§ando":11619,"Â»,":11620,"ĠGrammy":11621,"Me":11622,"ĠCav":11623,"Ġpoema":11624,"ĠespanhÃ³is":11625,"TelevisÃ£o":11626,"AnfÃŃbios":11627,"Ġensa":11628,"Ġnomeada":11629,"Ġexistir":11630,"ĠTown":11631,"ĠNA":11632,"Ġvendidos":11633,"Ġcompens":11634,"ĠcomeÃ§am":11635,"icam":11636,"ĠMÃ¼":11637,"Ġvapor":11638,"azine":11639,"ĠFilme":11640,"ĠPai":11641,"ganÃ§a":11642,"istente":11643,"ertou":11644,"'.":11645,"ĠpoderÃ£o":11646,"ĠToronto":11647,"add":11648,"ĠMA":11649,"Ġlink":11650,"ÃŃssima":11651,"Ġasi":11652,"TS":11653,"ÃŃfica":11654,"metros":11655,"Ġrica":11656,"Inform":11657,"soc":11658,"ĠMeu":11659,"ĠCaetano":11660,"ader":11661,"ĠnomeaÃ§Ã£o":11662,"Ġacerca":11663,"Ġrowspan":11664,"ÃĢ":11665,"Ġenfat":11666,"Ã«":11667,"icol":11668,"romo":11669,"deais":11670,"Ġvisitar":11671,"ĠSocialista":11672,"ĠclÃ¡ssicos":11673,"ĠMÃ¡r":11674,"ĠIndonÃ©sia":11675,"Ġclassificados":11676,"atra":11677,"Ġesg":11678,"ornia":11679,"postamente":11680,"Ġpatri":11681,"ĠherÃ³i":11682,"Ġ800":11683,"ĠdecoraÃ§Ã£o":11684,"ĠAnna":11685,"ĠHitler":11686,"Ġmoeda":11687,"ĠdiagnÃ³stico":11688,"ĠfilÃ³sofo":11689,"ĠconstituÃŃdo":11690,"Ġtransformar":11691,"1968":11692,"ĠNicola":11693,"ĠGib":11694,"ĠXavier":11695,"estina":11696,"Americana":11697,"Ġdon":11698,"iras":11699,"ĠSS":11700,"Ġfronteiras":11701,"ndrome":11702,"Ġ66":11703,"Ġnegra":11704,"Ġpublicadas":11705,"Ġvermelha":11706,"Ġintermedi":11707,"sonaro":11708,"Ġcop":11709,"Ġencontrava":11710,"Ġcolega":11711,"ĠMoura":11712,"Ġsimbol":11713,"Ġcavalo":11714,"ops":11715,"Ġhistoriadores":11716,"Personagens":11717,"just":11718,"ĠNÂº":11719,"Ġmarcando":11720,"peu":11721,"Ġfugir":11722,"ĠnavegaÃ§Ã£o":11723,"ĠConfederaÃ§Ã£o":11724,"gressos":11725,"ĠsensaÃ§Ã£o":11726,"Vila":11727,"ionado":11728,"ĠTag":11729,"Ġbizant":11730,"RD":11731,"unidade":11732,"ĠMagn":11733,"Ġmedicamentos":11734,"Ġucran":11735,"Ġ58":11736,"Ġobservar":11737,"Ġfon":11738,"ĠimplantaÃ§Ã£o":11739,"Apresent":11740,"Ġbud":11741,"All":11742,"Ġcobre":11743,"cÃµes":11744,"Ġreproduz":11745,"rindo":11746,"Ġcabel":11747,"grad":11748,"Ġestradas":11749,"ĠPonta":11750,"ĠgrÃ¡fico":11751,"ĠsucessÃ£o":11752,"Gr":11753,"Op":11754,"Ġcozinha":11755,"Met":11756,"Ġtut":11757,"ĠApple":11758,"Ġatitude":11759,"ĠespecÃŃfica":11760,"ĠCou":11761,"Ġencam":11762,"Ã³b":11763,"Ġdirigida":11764,"Ġintegrar":11765,"oral":11766,"Ġproclam":11767,"Ġmenina":11768,"ÃŃdios":11769,"ĠConstantinopla":11770,"ĠDouglas":11771,"ĠKl":11772,"Ġlongas":11773,"tory":11774,"Ġmorreram":11775,"Ġjam":11776,"Ġdat":11777,"Ġadmira":11778,"Ġinfin":11779,"Ġconstruiu":11780,"ĠElect":11781,"IZ":11782,"anca":11783,"ĠMagalhÃ£es":11784,"Ġestabelecida":11785,"ĠRelaÃ§Ãµes":11786,"Ġcadas":11787,"ĠAtenas":11788,"Ġpedras":11789,"Ã³quei":11790,"Ġeixo":11791,"ĠÃ¢ng":11792,"ĠMira":11793,"ridade":11794,"ĠTru":11795,"ĠKelly":11796,"ĠDoutor":11797,"ĠgraduaÃ§Ã£o":11798,",\"":11799,"opher":11800,"Ġfinanceiros":11801,"Ġdoutrina":11802,"Ġdentes":11803,"Ġrespondeu":11804,"Ġintelectual":11805,"Ġharmon":11806,"wig":11807,"ĠBulg":11808,"Ġcontando":11809,"Ġromances":11810,"ĠÃ³pera":11811,"quistÃ£o":11812,"Ġabsoluta":11813,"Ġcampeonatos":11814,"Ġterritorial":11815,"damente":11816,"ultores":11817,"Star":11818,"ĠaÃ©reas":11819,"ĠMunique":11820,"Ġcontava":11821,"arcas":11822,"ÃŃduos":11823,"...)":11824,"ÃŃso":11825,"Ġprazer":11826,"lando":11827,"Ġparticulares":11828,"ident":11829,"ĠGri":11830,"Ġhabitats":11831,"ages":11832,"ĠNapole":11833,"Ġidentific":11834,"ĠEleitoral":11835,"dustriais":11836,"qued":11837,"ĠToc":11838,"DS":11839,"Ġ63":11840,"Ġdesafios":11841,"ĠFeira":11842,"Ġconsiderando":11843,"ĠHaleak":11844,"Ġ1903":11845,"ĠbotÃ¢nico":11846,"ĠExecutivo":11847,"Ġambientais":11848,"ĠBase":11849,"ragens":11850,"Ġquadros":11851,"Ġplacas":11852,"apas":11853,"led":11854,"ceito":11855,"Ġarquitet":11856,"Ġcompartilhar":11857,"ĠopiniÃµes":11858,"Ġeleita":11859,"Ġdemol":11860,"ĠDilma":11861,"ejo":11862,"Ġbrinc":11863,"PC":11864,"Ġmenino":11865,"ĠpreservaÃ§Ã£o":11866,"ads":11867,"ĠfÃ©rias":11868,"ĠGord":11869,"Ã¶n":11870,"ĠPeters":11871,"Hoje":11872,"zinho":11873,"Ġparceiro":11874,"ĠcontribuiÃ§Ãµes":11875,"Ġproduzidas":11876,"Ġmarcar":11877,"Filho":11878,"Ġhomossex":11879,"inus":11880,"Ġriscos":11881,"Ġenfraqu":11882,"Ġpoemas":11883,"Ġacamp":11884,"Ġreuniu":11885,"sea":11886,"Ordem":11887,"arto":11888,"conhec":11889,"Ġmanusc":11890,"ĠImprensa":11891,"Ġliderou":11892,"Artigos":11893,"ĠanÃºncio":11894,"Ġcento":11895,"Ġaceitou":11896,"ĠTon":11897,"Ġimpe":11898,"Ġpodiam":11899,"ĠNobel":11900,"Maior":11901,"doras":11902,"ĠFreitas":11903,"We":11904,"indic":11905,"ĠApresent":11906,"Ġgraves":11907,"Ġhabitat":11908,"Ġresponder":11909,"ĠGales":11910,";\"|":11911,"Ġassistir":11912,"Ġseca":11913,"ĠIUCN":11914,"Ġrum":11915,"ĠdemocrÃ¡t":11916,"PolÃŃticos":11917,"del":11918,"otal":11919,"Ġciclismo":11920,"olia":11921,"Ã³cios":11922,"Ġamplo":11923,"Ġtransmitido":11924,"Ġacompanhar":11925,"ĠvegetaÃ§Ã£o":11926,"Ġidioma":11927,"ĠmanifestaÃ§Ãµes":11928,"organ":11929,"Ġprojetado":11930,"Ġterrestre":11931,"ĠKh":11932,"ĠautorizaÃ§Ã£o":11933,"ĠocasiÃµes":11934,"ĠLiteratura":11935,"presente":11936,"ĠalteraÃ§Ã£o":11937,"Medalha":11938,"Ġpostos":11939,"Down":11940,"Ġader":11941,"ĠtradiÃ§Ãµes":11942,"Ġcujas":11943,"ĠProte":11944,"Ġcomentar":11945,"Ġsubstituindo":11946,"ĠcampeÃµes":11947,"ĠatribuÃŃdo":11948,"Ġprotestos":11949,"ĠRomana":11950,"ĠMiller":11951,"ĠBac":11952,"ĠPiauÃŃ":11953,"Ġcalcul":11954,"band":11955,"enes":11956,"ĠMajor":11957,"Morte":11958,"ĠĠĠĠĠĠĠĠĠĠĠĠ":11959,"Venc":11960,"ĠPho":11961,"ĠTok":11962,"EST":11963,"Ġvirtude":11964,"Ã³rdia":11965,"mirante":11966,"James":11967,"xos":11968,"Ġescond":11969,"ĠSound":11970,"Rich":11971,"Ġpolit":11972,"Ġtelevis":11973,"ĠCord":11974,"Ġbarra":11975,"Ġapren":11976,"uer":11977,"emplos":11978,"ĠimplementaÃ§Ã£o":11979,"ĠZÃ©":11980,"Jean":11981,"ĠGames":11982,"ĠTail":11983,"Ġimper":11984,"dutores":11985,"ĠHamilton":11986,"ĠRey":11987,"Ġfalou":11988,"ĠocorrÃªncia":11989,"eÃ§ou":11990,"Ġfrio":11991,"Museu":11992,"ĠdÃŃvida":11993,"Ess":11994,"Fin":11995,"Ġnuv":11996,"ĠAy":11997,"ĠMacau":11998,"ĠHamb":11999,"ĠcontemporÃ¢nea":12000,"Ġbacia":12001,"agner":12002,"ĠWin":12003,"Ġjuventude":12004,"elizmente":12005,"ĠconsequÃªncias":12006,"Ġ),":12007,"Ġvent":12008,"Ġcoloca":12009,"chefe":12010,"igi":12011,"ĠIsl":12012,"ĠcatÃ³lico":12013,"Ġbolsa":12014,"ĠimpossÃŃvel":12015,"ĠHop":12016,"ĠLux":12017,"Ġcrescer":12018,"ĠPenÃŃnsula":12019,"Ġreman":12020,"Ġjazz":12021,"Ġprecip":12022,"Ġbloque":12023,"Ġrestaurante":12024,"ĠScience":12025,"ĠApenas":12026,"ogrÃ¡ficos":12027,"Ġimpuls":12028,"ĠRui":12029,"Ġinde":12030,"Ġmonito":12031,"Pass":12032,"ĠLav":12033,"embl":12034,"Ġfundamentais":12035,"Ġvieram":12036,"Ġgravados":12037,"Mel":12038,"Ġpisc":12039,"ĠMarcel":12040,"ĠCorporation":12041,"Ġaparente":12042,"Ġjuntar":12043,"ÃŃgio":12044,"ĠespecÃŃficas":12045,"Ġcod":12046,"ĠBros":12047,"ĠNar":12048,"ĠIrÃ£":12049,"Ġpassos":12050,"DT":12051,"Secret":12052,"ĠElet":12053,"Ġconsent":12054,"ĠFall":12055,"ĠprofissÃ£o":12056,"anato":12057,"ĠLind":12058,"ĠWord":12059,"à¸":12060,"deram":12061,"Ġexternos":12062,"Ġrodovia":12063,"Ġotim":12064,"gy":12065,"Ġsert":12066,"Ġtornam":12067,"Ġcair":12068,"ĠAzevedo":12069,"Ġformadas":12070,"ĠprecisÃ£o":12071,"roup":12072,"Ġdesv":12073,"mÃ£o":12074,"ESCO":12075,"obili":12076,"ĠEscol":12077,"naense":12078,"Ġacabar":12079,"ĠAngra":12080,"Americano":12081,"Ġpartiu":12082,"ĠCavaleiro":12083,"ĠagrÃŃcola":12084,"erada":12085,"Ġrecu":12086,"anche":12087,"ĠAgost":12088,"ĠMilÃ£o":12089,"Ġmatriz":12090,"%),":12091,"jan":12092,"ĠsÃ©timo":12093,"ĠJovem":12094,"sel":12095,"ĠSociais":12096,"Ġpratica":12097,"ĠaÃ§Ãºcar":12098,"ÅĦ":12099,"anim":12100,"Ġrurais":12101,"ĠpÃ¡t":12102,"ĠproteÃŃnas":12103,"ConstelaÃ§Ã£o":12104,"Ġcordas":12105,"Ġadolescente":12106,"ï¿":12107,"Ġcontrov":12108,"Ġcompanhias":12109,"Ġileg":12110,"Ġsurgimento":12111,"EIRA":12112,"Top":12113,"Ġcoinc":12114,"Ġcinemas":12115,"hist":12116,"Ġpossuir":12117,"Ġment":12118,"Ġchuvas":12119,"ĠincluÃŃa":12120,"ancel":12121,"Enredo":12122,"ĠLiberdade":12123,"Ġpremiados":12124,"ĠSher":12125,"Ġalinh":12126,"Ġentraram":12127,"ĠViol":12128,"ĠBy":12129,"ĠMusical":12130,"Asteroides":12131,"Hz":12132,"lav":12133,"ĠViv":12134,"ĠPARA":12135,"Ana":12136,"Ã³sitos":12137,"Ġancest":12138,"Ġtribo":12139,"Ġartilharia":12140,"Liga":12141,"fei":12142,"rimentos":12143,"gios":12144,"ĠBelas":12145,"Ġacreditava":12146,"Ġduplo":12147,"ĠincluÃŃdo":12148,"Ġconcerto":12149,"Ġ1902":12150,"ĠDirec":12151,"atÃ©":12152,"jeÃ§Ã£o":12153,"cc":12154,"mart":12155,"Escola":12156,"}}":12157,"ĠAllen":12158,"Ġbasquete":12159,"icologia":12160,"ĠPires":12161,"viÃ¡ria":12162,"Ġ1889":12163,"ĠreÃºne":12164,"ecta":12165,"Ġades":12166,"Ġquaisquer":12167,"ĠRose":12168,"Ġcil":12169,"unc":12170,"Ġconjuntos":12171,"Ġesquerdo":12172,"ĠVil":12173,"Ġtribut":12174,"Ġfundadas":12175,"ĠcomposiÃ§Ãµes":12176,"ĠFolha":12177,"ĠtripulaÃ§Ã£o":12178,"ĠRenato":12179,"Ġpasse":12180,"Ġconhecimentos":12181,"Ġdirigir":12182,"ĠFrente":12183,"Ġfruto":12184,"Ġpref":12185,"terapia":12186,"ĠFra":12187,"ĠVivo":12188,"Ð»":12189,"Ġpesca":12190,"dont":12191,"Ġcompletar":12192,"Ġperceber":12193,"Ġanel":12194,"agre":12195,"Ã©rpre":12196,"ĠvariaÃ§Ãµes":12197,"Ġfechado":12198,"UP":12199,"Ġrespostas":12200,"ĠDemocrÃ¡tica":12201,"hm":12202,"ĠeficiÃªncia":12203,"Antecedentes":12204,"Lit":12205,"Sistema":12206,"ĠZe":12207,"ĠcÃ£es":12208,"ĠtrÃ¡fego":12209,"ĠDall":12210,"ĠobservaÃ§Ã£o":12211,"Crist":12212,"ardia":12213,"gs":12214,"ĠTrata":12215,"Ġregulament":12216,"Ġhosped":12217,"Bat":12218,"ĠmÃ¡r":12219,"uegu":12220,"ĠKal":12221,"Hel":12222,"ingham":12223,"ĠAlago":12224,"ĠcolÃ´nia":12225,"Alem":12226,"ĠauxÃŃlio":12227,"ĠStephen":12228,"iang":12229,"ĠPolÃ³nia":12230,"ĠgalÃ¡xias":12231,"ĠcÃ¢mera":12232,"{{":12233,"ĠSite":12234,"ĠClara":12235,"Ã³nimo":12236,"Fa":12237,"Ġprojecto":12238,"ĠUnder":12239,"ĠdiÃ¡rio":12240,"itaram":12241,"Ġgord":12242,"Ġamarelo":12243,"inton":12244,"cedeu":12245,"ĠreuniÃµes":12246,"Ġorquestra":12247,"Ġeficaz":12248,"ĠGin":12249,"Ġaclam":12250,"Ġmarcados":12251,"Ġartificial":12252,"wick":12253,"ĠVegas":12254,"ĠinclusÃ£o":12255,"ĠligaÃ§Ãµes":12256,"ĠIvan":12257,"Â».":12258,"ĠMatt":12259,"ĠÃ¡lcool":12260,"Ġasas":12261,"Ġmercados":12262,"Ġconstitui":12263,"Ġjuris":12264,"Ġoxig":12265,"Ã©b":12266,"ĠÃ¡t":12267,"itarra":12268,"ĠinscriÃ§Ãµes":12269,"ĠDeut":12270,"Ġfalando":12271,"ĠcristÃ£o":12272,"Ġquiser":12273,"Mu":12274,"ische":12275,"porta":12276,"ĠVeneza":12277,"Ã¡sticas":12278,"ĠtrajetÃ³ria":12279,"Ġmorf":12280,"ĠvariÃ¡vel":12281,"Ġmultip":12282,"Ġentrevistas":12283,"lhes":12284,"Ġsupostamente":12285,"annel":12286,"ĠRan":12287,"Ã©tricas":12288,"ĠsalÃ¡rio":12289,"Ġdisciplina":12290,"idiocese":12291,"ĠQuatro":12292,"ĠAmar":12293,"Ġcompostas":12294,"amÃ¡":12295,"nco":12296,"ĠInfantaria":12297,"ĠEX":12298,"ĠWik":12299,"Ã³tipo":12300,"ĠOS":12301,"Ġconfirmado":12302,"ĠCec":12303,"Ġlos":12304,"ĠNeu":12305,"ennis":12306,"Ġpares":12307,"Ġhabil":12308,"Ġlaterais":12309,"Ġquartas":12310,"ĠirmÃ£s":12311,"Ġdiretora":12312,"Ġparlamentar":12313,"isos":12314,"ĠPok":12315,"Ġlimitado":12316,"ÃŃder":12317,"etz":12318,"ĠVatic":12319,"ĠWith":12320,"Ġextens":12321,"Ġintegrou":12322,"Ġtriun":12323,"Ġinterpretado":12324,"Ġoceano":12325,"Ġvidro":12326,"ĠUA":12327,"ĠOrqu":12328,"ĠBraganÃ§a":12329,"Euro":12330,"fre":12331,"Ġprimo":12332,"inux":12333,"ĠsÃŃmbolos":12334,"jado":12335,"ĠDomingos":12336,"ĠManoel":12337,"als":12338,"ĠBull":12339,"ĠFiguei":12340,"LanÃ§amento":12341,"tr":12342,"ĠSendo":12343,"Ġsentimento":12344,"Ġdiocese":12345,"ĠMÃ¡":12346,"Ġrepresentado":12347,"Ġxadrez":12348,"ÃŃrio":12349,"ĠBast":12350,"iciÃ¡rio":12351,"BlogThis":12352,"GO":12353,"ĠexposiÃ§Ãµes":12354,"putado":12355,"Ġsupervis":12356,"Av":12357,"ĠAragÃ£o":12358,"ezas":12359,"rell":12360,"Ãºcho":12361,"ĠPlat":12362,"ituras":12363,"Ã§ois":12364,"Ġinstalado":12365,"Principais":12366,"Ġenvolvido":12367,"Ġvinha":12368,"ĠClark":12369,"Ġprofunda":12370,"ĠfilosÃ³f":12371,"ĠMarie":12372,"Ġsementes":12373,"ĠElas":12374,"ĠMadonna":12375,"ĠMik":12376,"Ġ67":12377,"ĠAsh":12378,"stitucional":12379,"ï¿½":12380,"ĠCristina":12381,"Ġestudiosos":12382,"ĠBooks":12383,"Lo":12384,"Ġagrup":12385,"Ġanalisar":12386,"icha":12387,"Ġperturb":12388,"ĠWalt":12389,"mailBlogThis":12390,"Engenh":12391,"Lisboa":12392,"Ġbro":12393,"ĠMello":12394,"ĠsuÃŃ":12395,"Ġretirar":12396,"Ġdeuses":12397,"Brasileiros":12398,"ĠbÃŃbl":12399,"ĠdeficiÃªncia":12400,"Ġpropaganda":12401,"ĠNascimento":12402,"Ġreta":12403,"Ġroteirista":12404,"ĠconferÃªncia":12405,"Ãºva":12406,"Ġenvolvimento":12407,"Ġvizinhos":12408,"offs":12409,"Ġcombat":12410,"ierar":12411,"Ġcass":12412,"ultor":12413,"ĠAbra":12414,"ĠPinheiro":12415,"Ġprovis":12416,"Ġevolu":12417,"ÃŃcula":12418,"Ġcogn":12419,"ophyll":12420,"ĠaÃ©reo":12421,"UD":12422,"ĠVlad":12423,"iclop":12424,"ĠProfiss":12425,"Ġprossegu":12426,"--------":12427,"Ġdescrever":12428,"Ġapropri":12429,"Ġparecem":12430,"iness":12431,"ĠIv":12432,"ilho":12433,"Ġdezenas":12434,"ĠbÃ¡sico":12435,"Ġcompanheiro":12436,"Ġgira":12437,"Ġculmin":12438,"Ger":12439,"ĠlaboratÃ³rio":12440,"igual":12441,"ĠVideo":12442,"Ġcondec":12443,"Ġinterface":12444,"ĠiluminaÃ§Ã£o":12445,"Ġ1000":12446,"ĠChin":12447,"ropicais":12448,"Guerra":12449,"ĠconfiguraÃ§Ã£o":12450,"ĠOlimpÃŃadas":12451,"Tec":12452,"ĠLady":12453,"ĠGustavo":12454,"ely":12455,"Ġori":12456,"ĠmilÃŃmetros":12457,"Segu":12458,"ĠcomputaÃ§Ã£o":12459,"ĠmÃ³d":12460,"Ġtranqu":12461,"CampeÃµes":12462,"azes":12463,"Ġmeninas":12464,"Ġaparelho":12465,"vendo":12466,"ĠpÃªn":12467,"ĠMoore":12468,"Ġterminal":12469,"ĠIllinois":12470,"Ġ72":12471,"ĠFree":12472,"ĠSports":12473,"?\"":12474,"ĠOce":12475,"inador":12476,"Ġcriadas":12477,"Ġdefinitivamente":12478,"ness":12479,"ĠgeogrÃ¡fica":12480,"Ġbact":12481,"Ġpartid":12482,"iler":12483,"Ġcontinuaram":12484,"Ġsimultaneamente":12485,"rases":12486,"ĠatraÃ§Ã£o":12487,"Ġparentes":12488,"ĠHarvard":12489,"Ġlag":12490,"ĠCampeÃ£o":12491,"ĠconstituÃŃda":12492,"Ġvoos":12493,"ĠJogo":12494,"Ġcombater":12495,"Ġjornalistas":12496,"ĠWell":12497,"Ġcontraste":12498,"Ãķ":12499,"arro":12500,"ĠRi":12501,"Ġcriador":12502,"ĠAssis":12503,"Ġhost":12504,"ĠdescendÃªncia":12505,"ĠelaboraÃ§Ã£o":12506,"Ã¢ngulo":12507,"ĠCS":12508,"andy":12509,"pton":12510,"Ġlegislatura":12511,"ĠESP":12512,"ĠDog":12513,"Ġ1870":12514,"ĠEurovisÃ£o":12515,"Ġinex":12516,"lyn":12517,"Ġarmazenamento":12518,"Ãļlt":12519,"Ġbrilhante":12520,"Ġreperc":12521,"ĠJay":12522,"Ġdestinado":12523,"ĠHumanos":12524,"ophoridae":12525,"ĠcooperaÃ§Ã£o":12526,"ĠAqui":12527,"ĠTrib":12528,"ĠParte":12529,"ĠvariÃ¡veis":12530,"Ġapreci":12531,"Ġmi":12532,"aborou":12533,"ĠLeite":12534,"ĠGaz":12535,"Ġintervalo":12536,"You":12537,"Ġtol":12538,"Ġhoriz":12539,"Ġconspira":12540,"Ġbrancas":12541,"ĠindÃŃgena":12542,"rez":12543,"rett":12544,"Ġ1895":12545,"flix":12546,"Ġconversa":12547,"istro":12548,"ĠNÃ³s":12549,"ĠProject":12550,"ĠcrÃ©ditos":12551,"ĠCurso":12552,"ĠReich":12553,"ief":12554,"Ġtalentos":12555,"ĠjurÃŃdico":12556,"Ġindicada":12557,"Ġjamais":12558,"adeiro":12559,"Ġtele":12560,"Ġmonumento":12561,"Ġestrangeiro":12562,"Ġorbital":12563,"lis":12564,"ĠCidad":12565,"Ġselecionado":12566,"Ġgene":12567,"BL":12568,"Ġrelacionada":12569,"ĠmÃŃnima":12570,"omi":12571,"Ġescav":12572,"Fer":12573,"ĠSC":12574,"Ġiniciada":12575,"Ġgarota":12576,"Ġesperar":12577,"ecomunicaÃ§Ãµes":12578,"Ġdatas":12579,"Sant":12580,"araÃ§Ã£o":12581,"inossa":12582,"parou":12583,"Ġcurtas":12584,"Ġencaminh":12585,"Mes":12586,"Ġmach":12587,"Ġarbit":12588,"Ġida":12589,"Ġbac":12590,"Ġseriado":12591,"rass":12592,"ĠperseguiÃ§Ã£o":12593,"Ġtenente":12594,"aff":12595,"Ġ[...]":12596,"Ġescapar":12597,"Ġobrigado":12598,"Ġgregos":12599,"ĠPA":12600,"Inc":12601,"Ġcarioca":12602,"Ġimporta":12603,"Wal":12604,"ĠfaÃ§a":12605,"ĠPouco":12606,"Ġgan":12607,"ĠeconÃ´micas":12608,"Ġrussos":12609,"ÃŁ":12610,"ivado":12611,"Embaixada":12612,"Ġescritas":12613,"ments":12614,"Organ":12615,"worth":12616,"adro":12617,"Ġsurgiram":12618,"ĠJaime":12619,"Ġexplicou":12620,"ĠBerlin":12621,"ĠelÃ©trico":12622,"Ġax":12623,"Ġpoderoso":12624,"ĠCabral":12625,"Ġlarga":12626,"Ġcontratos":12627,"inheiros":12628,"Ġsubm":12629,"Ã´nus":12630,"Ġeficiente":12631,"Primeiro":12632,"ML":12633,"Ġmis":12634,"Ġ110":12635,"ipa":12636,"ĠGh":12637,"Ġcitado":12638,"Ġmerg":12639,"ĠCient":12640,"Ġ69":12641,"ntem":12642,"ĠforÃ§ado":12643,"ĠcolÃ©gio":12644,"ĠQuart":12645,"Ġ1891":12646,"Ġfracas":12647,"ĠInformaÃ§Ã£o":12648,"pto":12649,"Ġumas":12650,"left":12651,"ĠCoronel":12652,"Ġinteiramente":12653,"Ġ1901":12654,"ÃŃlico":12655,"UTC":12656,"cap":12657,"Ġpernas":12658,"Ġfome":12659,"ĠAndrew":12660,"ĠSyd":12661,"ĠMoraes":12662,"nas":12663,"Ġliderado":12664,"ividual":12665,"Ġlenda":12666,"Ãºmulo":12667,"Ġclaramente":12668,"Ġgabinete":12669,"ijo":12670,"Ġcach":12671,"riam":12672,"evo":12673,"Ġdefine":12674,"ĠvisÃŃvel":12675,"ĠBolsonaro":12676,"Sat":12677,"ilhos":12678,"Ġnaval":12679,"Ġocupa":12680,"ĠONU":12681,"ÅŁ":12682,"Ġcamadas":12683,"Ġesquema":12684,"ĠIndependÃªncia":12685,"Ġescreve":12686,"Ġherdeiro":12687,"Î±":12688,"onc":12689,"Ġposso":12690,"ĪĴ":12691,"Ġconform":12692,"ags":12693,"ĠArist":12694,"ĠCorreia":12695,"ĠMetal":12696,"hard":12697,"Ġcurios":12698,"Ġsurpresa":12699,"ĠbenefÃŃcio":12700,"ĠAlfredo":12701,"ĠRusso":12702,"Ġlembrar":12703,"Ġfiscal":12704,"riva":12705,"Francisco":12706,"ĠMathemat":12707,"icio":12708,"ĠBulgÃ¡ria":12709,"lom":12710,"mal":12711,"Ġconsumidor":12712,"ÃķES":12713,"ĠcemitÃ©rio":12714,"ĠEslovÃ¡quia":12715,"Ġsemifinal":12716,"ĠCong":12717,"ĠCarlo":12718,"ĠdecrÃ©scimo":12719,"Nota":12720,"ĠGrÃªmio":12721,"adjuv":12722,"Ġrein":12723,"ally":12724,"Ġobservou":12725,"Cart":12726,"Ġaquelas":12727,"Ġencerrou":12728,"GÃªnero":12729,"ĠpaixÃ£o":12730,"Contato":12731,"cir":12732,"Ġcomprou":12733,"ĠavÃ´":12734,"Ġorganismos":12735,"Ġrecolh":12736,"ĠtemÃ¡tica":12737,"Ġmosteiro":12738,"Ġalegria":12739,"Ġextrema":12740,"ĠMant":12741,"Ġelect":12742,"Atrizes":12743,"Inter":12744,"ĠsessÃµes":12745,"Ġtribos":12746,"1960":12747,"Ġocupar":12748,"ĠRoad":12749,"Ġdesfile":12750,"Ġnad":12751,"ĠKen":12752,"Ġdescart":12753,"ĠQuer":12754,"Ġgarantia":12755,"ĠterÃ£o":12756,"ĠBry":12757,"voluÃ§Ã£o":12758,"ĠBank":12759,"mil":12760,"web":12761,"ĠRy":12762,"ĠLob":12763,"Ġpobreza":12764,"rob":12765,"iper":12766,"ĠPatri":12767,"Ġeman":12768,"Ġargumento":12769,"Ġparlamento":12770,"ĠespetÃ¡culo":12771,"ÃŃsa":12772,"ĠLÃ©":12773,"pool":12774,"Ġaprovada":12775,"Ġutilizam":12776,"acre":12777,"ĠsubstituÃŃda":12778,"TU":12779,"roid":12780,"ĠdiÃ¡logo":12781,"Ġfui":12782,"Ġconsigo":12783,"1963":12784,"ĠGirls":12785,"ĠLista":12786,"ople":12787,"Ġ77":12788,"Ġcontribuiu":12789,"FFD":12790,"Ġoff":12791,"Ġisrael":12792,"Ġsop":12793,"Ġresidentes":12794,"iciou":12795,"ĠInstagram":12796,"Ã³ide":12797,"ĠBorges":12798,"Ġsubesp":12799,"iguidade":12800,"oram":12801,"Femin":12802,"ĠbebÃª":12803,"Ġvertical":12804,"fase":12805,"Ġvog":12806,"Ġrelato":12807,"ĠPatrimÃ´nio":12808,"Ġjeito":12809,"aÃ§as":12810,"icando":12811,"Ġalgorit":12812,"Ġfalha":12813,"Ġcereb":12814,"Ġcortes":12815,"Ġdeixaram":12816,"Ä±":12817,"Ã³ticos":12818,"ĠViana":12819,"Ġtribun":12820,"Ġdistintas":12821,"ĠMineiro":12822,"ĠRegimento":12823,"ĠLeonardo":12824,"ĠsecundÃ¡rio":12825,"ĠTrad":12826,"ĠNaval":12827,"ska":12828,"Ġadequado":12829,"panha":12830,"ecÃ§Ãµes":12831,"Ġcompanheiros":12832,"Ġradical":12833,"Ġgerou":12834,"ĠCaxias":12835,"otte":12836,"Ġparecia":12837,"ĠCongo":12838,"ĠqualificaÃ§Ã£o":12839,"querque":12840,"ĠconstruÃ§Ãµes":12841,"Ġtecidos":12842,"remo":12843,"Ġconcedido":12844,"Ġeclesi":12845,"ĠManaus":12846,"ĠDiret":12847,"Ġdeseja":12848,"ĠMob":12849,"Ġcoronel":12850,"Ġ62":12851,"Ġraios":12852,"Ġbras":12853,"ĠClasse":12854,"ĠNegra":12855,"ĠRug":12856,"Ġmaneiras":12857,"ĠAdvent":12858,"Ġessenciais":12859,"Ġ1880":12860,"ĠÂłĠÂł":12861,"Todas":12862,"ĠrÃ¡dios":12863,"Ġentendimento":12864,"Ġreceitas":12865,"ĠproprietÃ¡rios":12866,"400":12867,"not":12868,"Ġnor":12869,"Ġfornec":12870,"ĠliterÃ¡ria":12871,"Tal":12872,"usias":12873,"Neste":12874,"inente":12875,"ĠDos":12876,"Ġsignificativo":12877,"Ġcem":12878,"ÃŃlios":12879,"Ġconquistando":12880,"ÃĹ":12881,"ĠTol":12882,"Ġ96":12883,"zos":12884,"ilhelm":12885,"ĠCalifornia":12886,"EE":12887,"Ġfutura":12888,"utu":12889,"ĠGuad":12890,"ĠEsqu":12891,"ĠExper":12892,"!\"":12893,"ĠWeek":12894,"ĠconsiderÃ¡vel":12895,"ĠPensilvÃ¢nia":12896,"Lar":12897,"Pil":12898,"dutos":12899,"Ġrebeldes":12900,"MÃºsicos":12901,"Ġconcertos":12902,"etim":12903,"Ġeleitores":12904,"equ":12905,"ĠAth":12906,"Ġprisioneiros":12907,"Ġmeteor":12908,"ĠVe":12909,"laus":12910,"ariedade":12911,"ĠPedra":12912,"Ġopon":12913,"ĠJane":12914,"Ġfolha":12915,"ĠSap":12916,"Ġminim":12917,"echal":12918,"Ġtransformou":12919,"ĠagrÃŃcolas":12920,"Grav":12921,"ĠconteÃºdos":12922,"ĠcidadÃ£o":12923,"Rua":12924,"ranÃ§a":12925,"ĠAlianÃ§a":12926,"ologista":12927,"Ġsexuais":12928,"ĠConstitucional":12929,"toria":12930,"alho":12931,"Ġhect":12932,"Ġturb":12933,"ĠAmbos":12934,"ĠprejuÃŃ":12935,"ĠTÃ©cnica":12936,"ĠForte":12937,"ophora":12938,"1962":12939,"Ġcientista":12940,"ĠDuas":12941,"Ġdob":12942,"Ġobed":12943,"Ġtomb":12944,"omÃ©":12945,"ĠAntÃ¡r":12946,"ĠInicialmente":12947,"ertÃ³rio":12948,"Ġiniciado":12949,"Algumas":12950,"fri":12951,"otus":12952,"Ġprocessamento":12953,"ĠdinÃ¢mica":12954,"Ġpositivas":12955,"yst":12956,"Ġpne":12957,"Ġ99":12958,"ĠRaw":12959,"ĠHoward":12960,"grejas":12961,"Ġfi":12962,"Ġparceiros":12963,"nie":12964,"ĠCapela":12965,"Ġciclista":12966,"Ġmun":12967,"ĠAta":12968,"ĠStad":12969,"ĠestratÃ©gias":12970,"Bol":12971,"Ġlent":12972,"Ġconcret":12973,"distrito":12974,"Pont":12975,"Ġsoma":12976,"Ġconto":12977,"ĠKon":12978,"Ġmantido":12979,"Ġliderada":12980,"Ġsozinho":12981,"arde":12982,"anic":12983,"ĠDick":12984,"anes":12985,"Ġrepl":12986,"anti":12987,"ĠTurma":12988,"cle":12989,"ĠautÃ´n":12990,"Ġvivos":12991,"intes":12992,"ĠMarsh":12993,"Ġfreguesias":12994,"TER":12995,"rÃ´":12996,"Ġmonte":12997,"ĠEST":12998,"ĠBag":12999,"ĠDance":13000,"abela":13001,"Ġseguidores":13002,"Ġvencendo":13003,"Ġficava":13004,"Ġmagist":13005,"Ġdestruir":13006,"PublicaÃ§Ãµes":13007,"ĠAtletismo":13008,"pel":13009,"ĠFound":13010,"Ġtorres":13011,"ĠÃ³b":13012,"ĠFora":13013,"ĠChefe":13014,"ĠOver":13015,"ĠMarÃŃa":13016,"Ġconstantemente":13017,"Ã©cie":13018,"ĠFormaÃ§Ã£o":13019,"ĠdramÃ¡tica":13020,"Ġrequisitos":13021,"uis":13022,"Ġsons":13023,"ĠMÃ£e":13024,"Ġintuito":13025,"iani":13026,"Ġolh":13027,"ĠRyan":13028,"CL":13029,"Ġmetab":13030,"Ġinterpreta":13031,"Ġbil":13032,"Ġcristianismo":13033,"ĠVera":13034,"Ġ76":13035,"ucado":13036,"Ġadministrativo":13037,"ĠmuÃ§ulmanos":13038,"Ġremanesc":13039,"itoria":13040,"heÃ§a":13041,"ĠÃģgua":13042,"allen":13043,"ĠrepÃ³rter":13044,"Ġincidente":13045,"Ġregistrada":13046,"Ġ1898":13047,"Ġcertificado":13048,"Ġfis":13049,"ĠFlorianÃ³polis":13050,"ĠsuspensÃ£o":13051,"Ġ%":13052,"ĠUK":13053,"ĠPIB":13054,"cat":13055,"ĠAB":13056,"Ġcontrad":13057,"Ġcord":13058,"Ġ1896":13059,"Ġcertamente":13060,"Ġmister":13061,"imate":13062,"ulÃ¡rio":13063,"ĠolÃŃmpica":13064,"Ġexecutar":13065,"ĠconversÃ£o":13066,"Ġviajar":13067,"Ġaplicativos":13068,"Ġesportivo":13069,"Instituto":13070,"Ġperfeito":13071,"Ġescoc":13072,"Ġregistrado":13073,"Ġtranspar":13074,"AssociaÃ§Ã£o":13075,"ĠJason":13076,"Ġdesl":13077,"Ġvib":13078,"ĠNem":13079,"Ġaper":13080,"ĠKy":13081,"ĠBruce":13082,"ĠNich":13083,"GÃ©n":13084,"Ġov":13085,"Ġexistia":13086,"Ġbaixos":13087,"antil":13088,"Ġapresentador":13089,"Ġquerem":13090,"Ġagrav":13091,"ablo":13092,"Ġtorneios":13093,"ĠInterior":13094,"nesto":13095,"ĠAutor":13096,"Ġviajou":13097,"graf":13098,"Ġmistas":13099,"ĠprevisÃ£o":13100,"Ġpatr":13101,"ĠGaleria":13102,"ITO":13103,"ĠmangÃ¡":13104,"Ġavaliar":13105,"ĠTechn":13106,"oftware":13107,"Ġdramat":13108,"Ġsemifinais":13109,"Dados":13110,"Ġoce":13111,"Ġ1897":13112,"MatemÃ¡ticos":13113,"Ġexerceu":13114,"ombo":13115,"ĠevidÃªncia":13116,"Ġanunciada":13117,"Fase":13118,"Ġpira":13119,"Ġpiso":13120,"ĠestarÃ¡":13121,"ĠimÃ³vel":13122,"Ġrecebem":13123,"ĠLud":13124,"Ġjornalismo":13125,"ĠMagazine":13126,"aviera":13127,"ĠestÃ¡tua":13128,"aka":13129,"Ġsuspense":13130,"sub":13131,"ĠCarnaval":13132,"ĠfreqÃ¼":13133,"ĠBenjam":13134,"chave":13135,"ĠcÃ³pia":13136,"Ġmong":13137,"Ġseman":13138,"Ġreconhecer":13139,"ĠAgricultura":13140,"ÃŃodo":13141,"ĠTob":13142,"Ġexam":13143,"Ġintegrado":13144,"Ġyou":13145,"Ġrat":13146,"ulh":13147,"Ġalien":13148,"Ġconsumidores":13149,"Ġperguntas":13150,"Ġlimpeza":13151,"Ġnativos":13152,"Ġtrabalhava":13153,"ated":13154,"ĠKevin":13155,"Ġsimilares":13156,"Ġaplicada":13157,"Ġfuga":13158,"Ġcaminhos":13159,"ĠAch":13160,"Ġgel":13161,"ĠLP":13162,"anny":13163,"Ġgama":13164,"integ":13165,"ĠColeophoridae":13166,"Ġapresentados":13167,"ĠhistÃ³ricas":13168,"ussÃµes":13169,"ĠCasc":13170,"Outro":13171,"Ãºrg":13172,"cionada":13173,"1959":13174,"ĠBanda":13175,"ĠDet":13176,"ĠgeraÃ§Ãµes":13177,"ĠWhit":13178,"ĠemissÃ£o":13179,"izam":13180,"ĠBatman":13181,"Ġareia":13182,"ĠCÃ¡":13183,"ĠProduc":13184,"ĠacusaÃ§Ãµes":13185,"ĠanÃ¡lises":13186,"Ã¥":13187,"Ġcontinuam":13188,"ĠVermelha":13189,"ocolo":13190,"zen":13191,"Ġbei":13192,"Ġpren":13193,"aranja":13194,"ĠWars":13195,"Ġexige":13196,"Ġdiminuir":13197,"Ġlinear":13198,"Fe":13199,"iologia":13200,"Ġfres":13201,"loyd":13202,"ĠincluÃŃda":13203,"Ġrevest":13204,"ĠComercial":13205,"Ġagric":13206,"iction":13207,"Ġprecon":13208,"ĠfÃŃsicos":13209,"liv":13210,"Ġdispara":13211,"Ġindicam":13212,"Ġexemplares":13213,"Ġretorna":13214,"Ġordenado":13215,"ĠUTC":13216,"Ġindiano":13217,"Ġleitores":13218,"Ġconquistas":13219,"cionalmente":13220,"dicato":13221,"airro":13222,"Ġpatente":13223,"Bro":13224,"ĠTan":13225,"Ġarroz":13226,"ector":13227,"ĠRacing":13228,"bus":13229,"Ġfrac":13230,"alth":13231,"Ġenvia":13232,"Ġblocos":13233,"iedade":13234,"Ã³cio":13235,"Ġcavalos":13236,"ĠdiminuiÃ§Ã£o":13237,"Daniel":13238,"Poss":13239,"Ġnecessariamente":13240,"Ġabertas":13241,"Imp":13242,"Ġsociedades":13243,"jus":13244,"ĠCry":13245,"cionados":13246,"ih":13247,"ĠMissouri":13248,"ĠClÃ¡udio":13249,"Â´":13250,"âĢł":13251,"ĠPequim":13252,"Ġpaisagem":13253,"Ġcomplic":13254,"Ġortodo":13255,"Ġexterno":13256,"Ġindustriais":13257,"ĠdeclÃŃnio":13258,"entÃ¡rio":13259,"Ġmeta":13260,"Ġmemb":13261,"Ġrochas":13262,"Ġfuncionar":13263,"aven":13264,"Ġ61":13265,"Ġdominante":13266,"Fontes":13267,"Ġcolunas":13268,"ĠconcepÃ§Ã£o":13269,"Ġdinamar":13270,"esearch":13271,"fra":13272,"ference":13273,"Ġescap":13274,"Ġprogresso":13275,"ĠcÃŃrculo":13276,"ĠArÃ¡":13277,"Ġexercer":13278,"bÃ¡":13279,"ĠTemporada":13280,"ĠPert":13281,"head":13282,"Ġrecord":13283,"Ġpoleg":13284,"ĠSpace":13285,"Ġcomponente":13286,"Ġrestaurantes":13287,"OD":13288,"Ġpura":13289,"Ġdiverg":13290,"ĠMoon":13291,"Ġbarco":13292,"Ġdigitalmente":13293,"ĠcircunstÃ¢ncias":13294,"ophyllum":13295,"ĠLast":13296,"Ġescrevendo":13297,"ĠequaÃ§Ã£o":13298,"Ġchegam":13299,"Ġcircul":13300,"Ġliteral":13301,"=\"#":13302,"dam":13303,"Ġprimavera":13304,"Ġestatuto":13305,"Ġvistos":13306,"ÃŃtios":13307,"class":13308,"ĠReferÃªncias":13309,"iscopal":13310,"ĠLaura":13311,"ĠcontrataÃ§Ã£o":13312,"ĠGrandes":13313,"ĠEstrela":13314,"style":13315,"duzido":13316,"ĠprevenÃ§Ã£o":13317,"ÃĬN":13318,"Ġextinto":13319,"Ġconsenso":13320,"iterrÃ¢neo":13321,"Ã©ricos":13322,"ĠVoleibol":13323,"Ġfinanceiras":13324,"Ġintensa":13325,"TaÃ§a":13326,"imi":13327,"ĠMarrocos":13328,"ĠlanÃ§aram":13329,"ĠdistinÃ§Ã£o":13330,"letas":13331,"Tor":13332,"biter":13333,"reen":13334,"ĠBia":13335,"incial":13336,"Ġderiva":13337,"ives":13338,"coln":13339,"ĠGiovanni":13340,"ĠKle":13341,"ĠPresidÃªncia":13342,"Ġjanelas":13343,"Ġtabelas":13344,"ĠHora":13345,"Design":13346,"Ġtalento":13347,"Ġentretenimento":13348,"ĠBritÃ¢nica":13349,"ref":13350,"Devido":13351,"ĠVaticano":13352,"ĠNetflix":13353,"Mad":13354,"Ġcorrer":13355,"Ġvisitas":13356,"ĠPrincesa":13357,"Del":13358,"ÃŃce":13359,"ĠPic":13360,"Ġgo":13361,"Ġestende":13362,"Ġq":13363,"Ġinsuf":13364,"Ġremix":13365,"ĠComb":13366,"ĠVascon":13367,"andante":13368,"ĠindÃºstrias":13369,"Ġjes":13370,"Ġextintos":13371,"Ġcompletou":13372,"Parque":13373,"Ġapelido":13374,"Ġdistante":13375,"ixos":13376,"Ġpedag":13377,"ĠFase":13378,"cu":13379,"ilio":13380,"Ġsueco":13381,"ogados":13382,"irme":13383,"ĠVig":13384,"ession":13385,"Ġlembra":13386,"Ir":13387,"eteria":13388,"ĠUt":13389,"ĠdistribuÃŃdos":13390,"Ġobtido":13391,"Ġsubtropicais":13392,"Ġacabaram":13393,"Ġencontraram":13394,"Ġfrutos":13395,"yt":13396,"ĠDona":13397,"Ġcauda":13398,"Hol":13399,"Just":13400,"ĠBaviera":13401,"Ġselv":13402,"World":13403,"mund":13404,"rice":13405,"ĠDas":13406,"ĠHD":13407,"ĠpropÃ´s":13408,"Ġacreditam":13409,"ascular":13410,"Ġessencialmente":13411,"1961":13412,"ĠreputaÃ§Ã£o":13413,"agar":13414,"ĠBritÃ¢nico":13415,"ĠAS":13416,"ĠAugust":13417,"Ġregularmente":13418,"Ġnavegador":13419,"Ġ180":13420,"Ġfalecido":13421,"Ġdecorrer":13422,"Ġproximidades":13423,"uquerque":13424,"imens":13425,"Ġservidor":13426,"ĠrestauraÃ§Ã£o":13427,"ĠArmadas":13428,"ĠQueen":13429,"Ġencerramento":13430,"GA":13431,"ĠPela":13432,"ĠRelig":13433,"1958":13434,"Ġdecidiram":13435,"Ġcircular":13436,"peratriz":13437,"Ġacompanha":13438,"Ġrelevantes":13439,"Ã¡ctica":13440,"resse":13441,"Ġlongos":13442,"Ġdecidir":13443,"Ġactual":13444,"ĠfazÃª":13445,"ĠplÃ¡stico":13446,"Ġhumanas":13447,"Ġentrevist":13448,"Ġigualdade":13449,"ĠCross":13450,"ifÃŃcia":13451,"1953":13452,"Ġsubmar":13453,"Ġ1892":13454,"pr":13455,"ĠautÃ³noma":13456,"Ġmachos":13457,"ĠfÃªmeas":13458,"Ġfaziam":13459,"oire":13460,"Ã±o":13461,"ÃŃcies":13462,"Cent":13463,"Ġexecutado":13464,"acote":13465,"Ġnela":13466,"agen":13467,"html":13468,"ancho":13469,"Ġdiscrim":13470,"Ġadotou":13471,"Ġfacilitar":13472,"ĠpÃªnalt":13473,"Aust":13474,"Ġvistas":13475,"Ġalimento":13476,"apso":13477,"Ġrecordes":13478,"Ġinfra":13479,"ĠidÃªnt":13480,"enzo":13481,"Ġaumentando":13482,"Fun":13483,"Ġraramente":13484,"Ġsoldado":13485,"Ġsabor":13486,"Ġesperado":13487,"ĠExternas":13488,"uber":13489,"eleito":13490,"Ġenvel":13491,"ĠromÃ¢ntico":13492,"Ġsignificativamente":13493,"Links":13494,"aron":13495,"Ġperif":13496,"Ġdedicou":13497,"Ġabus":13498,"Ġsintet":13499,"Ġmencionado":13500,"ĠFont":13501,"ĠTw":13502,"ĠadiÃ§Ã£o":13503,"Ġocidentais":13504,"Ġsobreviventes":13505,"Ã³licos":13506,"Ġcomunas":13507,"ĠValent":13508,"Ġenz":13509,"ĠThat":13510,"vid":13511,"olar":13512,"ĠPil":13513,"ĠWho":13514,"Ġrodas":13515,"Ġmoedas":13516,"ĠAnthony":13517,"kt":13518,"Ġservindo":13519,"Ġpossibilidades":13520,"ĠCad":13521,"ĠNum":13522,"ĠMariana":13523,"Ġcerco":13524,"achel":13525,"ĠbÃ¡sica":13526,"eds":13527,"Ġconstantes":13528,"Ġreferida":13529,"Ġ1899":13530,"Ġtratados":13531,"Ġbaterista":13532,"ĠSeminÃ¡rio":13533,"Cir":13534,"omano":13535,"Ġvencedora":13536,"yth":13537,"Â«":13538,"itri":13539,"Ġcentrais":13540,"Condado":13541,"Ġmestrado":13542,"ĠTrabalhadores":13543,"Ġaprendizagem":13544,"bÃ©ns":13545,"Charles":13546,"Base":13547,"Ġexpectativa":13548,"ĠSydney":13549,"Mortes":13550,"Ven":13551,"sburg":13552,"riaÃ§Ã£o":13553,"ĠThis":13554,"revista":13555,"ĠradiaÃ§Ã£o":13556,"wen":13557,"ĠCai":13558,"ĠSig":13559,"Ã©le":13560,"imenta":13561,"ĠTestamento":13562,"Ġ79":13563,"Ġrapper":13564,"Ġminhas":13565,"ĠSofia":13566,"ĠMap":13567,"ĠUCI":13568,"ĠcontÃŃnua":13569,"Dou":13570,"ĠpÃ³":13571,"ĠDonald":13572,"ĠinovaÃ§Ã£o":13573,"ĠCaf":13574,"ĠCout":13575,"Ġdeixado":13576,"ĠBurn":13577,"ardi":13578,"arinense":13579,"Ġvitam":13580,"aiba":13581,"ĠKos":13582,"ĠMars":13583,"ĠfÃ³sseis":13584,"uou":13585,"Ġindicando":13586,"Asteroide":13587,"score":13588,"Ġanarqu":13589,"ĠhÃºm":13590,"ĠresidÃªncias":13591,"Ġeuropeias":13592,"Ġcausada":13593,"Ġgerente":13594,"ĠCost":13595,"ĠÃģrea":13596,"Ġreservas":13597,"ĠApo":13598,"Ġinqu":13599,"Ġarrem":13600,"Ġdescobertas":13601,"ĠastrÃ´n":13602,"Ġsediada":13603,"eme":13604,"elia":13605,"ĠApost":13606,"Ġnobres":13607,"ĠBud":13608,"Ġcapt":13609,"Ġindependentemente":13610,"Ġquarenta":13611,"Ġestatal":13612,"Ġrevis":13613,"Ġrendeu":13614,"Ġpertencentes":13615,"ĠSolar":13616,"Ġembal":13617,"Ġlac":13618,"Ġsemestre":13619,"ĠsubstÃ¢ncias":13620,"ĠRico":13621,"ĠEspanhola":13622,"lon":13623,"Ġafili":13624,"mons":13625,"ĠMaster":13626,"ĠbraÃ§os":13627,"quel":13628,"ĠEstud":13629,"Ġpassagens":13630,"ĠQuinta":13631,"Ġescolheu":13632,"ĠruÃŃnas":13633,"Ġpreparar":13634,"ĠVirgin":13635,"Ġtorcida":13636,"Ġbizantino":13637,"Ġapartamento":13638,"Miss":13639,"icana":13640,"Ġculp":13641,"tions":13642,"cionou":13643,"etty":13644,"Sil":13645,"UFC":13646,"riana":13647,"ĠInglÃªs":13648,"ĠÃºnicos":13649,"ISE":13650,"etermin":13651,"Ġpastor":13652,"ĠcÃ¡lculo":13653,"Ã³metros":13654,"ĠResearch":13655,"ities":13656,"ĠMG":13657,"Ġricos":13658,"ĠSalÃ£o":13659,"uiÃ§Ã£o":13660,"ĠarquipÃ©lago":13661,"ANT":13662,"ĠUR":13663,"Ġfotografias":13664,"ĠMargarida":13665,"ĠMarte":13666,"Ġguia":13667,"RAL":13668,"Ġmasculina":13669,"ĠtÃ©rmino":13670,"CN":13671,"So":13672,"Ġbrev":13673,"resso":13674,"Ġquantidades":13675,"Ġclassificada":13676,"Ġalegando":13677,"ĠDiam":13678,"ĠClubes":13679,"Ġescolhida":13680,"ĠSuz":13681,"ĠMartÃŃn":13682,"Rod":13683,"Ġ1893":13684,"house":13685,"ĠVietnÃ£":13686,"ĠTailÃ¢ndia":13687,"inam":13688,"Ġarb":13689,"ĠcoloraÃ§Ã£o":13690,"Ġpreench":13691,"></":13692,"Ġdegrad":13693,"rupt":13694,"Ġarist":13695,"Ġdizia":13696,"ĠsentenÃ§a":13697,"ĠIBGE":13698,"nder":13699,"Ġcurva":13700,"Ġbomba":13701,"Ġaposentadoria":13702,"Ġrendimento":13703,"quina":13704,"alin":13705,"ĠSete":13706,"Ġrigor":13707,"ĠAT":13708,"avas":13709,"ocaute":13710,"Ġneer":13711,"Lib":13712,"Ġmatou":13713,"redor":13714,"Ġinteligente":13715,"ĠÃ¡rabes":13716,"Compositores":13717,"Ġturistas":13718,"Ġempat":13719,"ĠÃĤ":13720,"ĠMateus":13721,"incluindo":13722,"Ġrib":13723,"ĠPant":13724,"ancial":13725,"ĠCatalunha":13726,"Ġtrag":13727,"Programa":13728,"Ġfabricante":13729,"Ġsegmentos":13730,"Ã©ditos":13731,"ĠinvestigaÃ§Ãµes":13732,"Ã¡ssico":13733,"Ġgarante":13734,"Ġdivididos":13735,"Mot":13736,"Ġ121":13737,"ĠDessa":13738,"ĠFesta":13739,"Ġ88":13740,"Ġzo":13741,"iko":13742,"ĠFriedrich":13743,"ĠRS":13744,"ĠAlbuquerque":13745,"ĠKor":13746,"ĠOrquestra":13747,"ĠUnidade":13748,"erton":13749,"ĠOld":13750,"iquei":13751,"ĠAlfred":13752,"ĠMec":13753,"ulu":13754,"ART":13755,"ĠcrenÃ§a":13756,"ĠSilveira":13757,"ĠCob":13758,"ĠJustin":13759,"Ġroda":13760,"ousse":13761,"ipse":13762,"Ġamist":13763,"Ã¡tima":13764,"ĠWild":13765,"Ġmelhoria":13766,"Ġouvido":13767,"ĠexplosÃ£o":13768,"Ġentusias":13769,"ĠprimÃ¡ria":13770,"Ġsubdiv":13771,"ĠautomÃ³veis":13772,"Ġcoletiva":13773,"Opera":13774,"Äĥ":13775,"Ġgravidez":13776,"ĠmÃ©dias":13777,"Ġwww":13778,"ÃŃnc":13779,"ĠIng":13780,"Ġservido":13781,"ĠIndiana":13782,"Ã§on":13783,"ĠprestaÃ§Ã£o":13784,"ĠES":13785,"Estre":13786,"ĠmanifestaÃ§Ã£o":13787,"Ġestivesse":13788,"ĠChild":13789,"Ġsegredo":13790,"isebol":13791,"Ġpasta":13792,"DC":13793,"Ġlocalizados":13794,"Desenvolvimento":13795,"Ġconvocado":13796,"Ġmaravilh":13797,"feiÃ§o":13798,"ĠOlÃŃmpico":13799,"ÂłÂł":13800,"Ġraiz":13801,"Ġteologia":13802,"Ġacidentes":13803,"Ġza":13804,"inando":13805,"endimentos":13806,"ĠContinu":13807,"Ġexclusiva":13808,"ends":13809,"Ġmilho":13810,"Ġapresentava":13811,"Ġprevista":13812,"foi":13813,"Ġpronto":13814,"ĠemprÃ©stimo":13815,"Ġsente":13816,"roduÃ§Ã£o":13817,"itÃ¡vel":13818,"Ġadquirir":13819,"ĠPublishing":13820,"ĠAmaral":13821,"Ġterceiros":13822,"Ġmitologia":13823,"Ġprobabilidade":13824,"Ġconcreto":13825,"Ġbatalhas":13826,"Ġingleses":13827,"rinha":13828,"Ġ700":13829,"Compet":13830,"ĠgrÃ¡ficos":13831,"Ġsalto":13832,"Ġacons":13833,"Ġatinge":13834,"Ġvendidas":13835,"Ġcompreender":13836,"Ġroupa":13837,"ĠRussa":13838,"Ġmarciais":13839,"Ġ1894":13840,"Ġexames":13841,"Ġimposto":13842,"Ġocupado":13843,"Ġcombo":13844,"Ġdespre":13845,"Ġsubsp":13846,"Ġestabelece":13847,"ornos":13848,"âĸ¼":13849,"Outra":13850,"ptera":13851,"ĠAnc":13852,"aij":13853,"produÃ§Ã£o":13854,"ĠsubstÃ¢ncia":13855,"otten":13856,"ĠNigÃ©ria":13857,"Ġcineasta":13858,"bes":13859,"ĠLord":13860,"ĠEsport":13861,"ĠconstruÃŃdas":13862,"Ġteclado":13863,"Ġreunir":13864,"Ġcolaboradores":13865,"eriormente":13866,"ĠPoint":13867,"bourne":13868,"Mag":13869,"lie":13870,"ĠPatr":13871,"Ġverificar":13872,"ogueira":13873,"Mem":13874,"Masculino":13875,"Ġhectares":13876,"Tr":13877,"lau":13878,"uzil":13879,"Ġacreditar":13880,"ĠFez":13881,"ĠSampa":13882,"Ġmecanismos":13883,"Vice":13884,"ĠBei":13885,"Ġcompras":13886,"Ġsobrinho":13887,"ĠgenÃ©tica":13888,"Ã©rcitos":13889,"Ġemig":13890,"Ġinoc":13891,"ĠagÃªncias":13892,"ĠLiberal":13893,"tiva":13894,"Ġabriga":13895,"ĠChannel":13896,"Ġgovernamentais":13897,"Ġprivadas":13898,"jes":13899,"ĠKey":13900,"minal":13901,"ĠDOS":13902,"formance":13903,"Ġexperimental":13904,"Ġprotegida":13905,"ĠOrchidaceae":13906,"ĠGordon":13907,"pass":13908,"Ġsentiu":13909,"ĠcÃ£o":13910,"Ġbord":13911,"ĠporÃ§Ã£o":13912,"ĠWol":13913,"Ġurban":13914,"feld":13915,"Ġvitor":13916,"aciais":13917,"ĠcÃ©lula":13918,"lados":13919,"iclo":13920,"Ġfrust":13921,"ĠRang":13922,"ĠPatrick":13923,"Ġchineses":13924,"Ġvereadores":13925,"Ġsacerdote":13926,"final":13927,"ĠTrav":13928,"ĠTeve":13929,"Ġvantagens":13930,"hab":13931,"Ġmarinha":13932,"Ã©trico":13933,"Ġ1888":13934,"ĠMovie":13935,"lice":13936,"ĠsalÃ£o":13937,"ĠdeterminaÃ§Ã£o":13938,"ĠJacques":13939,"ĠKennedy":13940,"Ġdesenc":13941,"ĠOlym":13942,"ĠCharlie":13943,"Ġtrom":13944,"ilhÃ£o":13945,"ĠraÃ§as":13946,"Ġenvolveu":13947,"Cop":13948,"ĠMorte":13949,"ĠBaixo":13950,"podes":13951,"guarda":13952,"ĠContra":13953,"agi":13954,"indical":13955,"Bal":13956,"Gol":13957,"ĠAcred":13958,"bell":13959,"Ġfec":13960,"ĠMinha":13961,"Ġ().":13962,"Ġvisa":13963,"edidos":13964,"Ġ98":13965,"ĠAh":13966,"ĠPers":13967,"ĠatualizaÃ§Ã£o":13968,"quista":13969,"ĠLugar":13970,"Ġseguem":13971,"ĠsÃ³cio":13972,"Ġibne":13973,"queira":13974,"ĠConvenÃ§Ã£o":13975,"Ġreduzido":13976,"Teatro":13977,"Ġdefensor":13978,"Ġdevia":13979,"ĠCall":13980,"Ã³dromo":13981,"celos":13982,"Ġensaios":13983,"venÃ§Ãµes":13984,"./":13985,"OC":13986,"ĠGam":13987,"Ġbloqu":13988,"ĠBened":13989,"ĠAcademy":13990,"ĠPais":13991,"ĠTeod":13992,"Ġgigante":13993,"Ġgigantes":13994,"Sob":13995,"Ġfarmac":13996,"Ġmau":13997,"ĠAdo":13998,"ilÃ¢ncia":13999,"Ġperdas":14000,"Ġfolcl":14001,"MamÃŃferos":14002,"icÃ¡cia":14003,"ĠVirgÃŃnia":14004,"Richard":14005,"ĠpenÃŃnsula":14006,"Ġintroduzido":14007,"Ġbispos":14008,"Ġcultiv":14009,"ĠtÃªnis":14010,"Ġafund":14011,"Ġpedidos":14012,"Ġiguais":14013,"Ġabandonou":14014,"atre":14015,"ĠsuicÃŃdio":14016,"ĠQUE":14017,"rive":14018,"ĠBoys":14019,"ĠRail":14020,"ĠestÃºdios":14021,"ĠÄ":14022,"Conc":14023,"tempo":14024,"ĠGarc":14025,"Ġdespesas":14026,"Ġhorizont":14027,"furt":14028,"ĠCA":14029,"ĠGerman":14030,"ĠTavares":14031,"ĠRenas":14032,"Ġgado":14033,"Ġdescul":14034,"Ġcompetir":14035,"Ġmontagem":14036,"Ġexcesso":14037,"ween":14038,"ĠÃªxito":14039,"Ġsanto":14040,"apura":14041,"Ġdispens":14042,"untamente":14043,"graduaÃ§Ã£o":14044,"endidos":14045,"Ġtornado":14046,"Ġportuguesas":14047,"ĠSudeste":14048,"ĠPit":14049,"ĠPle":14050,"ĠpremiaÃ§Ã£o":14051,"Jac":14052,"bury":14053,"ries":14054,"boy":14055,"ĠconcluÃŃdo":14056,"Ġnu":14057,"Ġadulto":14058,"Ġtreze":14059,"ĠAlemÃ£o":14060,"ENTE":14061,"Arquivo":14062,"ĠPast":14063,"Ã©mon":14064,"Ġuniforme":14065,"Peter":14066,"eley":14067,"Ġrelativa":14068,"Ġmortal":14069,"ĠLine":14070,"haus":14071,"Ġcontempl":14072,"ĠKam":14073,"ĠmetÃ¡l":14074,"Ġlevam":14075,"Ġsonhos":14076,"ĠFA":14077,"Ġramos":14078,"ĠÃ©tica":14079,"ĠOrtodo":14080,"Ġvisitou":14081,"Ġeliminado":14082,"eni":14083,"itavam":14084,"icÃ§Ã£o":14085,"ĠvÃªm":14086,"Ġber":14087,"Ġmetodo":14088,"ĠCoroa":14089,"Ġcuidar":14090,"Primeiros":14091,"asteroide":14092,"ĠRiv":14093,"dust":14094,"ĠAnat":14095,"ÃŃgios":14096,"Ġquartos":14097,"adorias":14098,"imentaÃ§Ã£o":14099,"Ġcontinental":14100,"ĠMog":14101,"teu":14102,"Ġorganizou":14103,"ĠGoiÃ¢nia":14104,"Î¿":14105,"ĠBatal":14106,"ĠrestriÃ§Ãµes":14107,"Ġ87":14108,"Ġvirou":14109,"Ġdella":14110,"ĠuniversitÃ¡rio":14111,"Ġacessado":14112,"Ġautomobil":14113,"ĠAÃ§Ã£o":14114,"ĠEmpre":14115,"ustent":14116,"ĠMr":14117,"ĠAnne":14118,"Ġassassinado":14119,"ĠpÃ´de":14120,"ĠAntigo":14121,"Ġaprovou":14122,"biliz":14123,"Ġneto":14124,"ĠMarx":14125,"Ġbombard":14126,"EX":14127,"under":14128,"Ġleitor":14129,"ĠUSA":14130,"800":14131,"George":14132,"Ġculpa":14133,"ĠNaz":14134,"Ã³pia":14135,"outube":14136,"fi":14137,"Ins":14138,"OP":14139,"Ġpist":14140,"Ġhipo":14141,"elhores":14142,"ych":14143,"ĠCemitÃ©rio":14144,"ĠLÃŃngua":14145,"ograma":14146,"Ġaprim":14147,"ĠPrÃºssia":14148,"ĠexercÃŃcios":14149,"Ġesco":14150,"Ġcoletivo":14151,"Ġmandou":14152,"Ġdieta":14153,"ĠlanÃ§amentos":14154,"Ġetn":14155,"Ġtocou":14156,"ĠpÃ¡ss":14157,"Ġvariam":14158,"ĠBritish":14159,"ĠNÃ¡":14160,"App":14161,"nth":14162,"Ġjardas":14163,"Fab":14164,"ĠManh":14165,"ificando":14166,"Ġpeito":14167,"Ġdeclarado":14168,"Nascido":14169,"Ġemissoras":14170,"Ġexpressa":14171,"lexo":14172,"ÃģRIO":14173,"Ġassociadas":14174,"ĠGarden":14175,"Ġpront":14176,"Ġcumprimento":14177,"Distritos":14178,"ĠtÃ³p":14179,"ĠOrle":14180,"Ġpsico":14181,"ĠPin":14182,"ĠRica":14183,"Ġgratuito":14184,"%;":14185,"ĠMatos":14186,"Ġreag":14187,"Ġregulares":14188,"Ġtranst":14189,"ĠpermissÃ£o":14190,"lines":14191,"Ġtrazendo":14192,"ĠavaliaÃ§Ãµes":14193,"iterÃ³i":14194,"ĠmemÃ³rias":14195,"ĠVirgem":14196,"ĠSarah":14197,"ĠCÃ³r":14198,"ĠassociaÃ§Ãµes":14199,"Ġlegado":14200,"Ġpsi":14201,"jou":14202,"ĠLang":14203,"issem":14204,"guaio":14205,"iet":14206,"Ġfant":14207,"ĠrepertÃ³rio":14208,"eau":14209,"ĠviolÃ£o":14210,
[...]
