#version: 0.2
Ġ d
Ġ e
Ġd e
Ġ a
r a
o s
Ġ p
Ġ c
n t
e s
e r
o r
a s
Ġ s
a d
i s
i n
a r
Ã £
i a
Ġc o
r e
Ã£ o
Ġ n
Ġ o
i c
Ġ m
Ã §
q u
a l
r o
a n
Ġ t
Ġ f
e nt
i d
Ã ©
e n
u m
i t
e m
o n
e l
Ġd o
Ġ qu
Ġco m
a m
s t
Ã ¡
Ġe m
Ġd a
Ġ C
Ġ um
d o
r i
Ġ A
Ã Ń
Ã§ Ã£o
Ġ S
i l
o l
Ġ 1
Ġqu e
a t
a ra
Ġ P
Ġ M
Ġ (
Ġ v
i m
Ġs e
u l
Ġ 2
u n
e i
Ġ E
Ġn o
Ġ re
Ġ l
is t
o u
Ã ³
ad o
i v
u t
Ġ B
c i
Ġ b
e t
ent e
Ġp ara
e c
o m
d e
r es
Ġ R
u s
Ġ2 0
Ġ g
Ġ D
Ġum a
ic a
Ġ F
Ġ T
Ġn a
a nt
i g
Ã ª
Ġ in
Ġ L
Ġco n
Ġe st
a is
Ġf o
Ġp or
Ġ Ã©
i o
Ã µ
Ãµ es
Ġ |
id ad
Ġ N
Ġ O
Ġs u
Ġ| |
Ġ1 9
a Ã§Ã£o
h a
Ġ G
s e
ad a
Ġp ro
o c
d a
l e
Ġ I
u ra
n c
Ġe s
Ġa s
h o
i z
t e
â Ģ
t a
Ġ os
Ġ J
Ġ j
i r
Ġ Ã
Ġe x
Ġfo i
Ġcom o
Ã§ Ãµes
e ra
o g
idad e
ra s
ent o
a c
t o
p o
g u
s o
Ġp el
Ġd os
ad os
e d
i nt
an do
id o
ra m
Ġ H
Ġp o
Ġa n
Ã º
Ġa t
it o
Ġa l
Ġde s
ra n
u r
ic o
e g
Ġ V
Ã© m
ei ro
Ġ "
a g
er n
Ġa p
Ġ h
a v
or es
r ia
Ġ -
Ġ U
o b
r os
ar t
or m
o v
Ġ âĢ
i f
a b
a i
Ġs er
Ġ20 0
Ġm ais
Ġ20 1
Ã¡ ri
er s
Ġa o
Ġe nt
id a
Ġco nt
ia l
e v
or t
Ġn Ã£o
h e
ri m
a p
am b
c o
nc ia
i p
u b
Ġsu a
ei ra
es t
c e
ĠÃ ł
r u
en s
0 0
Ã§ a
i on
o d
ci on
m o
l a
Ġt em
m ente
ist a
Ġd as
in g
Ġo u
Ġ W
1 9
o t
Ġp er
Ã ¢
Ġcom p
Ġse u
Ġt er
Ġ int
Ġa c
Ġes p
amb Ã©m
Ġp r
em b
d u
as s
v e
Ġ K
Ġa r
en do
Ãª ncia
Ġo ut
e z
Ġ 3
an d
) ,
in a
Ġt ambÃ©m
o ra
es s
o nt
i b
a Ã§Ãµes
Ġ res
ad as
am ente
ĠE st
c ol
or n
Ġe n
ic os
c h
a z
Ġt ra
Ġ im
ras il
ia n
m e
Ġp rim
u d
p l
ĠU n
e b
i Ã§Ã£o
en d
Ġpel a
ĠA l
Ã ´
) .
ÃŃ t
Ġd i
am ento
id os
Ġs ob
p e
un d
ul o
Ġpel o
nt e
v el
Ġo f
. .
Ġ Ã¡
Ġent re
es so
p res
Ġd is
Ġp re
c l
ic as
ul t
Ġp os
e u
2 0
Ãª s
u g
t er
Ġp art
Ġe le
ant o
Ġn os
r it
qu e
Ã¡ri o
Ġ or
Ġa b
Ġa m
al iz
Ġc h
in o
ĠE m
emb ro
Ġp ar
c a
Ġf il
p os
Ġe l
Ġno v
i os
Ġs Ã£o
ri o
im ento
Ġ1 8
Ã§ o
un do
Ġ 4
Ġm u
er t
ad or
ĠâĢ Ķ
ĠM ar
g o
u al
or te
Ãª n
ent es
Ġm as
Ġo b
o p
Ã© c
ent os
Ġm ar
i u
Ġex t
Ġf orm
E m
ara m
n d
Ġ19 9
Ġsob re
Ġs em
Ġas s
s a
ist as
cion al
Ġm es
Ã³ s
i ra
at o
ad e
ant e
Ġc l
Ġan os
an o
p er
idad es
Ġre g
Ġa nt
Ġcon s
l ia
ĠB rasil
in al
Ġc as
in ha
an Ã§
it u
m a
i as
ĠC om
iv o
iv ers
Ġ Ġ
b l
f er
| -
ÃŃ s
s p
ĠC h
b al
ar d
Ã³ ria
j a
ci o
ra v
h ec
is s
Ġp res
Ġes c
Ġn as
Â ł
ÃŃ n
ĠC on
u st
Ġre c
Ġc ar
Ġo n
d er
ĠI n
an a
Ġ us
ant es
v ol
F A
ĠR e
p re
as t
f orm
Ġa g
Ġe ra
Ġ ro
i Ã£o
iv a
er o
Ġ 5
ĠâĢ ĵ
s s
el h
av a
an h
ra t
Ġfo ram
Ã´ n
ra f
as e
Ġc or
r Ã¡
it os
Ã¢ n
m in
ĠP a
Ġ ha
col or
ci as
Ã© r
Ġj og
ad ores
Ġat Ã©
os t
g color
ra l
ar ia
Ġe nc
ai x
Ġse g
Ã¡ri os
in do
Ġco l
ĠA r
it a
c ia
er ra
= #
ul ar
Ġm ai
Ġse us
Ġb gcolor
it e
Ġl oc
il h
ig n
if ic
or d
ra nc
Ġp ass
Ġde st
u ro
Ġa d
Q u
Ġv ez
u nt
v a
Ġc am
in h
ci p
Ġp ol
Ġdi re
im a
o do
Ġd ia
" ,
es a
m an
2 00
Ġtem po
is Ã£o
en as
id as
p ort
Ġdes c
Ġqu al
ĠD e
ag em
Ġpr in
Ġse gu
em a
Ġint er
Ġtra bal
Ġf az
ern as
ura nte
ran de
v i
j et
ra d
ĠS Ã£o
Ġt orn
Ã³ r
Ã© d
ĠA m
is mo
Ġest Ã¡
u p
Ġp l
era l
Ġ19 8
l o
po is
i x
ig aÃ§Ãµes
ei ros
el a
Ġal g
Ġon de
eb ol
Ġcon st
f e
Ġ 6
v er
Ġc idade
Ġp a
ĠÃ º
ic ip
ra da
in da
c or
ec t
" .
es te
ri g
Ġno me
Ġan o
or ia
Ã¡ t
Ġt ran
Ġc ap
Ġext ernas
Ã³ p
h er
Ġcon hec
L igaÃ§Ãµes
l ic
ri b
Ġt od
Ġqu ando
raf ia
ĠN o
a k
ĠC ar
un s
Ġp esso
Ãº bl
ĠA n
ĠS t
Ġ X
Ġsu b
Ġpos s
Ã© ri
Ġpo p
it ar
ĠG u
Ġa ut
Ġprin cip
Ġmes mo
m es
ĠO s
a cional
d em
an eiro
ut ebol
el e
p on
el o
Ġin d
ov ern
Ġre l
Ãªn cias
Ġcont ra
e x
e w
en c
Ġ 7
20 1
Ġl anÃ§
Â º
v ia
Ġpar te
i or
Ã© s
ri l
en h
Ġprim eiro
ist Ã³ria
Ġpo de
ÃŃ p
Ãª m
er ic
ĠJ o
Ġa os
l b
ol og
cl u
im o
Ġf am
an ha
er c
Ġe qu
a y
Ġv er
c on
Ã§ as
ce b
Ġ Y
ĠP ort
ica Ã§Ã£o
Ġ 0
Ġ19 7
it al
Ã© t
Ġsu as
i e
du z
Ġ ra
Ġ 8
Ġmu ito
id e
p era
in e
g e
u c
u do
ĠT he
Ġs endo
Ġdo is
ic ial
Ġ 9
o i
g a
l es
at ura
Ġprim eira
g ram
ÃŃ vel
Ãº s
Ġd u
Ġv ol
Ġse t
Ġar t
n e
Ġj Ã¡
C om
Ġt he
re a
Ġ Qu
ei o
ĠS u
ĠEst ados
il iz
Ġd ist
o f
ir m
ion al
ÃŃ m
Ġ1 0
ĠUn idos
Ġd urante
Ġa inda
ĠP ro
ÃŃ lia
gu a
ĠC l
Ġout ros
g an
Ġe d
Ġa f
FA FA
Ġt r
Ġde pois
Ġenc ont
vol v
er v
ev e
l et
d io
l t
u gu
1 8
ra Ã§Ã£o
Ġm en
ĠC am
Ġ1 7
Ġpro f
re t
iv os
res ent
ÃŃ cio
ar es
r ic
Ġf inal
âĢ ĵ
en a
Ġ1 5
Ġ Z
Ġm il
Ġre aliz
c om
Ġ is
â ĸ
ra r
Ġtran s
ru po
Ġap resent
âĢ Ŀ
Ġc a
i Ã§Ãµes
Ġpa ÃŃs
Ġpro c
Ġc an
Ġ19 6
r ito
Ġde z
Ġch am
Ġf al
id era
Ġ un
at ro
âĸ º
Ġap Ã³s
ĠPa ulo
Ġg rande
ÃŃ st
ve is
er g
Ġg overn
Ġd if
id ente
Ġin st
Ġde f
el l
Ġpor t
Ġap enas
ig o
Ġc er
os to
A R
Ġcom e
l io
Ġe la
Ġmai or
ĠR io
Ãº m
F il
Ġform a
p a
.. .
in ho
ĠE le
o k
g l
Ġdes en
ĠE sp
Ġan d
Ġequ ip
ĠP or
ia is
el ho
Ġin f
Ġf or
ul aÃ§Ã£o
Ġp e
Ġc r
Ġe v
ult ura
Ã¡ ria
ro n
ĠUn ivers
Ġin clu
Ġ r
ĠE s
un da
d os
um a
d es
ia m
it as
Ġm Ãºs
un ic
Ġf e
Ġesp ec
Ġpro v
Ġre ceb
an da
ĠÃł s
p ut
Ġprincip al
Ã©ri e
Ġm at
ĠI nt
Ġm et
ĠN ov
k m
Ġ1 6
Ġha b
Ġpol ÃŃt
ĠA s
Ġcon f
elh or
ĠS ant
Ã¡ vel
du Ã§Ã£o
il l
Ġm a
Ġpo der
Ġl iv
Ġtod os
Ġs ol
b o
Ġg u
ĠâĢ ľ
ĠL e
r ut
Ġm ed
olog ia
Ġf ic
Ġh om
Ġtr Ãªs
Ġb rasil
ĠA t
ian o
d ut
Ġl ev
h t
Ã³ l
Ġre t
Ġem pres
Ġd iv
Ġpart icip
Ġin v
Ġm od
ers on
2 1
Ġb em
an os
Ã³ g
ĠP ar
c ent
nt es
Ġ ho
i ent
Ġv oc
19 9
an c
ub lic
s on
Ġor ig
qu er
Ã³ rio
pres ent
ĠÃ ī
I I
ro u
Ġa v
in as
os a
Ġpo nt
ug al
n a
i k
c ul
Ã© ci
Ġf un
ĠM a
Ġf re
ro p
i re
Ġes col
Ġfil me
Ġm an
Ġ1 2
oc a
p t
I N
at al
at e
Ã¡ri as
unic ÃŃp
Ġf und
ĠO l
era m
ic i
Ġt o
Ġc ria
1 0
l u
j e
Ã³ n
ul ho
h os
is a
Ġc ri
ra do
Ġdu as
ĠP ara
ĠC ol
ĠS p
Ġpesso as
Ġ ut
in u
iz aÃ§Ã£o
ĠE x
ub ro
m on
il idade
Ġch eg
Ġest ado
ig a
Ġv ida
Ġde v
Ġcon v
un ho
ĠA p
ec e
al l
m it
es se
ei ras
d ade
re ira
Ã¢ m
Ã§ os
Ġde c
ĠÃ¡ lb
ic e
Ġconst ru
ĠS oc
2 2
ĠPort ugal
Ġs ist
ĠA nt
ev er
ĠĠ ĠĠ
at a
iv as
Ġdif er
Ġs Ã©c
g em
t ura
ian a
Ġs ido
Ġent Ã£o
Ġ1 4
Ġ19 5
Ġim port
ul a
Ġb ase
Ġ19 4
Ġest re
ĠA ss
Ġc ent
ĠÃ¡ rea
Ġc in
Fil mes
z a
pe on
Ġp Ãºbl
E st
Ġ1 3
qu anto
rib u
ĠÃº lt
Ġm in
N o
an g
se gu
Ġcome Ã§
Ġseg undo
og os
Ġpro gram
Ġs im
Ġ1 1
r y
Ã© rio
Ġut iliz
Ġsegu int
Ġc ada
Ġfam ÃŃlia
R e
Ġg rupo
Ġs a
O s
ub e
en se
Ã´ m
Ġa qu
s Ã£o
ou r
Ġpel os
Ġs Ã©rie
Ġesp Ã©ci
Ġp es
es ta
ic al
Ġpro p
ac k
or do
A l
ac h
ĠP e
og rafia
m os
ent al
Ġdes de
Ġre present
Ġreg iÃ£o
ĠL u
unt o
Ġis so
o w
Ġl on
Ġam b
Ġn Ãºm
ĠB ar
t os
Ġcons idera
em pl
ĠO r
ĠS e
s os
ag ens
Ġpo dem
Ġcom un
re d
ĠC or
V er
Ġloc aliz
ĠÃ¡lb um
ul her
peon ato
le x
Ġest e
em ente
Ġout ras
d as
Ġ19 3
t as
Ġv al
Ġt e
er to
Ġpr Ã³p
Ġl ug
re n
ĠV er
og o
p h
Ġm undo
ĠÃ ģ
ĠJ aneiro
ĠF l
t or
ed ade
Ġass im
Ġt el
ĠsÃ©c ulo
en de
Ġg rav
Ġc at
Ġp ou
ic h
Ã¢ ncia
Ġpart ir
ĠS ul
Ġex ist
Ġh istÃ³ria
Ġloc al
er ia
Ġv is
ĠN a
Ġant es
ab el
Ã¡ l
Ġt inha
ĠA b
re m
on a
av am
Ġposs u
Ġo c
re g
Ġor gan
Ġp al
it t
Ġcon d
Ġm Ã©d
Ġap ar
Ġpop ulaÃ§Ã£o
Ġtrabal ho
ever eiro
et a
Ġdesen volv
h n
Ã¡ s
Ġat u
ĠUnivers idade
Ġsu c
Ġo cor
Ġ ,
Ġd Ã©c
ual mente
1 5
Ġest ava
im entos
or ro
ĠA c
Ġpro jet
in s
l os
Ã³ ri
Ġhab it
ec ess
Ġde ix
j o
iss Ã£o
1 7
c os
Ġt eve
im e
Ġint ern
Ġc ur
Ġ201 0
ĠI s
D e
Ġ200 0
Ġre p
e de
Ġn eg
Ġpro dut
Ġm unicÃŃp
ĠE l
ĠJ os
ÃŃ f
am os
Ġat rav
n Ã§a
min ist
Ġap ro
Ġespec ial
ĠE uro
Ġm elhor
ĠI m
d or
Ġsu per
Ġel es
co nt
ĠF oi
ĠmÃºs ica
2 3
P ro
c ar
Ġ .
Ġs al
r ist
on d
und ial
g rafia
ĠF ran
1 6
Ġac ordo
re u
Ġh Ã¡
ol a
Ġfaz er
Ġs oc
Ġp ublic
t h
ĠE d
v o
Ġcon c
al h
Ġ200 8
Ġalg uns
ĠnÃºm ero
em as
Ġvez es
ÃŃm p
Â ª
p ara
ar i
ut o
Ġm e
it y
Ġ200 6
en Ã§a
Ġa po
am entos
d ic
p end
o ci
Ġj aneiro
ĠP r
Ġm ilh
Ġs Ã³
Ġest Ã£o
Ġalg um
T he
ĠE n
ec eu
Ġha via
ĠN acional
Ġset embro
Ġgovern o
Ġdez embro
Ġport ugu
Ġtrabal h
Ġres ult
Ġma io
t on
Ġout ubro
Ġmar Ã§o
ia Ã§Ã£o
Ġen quanto
Ġin form
Ġd ivers
il o
1 2
Ġ w
Ġg eral
Â ²
Ġ201 6
Ġ2 5
Ġh um
il a
Ġcon segu
Ġper ÃŃ
Ġlug ar
Ġal Ã©m
Ġh ist
Ġ &
1 4
ig os
Ġ3 0
e a
Ġsist ema
Ġjog o
ĠT h
g re
u re
Ġp ra
et e
os ta
st itu
Ġnov o
Ġ201 2
Ġj ulho
om a
Ġag osto
ĠF ranc
Ġe ram
on g
Ã© l
um ent
ro m
Ġt ÃŃt
Ġex empl
Ġca us
Ġatrav Ã©s
19 8
Ġp erson
Ã¡t ica
ĠA nd
E S
e f
Ġj unho
Ġ200 7
Ġ id
Ġt endo
iv e
et o
ri v
Ġd iz
a f
Ġem b
Ġn ecess
if icaÃ§Ã£o
Ġn orte
Ġim p
Ġm us
en Ã§Ã£o
Ġof icial
Ã¡ g
Ġab ril
I n
Ġm or
r ica
Ġnov embro
Ġc u
Ġser vi
ri z
Ġpro duz
Ġre fer
Ġvoc Ãª
Ġde r
Ġf ez
ul os
ĠC ent
= "
Ġ2 4
Ġa j
Ġc ant
Ġest a
du c
ĠD es
ĠÃ© p
ce u
is co
rÃ¡ f
A s
in os
Ġ201 1
ĠM an
ci os
ĠP al
al mente
x im
Ġm eio
1 3
Ã³ d
Ġm ant
IN E
Ġp ap
Ã£ os
Ġt ar
FAFA FA
Ġn um
n o
C on
Ġt ot
A r
ĠEst ado
em in
Ġv ers
a x
ĠÃº n
u Ã§Ã£o
an e
ec er
Ġest ud
Ġin ÃŃcio
Ġ201 4
Ã©c n
Ġde n
Ġv Ã¡rios
Ġ200 9
ĠA g
ar o
Ġcont inu
Ġm ulher
Ġv i
Ġpre c
ÃŃ do
at os
ĠP ol
ĠP er
at iva
ara c
ĠInt ern
en o
Ġre v
Ġin s
Ġ ir
O S
Ġtempo rada
i po
at ion
Ġt odo
Ġqu atro
is e
Ġ201 3
op a
Ġob jet
ĠSoc orro
Ġl e
Ġdi as
at ch
Ġb anda
ib lio
Ġ il
ĠperÃŃ odo
u a
ic amente
Ġcomp et
ĠM in
atura is
ĠA d
Ġt ent
Ġ201 5
on e
ĠL INE
D es
ĠLINE AR
Ġres pon
ev isÃ£o
ĠÃ©p oca
Ġse ja
eric ano
ura s
ĠE nt
Ġf in
00 0
res s
Ġpe qu
Ġcl ass
b a
en ho
Ġs ent
Ġtorn ou
Ġv ia
an Ã§a
ĠB o
ĠmunicÃŃp io
ĠS al
ĠS eg
Ġaut or
ĠC an
Ġ /
ĠNov a
Ġre la
er i
Ġ200 5
Ġout ro
ica Ã§Ãµes
orn al
Ġcer ca
t ar
ou nt
Ġm ost
Ġf evereiro
ĠI t
Ġesc rit
as c
ĠL a
ad r
Ġcas a
ru z
p or
iv amente
ol Ã³g
en da
Ġex pl
Ġm ov
Ġt ur
as se
ĠP l
Ġs ab
Ġp ed
3 0
ĠM us
iv er
ĠF il
Ġconhec ido
1 1
Ġl ado
Ġ201 7
Ġmen os
Ġs itu
p art
Ġcont ro
Ġpr Ã³
cion ais
ĠSp ac
Ġl ut
Ġf utebol
i el
Ġf ranc
Ã ģ
C ar
Ġseguint e
h as
ĠF ede
ĠespÃ©ci e
ĠC o
Ġf l
Ġnov a
Ġequip e
ĠJos Ã©
emb ros
ĠR eg
it or
Ġ ig
Ġf im
is c
Ġg ol
Ġseg unda
Ġdest a
Ġo pera
Ġdesc ob
Ġmar c
ĠdÃ©c ada
Ġl eg
i ar
Ġs om
' s
ĠJo Ã£o
Ġhabit antes
Ġm ot
Ġpres idente
es ar
Ġe con
Ġent anto
Ġco b
Ġde nt
i ram
Ġe p
Ġqual quer
ĠMar ia
Ġat iv
Ġs ign
Ġpro duÃ§Ã£o
Ġtod as
Ġe t
os o
Ġo l
os s
Ġempres a
Ġ irm
z e
Ġdev ido
Ġb aix
re ve
ĠC at
ĠG rande
um ento
ĠC ont
Ġ201 8
ĠT e
cl us
Ġsem pre
er ta
on hec
Ġdis put
Ġl ÃŃn
Ġc ultura
R A
ĠK itt
ul g
Ġcas o
ÃŃ da
i er
Ġ200 4
Ġsu r
ub l
Ġg anh
Ġqu ais
u el
Ġex p
Ġde m
ĠC al
ĠS a
arac ter
ÃŃmp icos
ĠGu erra
19 7
Ġes s
ĠPe ak
c el
Ġpo is
Ġfil ho
ÃŃ de
Ġg ran
Ġexempl o
ado ra
Ġf ac
A t
Ġm ud
ĠJ ogos
Ġter c
ĠU m
qu es
Ġre f
2 5
ĠS h
Ġar m
r is
fer Ãªncias
in gu
i Ãªncia
al e
ew atch
ĠSpac ewatch
ĠO ut
Ġtel evisÃ£o
Ġ200 1
un ci
Ġv Ã¡rias
Ġg ra
Ġa ta
Ġcol oc
Ġt re
Ġm orte
av al
u ais
ent emente
es es
Ã©r ica
Ġse x
Ġmilh Ãµes
ĠÃ¡ gua
ÃŃ veis
Ġf er
Ġ2 3
Ġe u
ĠtÃŃt ulo
ĠlanÃ§ ado
Ġcom b
k e
Ġin gl
or e
in ado
Ġ =
ĠcomeÃ§ ou
Ã ¼
g er
l and
Ġbrasil eiro
Ġl ib
er os
Ġprogram a
Ġpro bl
Ġprof iss
Ġ z
Ġmu itos
ĠS il
Ġac ab
Ġg en
am p
Ġc al
F utebol
im ent
Ãºbl ica
ĠI I
Ãº de
era Ã§Ã£o
Ġ200 2
l as
Ġdi rig
Ġtar de
un g
Ġalgum as
o z
Ġt om
i es
Ġl im
Ġin c
Ġper t
ar Ã¡
om ia
ĠCon s
Ġint eg
Ġm on
N a
Ġes se
u da
l ob
ĠFran Ã§a
2 4
ĠSant a
Ġan im
Ġcomp let
Ġj unt
ar e
ĠM as
i Ãµes
al a
ĠM undial
A p
Ġ2 6
Ġproc esso
Ġcon qu
iv al
Ġna cional
ĠG e
H istÃ³ria
ic k
Ġmil itar
Ġ2 7
5 0
Ã¡ veis
Ġqu em
in d
f f
ĠL em
Ġest abel
cent er
ĠRe p
Ã ī
Ġs of
Ġ201 9
Ġus o
i ro
Ġar qu
Ġliv ro
Ġpass ou
om e
u v
C l
ar c
ĠR ec
Ġ2 1
O N
or k
en so
ĠAl em
ist o
o a
on s
i ente
ra g
Ġ2 8
Ġno t
Ġpes qu
en ha
Ġs ul
ad es
b ol
Ġed iÃ§Ã£o
Ġes sa
Ġinv est
Ã³ t
gu e
ont e
Ġc ab
a h
Ġad minist
Ġre n
Ġse c
Ġ2 2
Ġt ec
l y
fe ito
ig ht
A n
Ġt al
ĠC as
Ġdis so
et r
le g
rut ura
ec ut
un icip
ĠM ount
Futebol istas
ĠJo hn
ez a
Ġc ir
Ġt Ã©cn
qu ia
ens Ã£o
Ġcar reira
it Ã³ria
Ġorig inal
ro nt
Ãªm io
oc k
Ġinclu indo
Ġ20 20
Ġprojet o
Ġdis c
ur so
Ġc res
Ġdef in
r in
ĠC opa
N aturais
Ġ200 3
im os
ÃŃ cia
ĠE la
ĠpÃºbl ico
Ã© n
ĠP art
de pend
Ġex per
c k
Ġest ad
Ġre al
Ġpro m
Ġcr ÃŃt
Ġrel aÃ§Ã£o
am a
p anh
ur g
Ġpor que
E N
en cia
Ġpou co
Ġmes ma
Ã´n ia
ab ora
Ġmu itas
ar do
ĠpolÃŃt ica
Ġm om
ĠN ew
w w
Ġjog os
est Ã£o
ĠR ob
l og
Ġde ve
Ġgran des
Ġc aracter
Ġtot al
E R
es e
ĠIn st
C h
Ġrespon s
ran do
Ġb ar
gre ja
le y
Ġcont a
2 8
t ou
A S
ĠT ra
p ect
Ġper man
2 6
Ġp ai
Ġa cont
Ġna v
ĠAn g
u de
Ġvol ta
em os
Ġser ia
ort es
Ġlon go
an as
nd ia
Ġ2 9
Ġorgan iz
ĠP ed
u x
Ġdesenvolv imento
Ġdis se
Ġreceb eu
Ġprincip ais
ĠAr t
Ġ ru
orm ente
bo a
Ġal em
ess or
Ġho je
u z
ĠlÃŃn gua
el as
Ġcon j
Ġter rit
ert os
Ġl ig
Ġreg ist
Ġpel as
ĠRe ino
a ir
Ġsuc esso
s k
2 9
ĠF re
Ġcor po
Ã¡ lia
ĠN orte
Ġ19 0
ho w
Ġcin co
Ġs t
. ,
ele Ã§Ã£o
2 7
ion ais
19 6
ĠM at
is boa
Ġmai oria
ĠLem mon
al ign
Ġsoc ial
Ã³ri as
Ġpop ular
Ġn uma
gu es
duc aÃ§Ã£o
I S
Ġpossu i
Re ferÃªncias
Ġto da
in aÃ§Ã£o
ÃŃ d
re as
inh os
pos iÃ§Ã£o
Ã©r c
Ġt Ãªm
era is
ĠW il
Ġdent ro
Ã© g
Ġpont os
Ġ199 9
Ġvers Ã£o
Ġde cl
enc ial
E s
an ce
Ġo p
ÃŃ ncia
ag e
Ġa do
om b
s erv
Ġt ipo
ĠpaÃŃs es
n do
Ġm erc
ess a
Ġd ados
rad as
el es
ĠC ast
Ã¡ b
Ġcl ube
ĠFede ral
Ġser v
e y
Ġimport ante
Ġb at
ar g
ed ia
Ġdo c
en n
ĠM o
ĠCam peonato
en ce
Ġ [
or g
Ġpap el
am e
Ġdifer entes
ag o
an n
ĠT V
rit Ã¢n
pos ta
E l
ĠAlem anha
Ġde ter
ĠM il
Ġ '
Ġen s
ĠPor to
Ġcat eg
ad eira
Ġde t
an s
A m
Ġesp a
Ġv ai
C am
as h
ec a
Ġj ornal
rad os
Ġ km
Ġrel at
Ġcham ado
Ġm Ã¡
ĠCar los
oci edade
Ġob ra
em p
Ġ k
ĠAm Ã©rica
Ã¢n ia
_ _
t t
ic l
Ġs on
Ġinf lu
pl es
Ġg Ãªn
Ġrela cion
Ġj ov
i que
Ġcan Ã§Ã£o
Ġfun cion
ol d
inh as
ĠF ac
Ġcom ent
ĠEsp anha
Ġal t
ĠV al
st ria
Ġ ide
ec h
ĠF utebol
Ġser Ã¡
Ġs ing
Ã©t ica
am es
Ġep is
Ġpro te
Ġ Â
end er
E x
Ġal c
Ġgu erra
Ġrec onhec
A T
Ġc ient
ter i
ĠU ma
v al
atura l
Ġper mit
) ;
iblio grafia
en ci
ÃŃ b
Ġ rÃ¡
4 0
Ġder ro
Ġ18 9
ĠD E
ei x
Ġtra t
Ã©rc ito
Ġout ra
ĠL isboa
Ġoc up
or ge
ad amente
Ġter min
L ista
Ġrel ig
Ġconst itu
Ġde l
Ġe f
Ġen f
ĠC ap
unicip al
oc al
o y
Ġfre qu
Ã£ e
pe Ã£o
Ġaf irm
) :
Ġinter pre
ÃŃst icas
ant as
Ġcap ital
ĠOl ÃŃmpicos
un a
P ara
h y
ÃŃst ica
ent a
ĠN Ã£o
Ġdo m
Ġqu ase
Ġl it
ĠP re
Ġfo ra
it uto
v es
Ġid ent
x imo
Ġpos iÃ§Ã£o
Ġind iv
Ġconstru Ã§Ã£o
at ivo
Ġan unci
ida e
ÃŃ g
z o
Ġob ras
Ġpar c
ĠI l
Ġp at
Ġfic ou
em ia
aix a
ÃŃ l
ĠPa ul
ĠM art
ĠI greja
. "
ific ado
Ġqu ar
Ã´n io
f il
Ġn orm
I A
Ġ20 21
ĠR a
c t
ĠCom o
ĠP res
la y
ĠRep Ãºblica
um e
I C
Ãº n
Ġinst itu
ÃŃ c
ĠM ont
ĠEuro pa
O R
Ġv enc
Ġprincipal mente
ex to
ac a
ram a
ÃŃ a
ĠV ol
ern o
Ġ #
Ġt udo
Ġl a
Ġval or
Ġm embros
rit os
Ġl ÃŃ
Ã¡g ina
Ġpont o
ĠF er
l d
ĠB e
Ġ :
6 0
Ġl inha
Ġro m
Ġv ot
Ġn ÃŃvel
Ġof er
k a
o od
is as
ura nÃ§a
and id
av or
Ġem pre
Ġdest e
ĠI S
7 8
p ro
ĠAl Ã©m
am ent
Ġ1 00
ur sos
Ġsub stitu
m ar
et t
Ġconqu ist
S e
ip e
n er
.. ..
ĠJ ap
Ġmom ento
ĠSu per
ol e
ru pos
M ar
Ġcomp os
Ġt anto
Ġposs ÃŃvel
E n
in ar
Ġcres c
Ġprim eiros
is h
v en
Ġb us
l er
Ġret orn
if ica
Ġemb ora
Ġprop ri
r er
ĠR ev
Ġat ing
Ġj unto
i ado
Ġqu er
et ro
Ã¡ ss
ĠB l
Ġingl Ãªs
ĠH e
Ġ199 8
/ /
Ġp ag
Ġag ora
Ġs ite
ĠprÃ³p rio
Ġa st
Ġf ase
Ġm o
Ġp ens
s h
Ġcent ro
Ġconhec ida
ul as
Ġmes es
Ġdire ito
Ã¢m ara
ĠÃºlt imo
Ġter ra
Ġdeter min
pres s
A N
ern a
Ġmulher es
Ġre i
Ġe r
Ġpal av
ic iais
un ca
de u
ĠS ch
ĠUn ido
et er
w ard
Ġqu anto
ant a
ĠH er
or o
os p
Ġsim ples
ut os
u i
Ġ ital
ĠT er
ĠS te
Ġt ro
ac idade
Ġdist rito
ĠIntern acional
ec imento
4 5
Ġt rop
og rÃ¡f
Ã£ es
col a
oc iaÃ§Ã£o
âĢĿ ,
ĠH ar
in c
ab ilidade
ĠAl b
Ġ x
Ġf emin
Ġl at
ĠP rim
or ld
Ġportugu Ãªs
ĠC rist
ĠP at
ĠSu a
ĠD i
ur b
Ã¢ nt
en co
Ã¡ r
3 3
ica is
ĠDe us
F oi
ĠF ern
in i
ĠPed ro
Ã³ri os
ĠMin ist
Ġm ont
Ġhist Ã³r
Ġp int
is l
ĠR om
Ġdes ign
Ġvi ol
c ri
P or
Ġapro xim
Ã©d ia
g enh
Ġmat er
L e
R es
B ibliografia
ic ular
b r
u f
id Ãªncia
em ent
Ġin depend
ĠD av
Ã³ dio
S eg
Ġpor Ã©m
ÃŃn io
ĠN os
h am
Ġfe ito
Ġele ito
Ġat ual
Ġ18 8
ĠS er
Â °
Ġbrasil eira
io grafia
Ġn enh
ic ion
B N
p s
: //
A L
ĠD ire
ĠA ust
Ġprofiss ional
r Ã©
ĠP ra
Ġel ei
Ġind ic
Ġlocaliz ada
us s
ĠAp Ã³s
ĠpolÃŃt ico
ĠX V
ar em
ĠM ed
Ġcon ce
Ġest udo
ĠL ib
Ġc el
Ġv end
Ġob serv
en os
Ġv iv
i Ãªncias
w n
Ġorig em
U m
ĠS ur
ri os
aliz aÃ§Ã£o
o ok
ĠV i
3 5
Ġv o
Ã¡ c
ĠF or
Ġex ib
it h
Ġ idade
Ġf orn
ĠB ro
ĠIt Ã¡lia
Ã ¶
Ġdis pon
eric ana
ĠS ou
ap a
p Ã§Ã£o
Ġre vel
Ġservi Ã§os
n Ã§as
m ent
7 0
g ent
it ado
Ġb ritÃ¢n
re nt
ĠA f
ĠPar is
c ho
A D
Ġin icial
Ġac om
it es
ĠlanÃ§ amento
Ġest im
om as
in k
m as
Ġprec is
Ġde u
Ġtran sp
d en
erg ia
4 8
Ġse is
Ġservi Ã§o
ĠVer Ã£o
Ġ rio
Ġpert enc
iv il
Ġcom um
Ġro man
Ġqu ad
iz ado
Ġc andid
ĠEst e
Ġpo vo
Ġapo io
Ġg rupos
Ġseguint es
Ġg ara
ĠB u
ĠFranc isco
Ġdist ribu
Ġem p
rÃ¡ s
est ival
pres sÃ£o
Ġmet ros
Ġa ument
ÃŃ cios
Ġespa Ã§o
ĠM or
Ġm Ã£e
reve u
Ġinst al
Ġcam po
ĠD u
ĠF o
ib ilidade
ĠL ond
Ġev ento
3 8
ĠH en
ĠG lob
I D
Ġde ver
Ġin ici
ĠS eu
ĠgÃªn ero
ne y
5 5
ĠÃ¡ reas
form a
Ġim pl
ra Ã§Ãµes
Ġ20 22
ran g
Ġen volv
or y
um b
Ġb ranc
rib un
ĠG al
0 8
ĠB en
ei as
Ġescol a
ou t
ÃŃde o
Ã¡ st
Ġf avor
Ġn em
Ġse de
Ġpres ente
Ġnas c
Ġf ÃŃs
ĠS an
Ġencont ra
aix o
qu i
it ura
Ġre un
Ġex ecut
ĠÃºn ico
Ġfil hos
Ġconj unto
Ġv ari
er ior
4 9
Ġf ato
ia t
Ã¡t ico
Ġpesso a
ĠM undo
j as
Ġ5 0
Ġm ora
3 9
Ġest ar
el os
cul os
Ġm embro
il e
ĠIn gl
at es
at ivas
Ġass ist
ac o
ĠP o
Ġmov imento
Ġn unca
Ã¡ cio
Ġam ericano
ĠĠĠĠ ĠĠĠĠ
ĠM ag
os se
ĠA o
re to
ac e
Ġad v
Ġaj ud
int o
ĠT em
ura Ã§Ã£o
Ġt ri
Ã ĥ
Ġest rutura
ĠespÃ©ci es
Ã£ s
ĠA lex
Ġho ras
ĠT ur
ĠS anto
ĠCl ub
Ġp riv
Ġt Ã£o
Ġel etr
Ġd ig
3 7
Ġfil mes
Ġig re
ĠQu ando
Ġl he
Ġc he
ĠUn iÃ£o
Ġdec id
ĠS ol
in ais
4 7
ei r
Ġprom ov
Ġm elh
Ġcr ist
g res
Ġpre v
m et
Ġfil ha
Ġmai ores
re v
Ġdivers os
ĠÃºlt ima
id es
ĠT ambÃ©m
ĠM c
al ha
3 6
il i
ara n
Ġcaus a
ĠU S
Ġh er
at ional
ig u
um entos
on o
ĠG ra
Ġhom ens
Ġcria Ã§Ã£o
âĢ Ļ
Ġjog ador
t ado
itu de
ĠD om
Ġcheg ou
ĠC a
c as
Ġhom em
Ġ3 1
ort al
ĠM e
Ġsa Ãºde
Ġm and
n ia
ĠH ol
4 6
ĠIm p
Ġinform aÃ§Ãµes
ĠS ec
Ġterrit Ã³rio
Ġpo t
Ġalc anÃ§
lia m
Ġv e
Ġperson agem
Ġcham ada
ĠS et
Ġdivers as
Ġar te
Ġcam p
Ġest avam
Ġ4 0
ĠL ei
Ġcir c
Ġlut a
Ġgeral mente
f eira
Ġfre nte
Ġ y
Ġnov amente
f o
b ra
5 8
it aÃ§Ã£o
Ġempres as
ĠJap Ã£o
erc ial
Ġprobl emas
teri ormente
Ġnov os
ĠB ra
int a
ĠprÃ³p ria
ĠInst ituto
ĠR od
ĠG en
ĠC ruz
Ġsing le
ĠAc ad
i Ã§a
un os
Ġ199 0
ĠmÃ©d ia
Ġg e
Ġv ir
Ġa ce
Ġmerc ado
Ġesp era
y le
y s
Ġresult ado
Ġass um
G e
Ġa er
g as
ĠG r
ĠM on
t amente
Ġf ica
ĠS im
atal ha
el mente
or i
Ġeletr Ã´n
ĠSil va
Ġpro t
Ġf ut
Ġus ado
Ġ199 6
ĠM al
Ġl ei
Ġprov ÃŃncia
Ġn atural
j am
Ġl ista
Ġcateg oria
ĠCent ro
ĠX X
Ġd im
P r
Ġcient ÃŃf
Ġc rim
J o
ĠDe pois
b e
ĠY ork
Ġest ilo
ĠIS BN
Ġtec n
Ġm odo
ĠM ic
ĠR es
b re
Ġa Ã§Ã£o
Ġ )
g ens
est re
Ġra p
Ġap re
Ġesp anh
Ãĥ O
at t
Ġdire Ã§Ã£o
Ġv el
re do
A nt
ur go
is so
Ġparticip aÃ§Ã£o
Ãº ss
Ġmod elo
ĠSant os
Ġaqu i
Ġform aÃ§Ã£o
0 9
ilh ar
Ġdire tor
Ġc idades
Ġterc eiro
gu as
od os
ra is
Ġl ogo
ĠPart ido
5 9
Ġun ivers
Ġt iv
inh eiro
ĠCl ube
iz ada
ĠI nd
Ġcont ribu
an ho
ĠB er
Ġor dem
ec ido
Ġcar go
Ġtrans form
Com o
D em
ul dade
l ine
Ãģ lb
ĠÃºn ica
R E
is po
on es
s ol
b er
ri r
Ġobjet ivo
ĠB el
Ġsem ana
il le
Ġativ idades
Ġen vi
ert ura
ĠX I
Ġb air
Ġin ic
Ġel em
Ãºss ia
c ha
Ġam pl
Ġs us
Ġcomp anh
u e
Ġt est
g ar
R O
i entes
Ġd ar
ĠCh ina
Ġfor Ã§a
- -
Ġc ost
S t
ĠEs c
Ġres t
Ġprof essor
Ġmus ical
d ores
ĠT om
Ġj an
Ġap lic
U A
Ġcompet iÃ§Ã£o
y n
Ã©t ico
Ġtre in
Ġb ast
Ġcas os
Ġro t
fer Ãªncia
C ont
Ġest Ãº
s as
Ġre de
0 6
ĠAt l
im as
ĠEst a
Ġs how
Ġcontro le
ĠW orld
5 6
ĠlÃŃ der
Ġt enha
a Ã§a
at h
L ocal
Ġele v
Ġtra dic
x ico
Ġv en
ov i
u ito
Ġloc ais
Ġqu ant
Ġcont rat
ĠP h
ic s
Ġl idera
Ġpart icular
Ġintern acional
Ġda ta
Ġdire itos
Ġrev ista
Ġ199 7
Ġt or
Ġb as
Ġproc ess
Ġc art
Ġb en
Ġconsidera do
Ġv itÃ³ria
inh am
Ġac esso
Ġprin c
Ġmelh ores
Ġant eri
so ci
Ġgara nt
Ã ĩ
E nt
Ġden om
i qu
Ġ Q
i en
âĢ ¦
ĠBrasil eira
Ãģlb uns
a ug
ĠD o
u k
at erra
Ġil ha
Ġprodut os
Ġg al
Ġdiv id
ĠD iv
part amento
v am
Ġcria nÃ§as
Ġn at
y l
Ġc ust
Ġrelig ios
Ã¢ ndia
Ġm al
ĠI r
m ento
Ġfl ores
Ġal ta
Ġs ociedade
Ã³n io
ass a
es c
ĠM Ã©
ran d
ian os
id er
Ġcor re
Ġganh ou
ĠM unicipal
le o
ĠM ais
Ġn este
ci f
5 7
Ġf ra
ĠJ ust
II I
Ġre m
O ut
Ġen ergia
ur os
O b
do u
ĠC ha
Ġre b
ve y
Ġnov as
ĠÃ į
ĠB an
Ġj ust
Ġac red
ov e
4 4
v io
Ġm ag
U ma
iv idade
aix as
ito ra
ĠR o
S S
Ġb om
ĠD urante
Ġproc ura
B iografia
ĠD an
ĠT erra
ran s
ĠH ist
ĠG o
se qu
Ġob rig
Ġfun Ã§Ã£o
ĠImp Ã©rio
x ima
un o
Ġsem elh
0 7
Ġl Ã¡
Ġ Ã³r
b ora
Car reira
ĠRe al
ĠW al
ĠC ultura
Ġfe de
ĠL ou
anÃ§ as
Ġn e
Ġp rat
Ġj ap
Ġtra z
Ġinter ess
Ġse para
um p
Ã¡t icas
b erg
Ġseg uranÃ§a
Ã© is
Ġarqu it
Ġp adr
ribun al
Ġf ront
Ġcin ema
I T
âĢĿ .
at or
av e
Ġp ais
Ġ ÃŃ
Ġdes emp
ar l
gram a
Local idades
ĠY ou
ĠG overn
Ġv ice
ĠIngl aterra
qu ele
ub es
Ġfranc Ãªs
Ġc enso
Ġdesen vol
Ġ198 0
Seg undo
ag a
ĠD em
Ġant erior
0 5
Ġsoc iais
ar da
i um
ĠJ es
ĠC Ã¢mara
E sp
ÃŃ cias
Ġter mo
Ġe uro
Ġclass ific
3 1
Ġestud os
Ġm Ãªs
C an
h ar
Ġirm Ã£o
Ġecon Ã´m
ĠB ol
ĠRec ord
j os
Ã© u
ĠC ab
Ġpesqu isa
Ġres ol
e p
et as
ĠEuro pe
Ġg era
Ġsuper ior
Ġ199 5
Ã³l ica
ĠIn f
Ġf orte
Ġse qu
Ġac ima
Ġimport antes
Ġ rad
Ġconsegu iu
Ġapro v
Ġmin utos
a il
Ġacom panh
ÃŃ du
Ã© ria
ĠPort ugu
Ap Ã³s
ĠCas a
b y
Ġor ient
eg a
Ġt ime
rim ento
Ġepis Ã³dio
ĠR oma
Ġorgan izaÃ§Ã£o
u ÃŃ
f or
res pon
Ġav al
ĠO b
Ġqual idade
Ġv aria
al idade
Ġant iga
Ġm ult
fe itos
Ġrealiz ado
id ores
ut a
Ġdest ac
ura l
st e
Ġde se
if e
Ġpr Ã©
ular es
Ġcap acidade
Ġfor Ã§as
Ġs i
M A
Ġres ta
iz ar
Ġcons um
d ia
on y
Ġportugu esa
ĠS am
Ġmin ist
Ã ¤
ĠT or
Ġf ig
Ã©c ia
Ġcomun idade
Ġsur g
it ou
r us
ĠSeg unda
Ġm undial
Ġpres enÃ§a
Ġn esta
M ed
ĠMÃ© xico
ip os
ing ton
Ġhom en
ist e
Ġl et
et ros
3 4
rÃ¡ t
Ġ18 6
Ġt ax
Ġam or
Ġa da
Ġcom ercial
ĠWil liam
am ericano
Ġman eira
k er
ĠOr dem
Ġdis co
Ġnas ceu
pos it
Ã ±
Ġat ualmente
i ados
et os
Ġass in
9 9
ĠBrasil eiro
ĠW ar
ĠCons elho
Ġsom ente
Ġv ÃŃdeo
st o
ÃŃt ica
Dem ografia
Ġsign ific
ora Ã§Ã£o
ĠprÃ³ ximo
Ġlocaliz ado
Ġliv ros
Ġdes se
Ġrespons Ã¡vel
f rica
res t
r ÃŃ
Ġed if
Ġm eu
J og
Ġp s
Ġres pe
ĠL iv
or ias
ul ado
Ġal te
ĠM et
v is
Ġenf rent
Ġjov em
r ida
Ġes qu
g on
ĠS o
Ġestre ia
ĠL eg
Ġev entos
A ss
Ġ199 4
Ġv iz
Ġrec ursos
ort os
ĠM ad
Ġdecl ara
ĠestÃº dio
Ġpop ul
Ġ ...
ĠI II
rit a
Ġjap on
Ġde put
Ġmar ca
ec em
Ġliv re
Ġat riz
Ġn Âº
ess Ã£o
Ġ i
Ġcent ral
Ġp ubl
Ġmas cul
C A
ed or
ÃŃ dos
p ar
Ġb and
Ġfaz endo
Ġt oc
Ġat or
un id
ĠR os
ĠE les
Ã¡l ise
Ġens ino
Ġno ite
e Ã§a
Ġant igo
Ġin sp
gent ina
Ġg er
g io
Ġf osse
Ġcamp anha
Ġnome ado
Ġigre ja
Ã ¨
w it
Ġesc rito
P a
ĠG ar
Ġs an
Ġbaix o
ĠSoc ial
ri as
Ġdest ru
Ġex c
ĠM ac
Ġ199 2
Ġre duz
Ġap esar
ĠE v
ĠSur vey
enh or
Ġapresent a
ĠE nc
0 3
Ġpesso al
ĠG re
h i
Ġintern a
T V
ĠCom un
Ġcond iÃ§Ãµes
Ġper to
ei os
g n
gres so
end Ãªncia
id amente
Ġcri ado
or to
P art
Ġser em
Ġsitu aÃ§Ã£o
8 8
ion s
eg o
Ġob t
Ġdec isÃ£o
ĠLond res
ĠD is
ĠW h
Ġint ro
Ġas soci
ha el
ĠJes us
am ar
Ġm ens
eric anos
S P
Ġpertenc ente
al d
Ġal to
Ġas c
r b
ol o
Ġ197 0
Ġsign ifica
Ġmor reu
ĠH a
ĠAlex and
7 7
st ru
T A
A c
S Ã£o
Ġdes sa
pos to
Ġparticip ou
en Ã§as
Ġpl an
l oc
ure za
Ġmen or
! !
i ada
Ġalem Ã£o
Ar t
U n
Ġde dic
Ġac t
ĠB r
G u
k s
y a
Ġpoder ia
Ġper m
Ġocor reu
Ġc ert
ĠC osta
el ig
Ġou ro
Ġpart ida
ĠIs so
Ġl o
r or
Ġter ia
Ġpart es
E L
Ġfe ita
f ord
ĠlanÃ§ ou
Ġocor re
Ġt inham
Ġcam peÃ£o
Ġrealiz ada
0 1
ĠR ed
Ġal tura
Ġbast ante
ri u
Ġqu est
l in
ĠS eleÃ§Ã£o
Ġm ist
J ogos
Ġaut om
ad Ã¡
id ental
ar m
F F
Ġh ou
Ġcomp ut
Ġinter ior
0 4
ĠAl g
Ġs at
form e
it s
Ġdiv ulg
Ġ urb
ÃŃst ico
ĠÃģ frica
ura do
g os
Ġm inha
Ġperson agens
Ġpre para
O r
is Ãµes
Ġfal ta
Ġdiv isÃ£o
ĠD el
Ġa umento
Ġ( "
Ġex ig
Ġb o
Ġnos so
e Ãº
Ã´n ica
ÃŃ lio
Ġcon clu
Ġan al
Ġin aug
Ġespecial mente
ĠAb ril
Ġamb os
al o
ĠSeg undo
Ġesc reveu
l l
E d
io c
Ġc rit
il la
ĠMa io
Ġf ol
ĠA ward
Ġtrabal hos
it ed
Ġel as
N Ã£o
Ġacab ou
Ġresult ados
ĠEs cola
Ãªm ios
Ġus ar
ov a
c he
ĠM u
ĠAss im
Ġfer ro
to do
Ġco le
Ġre vol
7 9
ĠV ila
ou s
ĠM inas
l am
Ġconf irm
Ġesp osa
nt a
ĠP an
ĠF estival
du stria
ĠR Ãºssia
Ġat ribu
Ġh ip
ap ar
ra ntes
Ġamb ient
Ġterc eira
Ġse te
w a
Ġb oa
im es
Ġe ducaÃ§Ã£o
Ġmater ial
E C
osp ital
Ġaj uda
Ġde les
Ġter mos
of ia
ĠL iga
ÃŃ ci
ĠB ah
Ġpre m
Ġn ada
ĠOl iv
or iz
Ġaproxim adamente
Ġcant ora
ist Ãªncia
ora do
s ia
enho ra
Ã¡ dio
Ġ199 3
ĠV ic
Ġlev ou
ww w
Ġbair ro
ĠpÃºbl ica
ĠCal if
Ã¢n e
Ġreg iÃµes
ĠL uc
ed ores
Ġra z
ord en
Ġre ce
Ġfin anc
ĠG eral
it er
Ġj ur
l ing
Ġsegu ida
ĠAl l
Ã¡t icos
et h
ac t
ĠO c
Ġass ass
es qu
P ol
Ġnos sa
ĠS em
it ada
Ġpro va
Ġsu f
a e
id entes
Ġcol et
Ġrec or
ĠAr m
d ado
ĠD ez
ci pe
Ġsent ido
ig as
ri que
ĠO n
ĠEnt re
Ġd Ã¡
Ġm em
Ġcontra to
Ġf aixa
unid ense
Ġc ruz
Ġel im
ĠJ ulho
ĠO ri
pera dor
Ġf ech
Ġv ivo
ra p
Ġal iment
ĠC O
ĠSet embro
Ġcont eÃº
ende u
Ġc ul
al t
Ġcan al
am ÃŃlia
Ġada pt
at Ã³rio
5 4
P er
ĠSec ret
Ġsu p
ĠrÃ¡ p
ĠE UA
on el
Ġden s
Ġpos teriormente
Ġt ril
Ġcl asse
Ġ199 1
Ġcor respon
Ġcomp lex
0 2
Ġrepresent a
201 0
em at
rat iva
Ġex erc
at er
Ġt exto
g ress
ĠC in
eb ook
Ġanim ais
Ġal go
ic ina
Ġequip es
Ġcri ar
Ġf undo
ÃŃn cipe
Ġcur so
ma il
Ġe ta
Ġres pect
ĠT o
ĠG rupo
Ġt am
Ġex Ã©rcito
ĠAcad emia
Ġin clus
Ġpublic ado
S T
Ġart igo
Ġtem a
Ġv ista
Ġver d
Ġess es
ĠO f
I nt
Ġm Ã©
Ġdeix ou
Ġde mon
Ġver dade
ĠCom p
5 3
Ġamb iente
ĠPr Ãªmio
ĠM y
ĠCam p
el ha
Ġcob ertos
a qu
om ar
ĠMinist Ã©rio
Ġim agem
ar ina
Ġa Ã§Ãµes
Ġus u
Ġb ol
us Ã£o
Ġex clus
Ġs ac
oc idade
ess ores
Ġentre v
era tura
6 6
ĠM el
ĠOut ubro
w ay
re ver
Ġjog adores
Ġgu itar
Ã©d io
Ġprobl ema
Ġa ud
Ġt ais
Ġsol o
Ġd inheiro
ĠH istÃ³ria
Ġs ens
ĠD ou
Ġest aÃ§Ã£o
ac to
ian do
Ġmant er
T ra
ĠDav id
Ġide ia
ĠA le
Ġoc as
Ġen genh
L a
Ġo ito
. )
Ġvot os
4 3
h an
Ġpart ido
Ġl uz
Ġa leg
Jog adores
Ġap l
Ġelem entos
b ia
ĠB as
es as
rÃ¡ lia
ĠR ib
B C
Ġindiv id
Ġn Ã³s
Ġab and
Ġb an
gues ia
Ġprim eiras
am ental
ĠV en
Ġcom and
Ġ196 0
ut e
ĠA z
ĠD ist
Ġel Ã©t
ĠE r
l or
Ġde le
Ġ198 8
Ġinvest ig
rat Ã©g
200 9
ĠAg osto
id ro
ĠTra bal
Ġtem pera
in ada
l im
Ġpass a
Ġfo t
Cam peonato
Ġcon cor
cia is
Ġart ista
w e
at s
int e
Ġd ific
k y
Ġar g
Ġtrabalh ar
ĠMar Ã§o
Ġ +
Ġr us
Ġcas t
ĠM elhor
Ã©r cio
Ġper d
200 1
Ġqu il
Ġinst r
ĠLu ÃŃs
Ġanunci ou
" |
ĠC atal
Ġinter esse
Ġd in
ĠJ unho
Ġdemon st
c am
Ã©ri es
ĠT el
e an
oc Ãª
ĠC ur
iblio t
Ġcl Ã¡ss
era s
v ida
Ġf iz
ĠT ribunal
ÃŃ rito
m er
n os
Ġcap az
Ġf ab
Â »
T O
ĠB io
Ġtorn ar
av elmente
Ġespec ÃŃf
Ġcol abora
ific ar
ol is
Ġa me
ĠP op
ĠB a
Ġac us
Ġpr Ã¡tica
ĠmÃºs icas
Ġal ign
Ġp ers
Ġpl ane
Ġcas amento
ĠF und
ec endo
Ã³d ios
ĠG on
Ġativ idade
it ando
C as
i us
ar k
200 7
Ġsist emas
Ġv em
Ġexper iÃªncia
Ġet c
Ã¢n ica
en e
ĠCon c
l he
A M
Ġl ingu
Ġelei Ã§Ãµes
ĠCon stitu
Ġtorn ando
Ġdens idade
pre n
Ġa go
olÃ³g ico
ram ente
emb le
ad re
ing s
w are
ĠG erais
Ġdev em
Ġcom er
7 6
w s
m y
Ġtrat amento
Ãº stria
200 8
ĠRod ri
Ġleg isl
Ġus ando
ĠAr gentina
Ġdirig ido
ĠH o
Ġpass ado
Ġcom ando
Ġv ig
ĠA ra
3 2
Ġg re
ĠÃºlt imos
Ġre dor
Ġp en
Ġcresc imento
Ġprinc ÃŃp
Ġdo min
an ia
Ġcomp re
Ġpos it
ĠPro f
ĠNov embro
Ġquar to
v os
Ġsuper f
Ġmost ra
Ã¡ n
ĠN E
Ġ198 9
ip l
Ġav anÃ§
ĠD ec
ĠCent ral
Ġexist e
T h
ĠFern ando
ĠH el
Ġreceb er
201 1
ici ente
Ġco isas
Ġcomp ara
Ġcon cent
Ġmilitar es
Ġindiv ÃŃdu
Ġab aixo
ĠD a
Ġh on
ĠMus ic
el la
Ġst yle
ĠM en
Ġm ec
Ġs in
ar s
Ġte oria
pos tas
Ġben ef
ĠCh rist
k i
Ġart istas
un ha
9 8
Ġbus ca
Ġpl ano
Ġconhec imento
Ġcaracter ÃŃsticas
Ã³d igo
Ġo este
Ġneg Ã³
Ġm ol
Ġc ha
ic ar
5 1
ĠJ Ã¡
on as
201 3
C O
Ġno mes
I L
__ __
ĠAust rÃ¡lia
ĠS en
ĠJ ul
ot as
Ġv est
e ia
Ġpequ ena
ĠD r
200 6
Ġnenh um
Ġcri ada
at ivos
Ġinsp ira
E M
ĠAss ociaÃ§Ã£o
st er
Ġess as
Ġprogram as
ia Ã§Ãµes
Ġmu dou
ter ior
Ġro ck
ĠCan adÃ¡
Ġde pend
ĠD on
Ġrec up
Ġcam inho
Ġafirm ou
a Ã§
Ġinterpre t
Ġe vol
Ġ198 6
ed ades
Ġent rada
5 2
ĠAp esar
ĠEx Ã©rcito
Ġsub st
te ve
Ġf lu
r ico
i ou
Ġb al
ĠB at
ilh as
Ġent rou
Ġgol s
ro und
201 2
Ġvol tou
Ġsab er
Ġconf l
ĠGlob o
Ġimport Ã¢ncia
ĠM iss
Ġat let
z es
ĠL at
Ġven ceu
ar y
emble ia
ĠS enhora
il ha
ĠXI X
ĠN e
ig uel
ĠBah ia
ul l
il iar
un as
6 8
ram ento
Ġecon omia
ĠRob ert
Ġsobre v
4 1
Ġtradic ional
âĢ ľ
Ġencont rar
Ġescrit a
Ġb ilh
f l
ĠD ia
id or
Ġdem ais
Ġint ens
Ġnat ureza
ĠDez embro
Ã³r ico
Ġmed ida
era r
I m
Ġ6 0
ĠMus eu
Com part
ĠE u
Ġdef esa
ĠV ir
Ġde b
Ġcam peonato
ĠPres idente
Ġest es
Ġeuro pe
ĠSa Ãºde
B rasil
ow n
ĠE ducaÃ§Ã£o
Ġapre nd
ra el
ĠJ ames
Ġalt ern
olÃ³g ica
ĠJ ack
Ġm ac
Ġcar ro
ec to
ĠS port
ĠT r
Ġman if
Ġro d
Ġpass ar
cri Ã§Ã£o
it am
ĠUnivers ity
ĠJ er
Ġab r
Ġl ic
Ġjunt amente
Ġcons erv
ĠA v
Ġata que
er dade
ve u
R ec
Ge ografia
C I
4 2
N asc
ix o
ĠAm b
Ġpalav ras
oc up
Ġsec ret
Ġ( )
200 4
port un
ud io
ĠMil itar
Ġestad unidense
ĠN eg
ĠJ u
ur n
it Ã£o
Ġform as
ĠÃ³r g
Ġfemin ino
Ġs ele
B A
Ġret ira
g ra
ob re
ian Ã§a
Ġf ev
Est e
ĠA ut
Ġm ic
F C
i j
ĠT ec
" )
M embros
Ġescol h
D urante
ai u
ac ea
Ġpequ eno
elh os
ot t
ĠJ orge
ĠW e
ĠP ont
ar n
Ġac ess
ra gem
Ġd rama
Ġarm as
Ġt ipos
it ores
k et
Ġata c
E le
Ġl este
Ġim edia
fe itura
Ġc aval
ĠR ock
Ġh tt
ĠH um
pren sa
Ġat rÃ¡s
f t
ve z
Ġport anto
ÃŃ das
Ġprodut o
Ã© re
ĠlanÃ§ ada
Ġnecess Ã¡rio
ĠP ress
gram as
b ack
h es
ĠS y
Ġv oz
e k
Ġprop or
ac ia
ÃŃl ias
es p
ĠcrÃŃt ica
Ġpro mo
ĠS ub
ÃŃde os
Ġinform aÃ§Ã£o
h ou
ik e
Ġc icl
Ġn ar
Ġa de
ĠF in
Ġou v
o to
Ġt rib
Ġver m
i i
unicÃŃp ios
Ġtermin ou
Ġjov ens
ĠÃ ¢
id ado
Ġcomp ort
Ġdifer ente
S u
Ġfic ar
Ġdig ital
Ã³r nia
j ect
Ġt ex
unt os
Ġfut uro
ĠPa ÃŃs
ĠGovern o
Ġinflu Ãªncia
Ġtrans fer
ĠC iÃªncias
iss Ãµes
Ġcontro l
Ġutiliz ado
is ion
ec Ã§Ã£o
Ã¢n ico
Ġtorn a
Ġquant idade
Ġtrans m
200 5
Ġhum anos
iz a
ĠCh ar
of f
R I
Ġgovern ador
wit ter
ĠP Ãºbl
Ġprojet os
ed es
ĠUn ited
ĠSal v
C ol
Ġalg uma
ot os
er va
Ġdiz er
en Ã¡rio
Ġel enco
Ġpalav ra
Ġz ona
Ġal unos
ec k
ĠR ich
Ġcab eÃ§a
Ġres posta
d iÃ§Ã£o
Ġgen eral
ĠconteÃº do
7 5
Ġsu st
Ġan Ã¡lise
Ġqu estÃ£o
h Ã£o
ĠOliv eira
et es
Ġpadr Ã£o
Ġam igos
ÃŃt ulos
ĠQu e
Ġingl esa
Ġl emb
Ġestre ou
Ġ isto
iel d
ĠÂ «
Ġpl ata
Ġs int
at as
ĠF I
end imento
Ġun idades
om es
ĠcientÃŃf ica
Ġo portun
Ġvel ocidade
Ġa ux
ĠL os
il idades
ĠD ev
t es
el iz
ĠR en
200 0
Ġconquist ou
ĠE ss
Ġem isso
u ri
201 6
Ġrela Ã§Ãµes
ĠF evereiro
Ġa z
acea e
A b
ĠG a
Ġtem pos
Ġat enÃ§Ã£o
9 6
os ofia
Ġmot or
n es
Ġes quer
Ġext ra
Ġest ratÃ©g
ul d
ĠIn v
n g
Ġcont r
Ġcol on
Ġestabel ec
ĠRev ol
P rim
p ens
Ġj ulg
an i
Ġcan Ã§Ãµes
Ġbase ado
Ã¡ x
ĠG ab
Ġvoc al
Ã³ f
Ġ198 7
Ġt h
ĠM od
Ġcheg ar
Ġcel eb
Ġ Ã³
ir ma
i res
Ġescrit or
ĠAnt on
int er
Ġ3 5
ĠE du
r ido
us a
ĠAr qu
ard im
ĠMar c
Ġinclu i
Ãªn io
ak e
dustria l
Ġrefer Ãªncia
Ġinclu em
ic t
ĠA ugu
s es
Ġte atro
Ġp as
sk i
ec ial
Ġsu ger
Ġ198 5
ĠP oss
ĠI or
ĠH om
pl o
en volv
ĠDire ito
Ġco isa
it ais
U S
ĠB and
Ġcomp art
ĠB ranc
Ġ â
ia go
A g
Ã³ m
oc ra
ĠB ern
ĠNos sa
er m
ĠG l
Ġun idade
ĠEs sa
Ġper ceb
Ġac ad
ĠC D
Es c
Ġtrans mit
Ġin cor
Ġmud anÃ§a
ĠpolÃŃt icas
r v
Ġperm ite
ÃŃci e
201 4
Ġaband on
R eg
Ġt ab
Ġcon forme
ht t
Ġest rang
d ios
Ġest ados
Ġrec om
ĠE ra
Ġb i
T E
Ġb atalha
Ġef et
or ta
ĠI V
Ġcond ado
Ġbaix a
Ġlon ga
em Ã¡tica
Ġtempera tura
Ġ198 4
ele f
8 0
ro v
Ġtorn eio
A d
est ra
Ġb y
Ġprofiss ionais
Ãĩ ÃĥO
or da
ĠS ab
Ãº c
Ġsegu ir
ĠIor que
Ġespanh ol
Ġs eleÃ§Ã£o
9 0
ĠI nc
Ġpre t
Ġcant or
Ġc int
it Ã¡rio
ĠFl or
Ġcome Ã§a
Ġcomun a
ÃŃd ia
Ġv isto
Ġch in
i ores
Ġab ertura
Ġb eb
Ġfun Ã§Ãµes
Ġtiv eram
Ġexist em
Ġvol t
H Ã¡
ĠC idade
Ġ198 2
Ġc ivil
Ġdim inu
Ġpropri edade
ĠG il
ura r
Ã³r m
Ġm elho
com o
ĠPrim eira
Ġpe Ã§as
ei Ã§Ã£o
I V
Ġus ada
Ġtecn ologia
Ġhomen agem
ĠMan uel
Ġser Ã£o
Ġtam anho
man n
Ġ8 0
Ġaer on
Compart ilhar
ist ema
Ġpa ci
201 5
era t
Ġes for
Ġescol as
ĠJust iÃ§a
il ar
est er
ĠAm az
Ġrespe ito
Ġn esse
ĠAnt Ã´nio
Ġestad ual
ĠCalif Ã³rnia
ĠtÃŃt ulos
ĠRecord s
Ġdo ut
o ta
Ġcom Ã©dia
Ġcon sequ
Ġint it
Ġe feito
Ġsex o
Ġc idad
ĠmunicÃŃp ios
Ġvia gem
ĠL ife
n Ã¡
Ġmascul ino
oc rÃ¡t
ol it
ĠT al
Ġf ug
ta gon
Ġ it
Ġconv ers
ĠMic hael
O L
Ġajud ar
Ġhou ve
Ġclass ificaÃ§Ã£o
Ã³ st
Ġp Ã³s
Ġcomun icaÃ§Ã£o
Ġdeix ar
Ġm Ã£o
Ġ3 6
ĠP en
oc h
Ġconsidera da
Ġfranc esa
Ġim agens
ĠB on
Ġval ores
Ġche fe
p as
ĠPal omar
Ġinici ou
Ġ7 0
rav a
Ġtransp orte
Ġdes p
ul ta
Ġam igo
El enco
ĠNov o
Ġdeput ado
ert as
se g
Ġdes af
Ġdoc ument
Ġv ila
Ġmus icais
Ġpo d
ĠD O
Ġcultura l
Ã į
ĠIn form
ĠC ivil
on ia
ern os
Ġdisput a
ant ino
Ġsem anas
Ġplane j
und os
ĠRe de
Pro gramas
Ġmet ade
Ġig ual
ĠCrist o
ĠM iguel
Ġesp e
Ġpre ocup
ĠNE AT
Ã³ is
p ira
Ġdes enh
ĠR ei
re am
Ã©g io
Ġe feitos
qu ela
Ġor den
Ġdist Ã¢ncia
ho p
Ġprodut or
r ing
ĠE g
ĠN ot
Ã´ s
Ġtrabalh ou
ĠÃį ndia
| |
ĠB al
ĠpolÃŃt icos
el aÃ§Ã£o
E D
m b
M as
Ġop in
P ar
M unicÃŃpios
op h
ĠT our
ed ido
ĠDe f
Ġm assa
Ġfede ral
Ġter ras
Ġfac il
Ġcontr Ã¡rio
A C
Ġest at
201 7
ĠF az
N os
ĠH ou
is o
P l
Ġho ra
Ġrealiz ar
ĠEm bora
ĠmÃ©d ico
ÃŃt ulo
r id
w ood
pe Ãµes
Ġm issÃ£o
g en
v ers
an y
Qu ando
Ġepis Ã³dios
ĠL et
Ġcu ja
200 3
Ġam ar
ĠeletrÃ´n icos
Ġ195 0
Ġnecess idade
Ġinicial mente
Ġh or
Ġanteri ores
T e
ĠrÃ¡ dio
encia is
Ġg estÃ£o
Ġsab e
Ġdesta que
os os
gu ai
s al
Ġcomp osta
Ã³p ter
ĠN or
id ar
A st
Ġcl ubes
Ġpr Ãªmio
Ġfre guesia
Ġadminist raÃ§Ã£o
Ġ ram
Ġb log
Ġpre feito
Ġ198 3
Ġital iano
ĠD in
ĠtÃ©cn ico
Ġv ÃŃt
Ġinf ant
Ã¢n ea
Ġs en
Ġc ump
Ġbranc o
Ġpar ece
Ġex press
Ġnenh uma
Ãµ e
ĠtÃ©cn ica
ort h
Ġprov avelmente
et ura
Ġc Ã³p
ĠFran k
A o
Ġart es
Ġv on
op orto
Ġf aixas
ĠbritÃ¢n ico
lo w
re c
Ġ20 23
Ġper gu
ord este
Ġmag n
Ãºs ica
ub a
ĠS ha
ĠA ir
Ġa ust
ei ramente
Ġdo enÃ§a
ĠDiv isÃ£o
ĠB ras
eric an
ur t
Ġpopul acional
ĠGe orge
Ġre le
x o
Ġcu jo
ĠmÃ©d io
v ar
ĠhistÃ³r ico
ĠEst ad
or ial
id Ã£o
Ġfront eira
Ġc Ã©l
Ġroman ce
um in
De pois
Ġparc eria
pos tos
Ġdecid iu
ĠPaul ista
Ġconce ito
re l
d ivers
Ġintro duz
g round
us sÃ£o
Ġtorn o
if icaÃ§Ãµes
Ġre des
Ġ197 9
Ġpossu em
ĠÃŃ nd
Ġexist Ãªncia
8 6
anh Ã£
up la
ĠCon dado
ĠCh amp
z er
Ġind Ãºstria
ing o
Ġqu ÃŃm
M ais
Ġtur n
Ġd ado
Ġcont ato
Ġv isÃ£o
Ġsele cion
ĠP apa
Ġs el
Ġtrop as
Ġrap idamente
on so
qu et
Ġv eio
U N
mit h
' '
Ġp ros
J os
u ch
Ġ197 5
at us
ĠO uro
P ort
Ġform ato
Ġfund ada
ogrÃ¡f ica
b urg
v ÃŃncia
ĠA Ã§
Ġ ult
ul s
ĠCat arina
Can Ã§Ãµes
em por
om o
Ġin fer
ibliot eca
Ġant igos
Ġfo nte
amb a
ĠAng eles
Ġf ort
Ġat ra
Ġcomb ate
Ġl inhas
ib a
ĠAle gre
200 2
ĠN ic
Ġedif ÃŃcio
u co
Ġfam ÃŃlias
esso as
s ch
ĠS Ã©rie
ist em
Ġ Ð
Ġv Ã£o
Ġmed alha
con s
ĠW est
ĠM i
ov er
9 7
ĠHen rique
ĠH ot
k o
Ġoriginal mente
Ġpro tagon
Ġof iciais
Ġm ÃŃn
Å į
Ġt it
Ġfrequ entemente
Ġcomp osto
Ġrec on
ric h
ĠprÃ³ xim
Ġqu art
Ġapar ece
ĠC e
ĠL ima
Ġ197 6
ĠL ove
Ġespe cif
Ġinterna cionais
Ġno vel
Ġfaz em
Ġse jam
Ġ9 0
ĠP lay
ĠPor Ã©m
Ġraz Ã£o
Ġb el
and as
ĠE con
Ġen vol
ĠprÃ³ xima
ĠAss embleia
Ġproduz ido
Ġcar ta
Ġdistribu iÃ§Ã£o
orm e
ÃŃ culos
Ġest eve
Ã³rm ula
ĠReg iÃ£o
Ġ ....
ĠcomeÃ§ aram
p et
t ra
Ġf rut
ĠB ot
ÃŃs s
Ġsobrev iv
Ġob teve
Ġset or
Ġg lob
ir os
Ġim perador
Ã©ri as
Ġprec isa
d iv
Ġr isco
Ġquar ta
Ġeta pa
Ġelei Ã§Ã£o
ioc ese
ĠF el
Ġg Ã©n
iz ados
ĠEs se
ĠN et
Ġ198 1
Ġ197 8
ĠBar b
Ġdire tamente
um as
ĠCom issÃ£o
ĠR el
Est a
ÃŃc ulo
ov o
Ġext rem
ĠFac ebook
iver so
Ġcas ou
Ġsequ Ãªncia
uro u
ĠAl f
ĠAnt Ã³nio
ur y
Ġpos t
ĠR am
Ġapresent ou
Ġcontinu ou
Ġvir t
v ille
Ġcont Ã©m
ig h
Ġpro posta
ĠPara nÃ¡
Ġsust ent
Ġcap tura
Ġco orden
Ġ197 4
idad os
Ġpr isÃ£o
i ev
ĠP od
c ulo
um o
ĠSalv ador
Ġmud anÃ§as
I M
Ġfil m
per ial
P o
Ġcom em
ĠC el
N A
Ġdesc ritos
ist Ã£o
ÃŃc il
in ados
Ġdesemp enho
ĠJ ac
Ġb Ã¡s
p la
Ã³ qu
Ġent rar
Ġcoment Ã¡rios
Ġinclus ive
Ġparticip ar
ĠR ic
Ġpe Ã§a
Ã¢nt ico
ĠH Ã¡
Ġtax a
re ia
p est
Ġvia j
er e
ult ados
ern amb
Ġw eb
Ġdet alh
Ġbrasil eiros
Ġal i
Ġde cor
ÃŃ ram
rig ht
Ġ ros
ĠJ un
ĠV is
Ġd upla
envolv imento
ĠfÃŃs ica
8 9
ĠFac uldade
ĠO p
ĠFer ro
em po
Ġcria nÃ§a
ĠAd minist
ĠAnd erson
Ġfor Ã§
Ġreg ular
Ġtot almente
ol ina
Ġhist Ã³rias
Ġindepend ente
k ing
Ġev itar
P S
ol l
il d
ura da
Ġco ok
ĠG ro
; "
Ġpres t
Ġse d
Ġsuperf ÃŃcie
ĠV itÃ³ria
Ġfinal mente
Ġn aturais
ĠCon gresso
ĠW eb
Ġoficial mente
g ica
P al
Ġin im
ĠT rans
Ġdes ses
Ġde p
ens es
Ã³ i
S ite
Ġson ora
ovi Ã©tica
Ġde la
Ġgra du
ĠDes de
ro f
enh am
ir l
end as
Ġade qu
Med alh
ĠPer eira
ĠC ity
Ã© rea
Ġcompos itor
re i
est rutura
Ġcond en
R io
Ġru a
ĠM erc
Ã³ veis
Ġpres sÃ£o
Ġmen cion
Ġcompanh ia
Ġpl antas
ĠC ir
ĠM ich
os c
ĠF orm
Ã©ri os
ash ington
Ġper deu
ĠC aval
ic ado
l ov
ĠE qu
y m
Ġm Ã£os
Ġna cionais
Ġc ores
Ġlev a
bal l
ĠInt er
ĠT im
Ã³l ogo
ĠPortugu esa
Ġg ost
Ã¢n cias
Al Ã©m
Ġdif ÃŃcil
V D
Ġcomp rimento
C idades
Ġex ce
Ġreal idade
Ġv ide
Ġl es
Ġirm Ã£os
ĠS oci
Ent re
ran sp
ĠAn a
Ġl ar
Ġjornal ista
Ġcri ou
x e
Ġemisso ra
ens is
ĠFI FA
Ġcomp rom
Ġps ic
Ġprocess os
do m
199 9
a ut
Ġd Ã³l
Ġpart idas
p ol
Ġconstru ÃŃdo
uc le
ĠBl ack
s u
ĠO t
Ġpou cos
Ġb ot
âĢ Ķ
sp an
ĠAward s
ĠLu iz
201 8
Ġol ÃŃmpicos
Ġempre g
Ġautor idade
ĠS om
ĠCor eia
ĠCat Ã³lica
ĠCon st
Ġpass ando
Cl ass
Ġinstitu iÃ§Ã£o
eg et
Ġfal ar
Ġg eraÃ§Ã£o
Ġres id
sh ip
ing les
Ġpesqu is
r ina
E u
Ġ197 2
ĠAt ualmente
ĠM ov
ĠEn quanto
of t
7 2
ado ras
ud os
Ġesp ect
Ġpres erv
Ġv it
Ġopera Ã§Ã£o
Ġcas as
um es
Ã¡ cia
Ġb anc
Ġmand ato
Ġb io
Ġc osta
Ġpor ta
Ġ197 3
Ġestim ada
ic ou
Ġpara l
E I
t il
les c
Ġimp ed
Ġad ic
ĠPoss ui
Ġon line
jet o
Ġped ido
ĠAr te
rad or
a u
Ġob ter
Ġra io
Ġ197 7
Ġsemelh ante
G C
av o
in f
Ġb ispo
Ġ193 0
Ġlug ares
Ġus ados
P Ã¡gina
Ġcont in
Ġnorm almente
Ġpres id
Ġre form
oc l
ific ada
Ġ4 8
Ġadv og
h en
Ġc iv
Ġ196 8
u res
ĠJ ean
ad ura
Ġlit eratura
ĠMart in
e ph
ri f
Ġital iana
Ġaf et
ĠArt es
Ġhtt p
Ġno ta
Ġmarc ou
ilo to
Ġre almente
aria mente
Ã³pter os
ar ou
M an
en ov
ĠN aÃ§Ãµes
Ġcom Ã©rcio
ĠÃ¡ rv
Ġmar ido
Ġprogram aÃ§Ã£o
ÃŃm bol
Ġhum ano
nt o
Ġre ais
E P
ĠFl ora
rop olit
ĠS c
Ġacont eceu
Ġfo ntes
Ġc orte
Ã³n ia
ĠpÃºbl icos
Ã´n imo
Ã³p olis
Ġcoment Ã¡rio
ia nte
aliz ado
B T
Ġf ix
7 3
7 4
aria m
Ġ196 4
Ġlev ar
Ġmet al
ĠH am
Ġnav eg
S ub
Ġter m
es ia
ĠS ociedade
ro ta
ĠDan iel
7 1
Ġpes o
ros s
n y
l ado
Ġcor rida
Ġtril ha
ĠTe atro
is sa
Ġaf irma
d i
do ra
Ġfund amental
ĠEstad ual
is mos
ic idade
s en
Ġde co
9 5
Ġprov oc
E T
L iv
Ġest as
uv ent
Ġhist ori
M elhor
Ġpublic ada
Ġad icion
ra ram
Ġter Ã¡
Ġg ente
Ġtem pest
V ida
Ã©r ito
Ġirm Ã£
Ġlocal idades
P at
Ġesc rav
Ã ĵ
ell i
ĠEdu ardo
d ados
ĠS Ã©r
ĠV as
ĠS erra
Ġrep ro
Ġquest Ãµes
Ġem o
ste in
Ġcer to
Ġfig ura
Ġvis it
Ġc ic
ĠS enhor
Ã¢m ica
on de
ĠChar les
Ġpres entes
ĠI N
Ġopera Ã§Ãµes
ron ze
ass em
Ġcr ise
ĠT re
ĠB il
Ġnos sos
Ġ5 00
Ġturn Ãª
Ġobjet o
Ġ rit
Ġarm az
Ġd ipl
ar ca
H ist
Ġper da
ici Ãªncia
Ġno ve
ru p
Ġesp ort
rit as
Ġm unicipal
Ġproc ed
Ġg rat
Ġaut ores
Ġapresent ar
Ġil ust
Ġassum iu
Ġcat Ã³l
ĠR oy
ĠP Ã¡gina
T el
Ġaqu eles
Ġpequ enas
Ġd ando
s or
Medalh istas
gu Ã©m
ac ial
ĠM ot
ir it
ĠBio divers
Ġpubl icaÃ§Ã£o
ĠA inda
Ġreg ime
av es
eb ra
os as
Ġ194 0
u cion
Ġtrabal ha
ul ada
ĠM ach
Ġres erv
t ica
ĠT witter
ĠRob erto
Ġpass agem
Ġf at
ĠIs rael
Ġentrev ista
ĠcrÃŃt icas
ĠBras ÃŃlia
Ã³ vel
ĠRich ard
A B
Ġverd ad
Ġincor po
A P
Ġpequ enos
ĠR ua
val ho
Ġapresent aÃ§Ã£o
im p
Ġcint ura
s c
pres as
ĠAlg uns
c Ã£o
ĠFer reira
Ġj orn
Ġinstitu iÃ§Ãµes
ĠmÃ¡ qu
ĠI ta
ust ria
ĠA st
is m
Ġast ero
ĠK ing
ĠS P
Ġmater iais
Ġrespect ivamente
G rupo
Ġhum ana
C at
ulher es
Ð °
Ġtent ativa
ĠW ashington
ÃŃf ico
Ġdever ia
Ġim prensa
ĠT odos
Ġlib erdade
ec o
Ġf en
ĠP et
D B
Ġsa ÃŃda
ĠS pe
Ġcompos iÃ§Ã£o
C ap
ĠnÃºm eros
Ġinv as
ĠF a
Ġparticip antes
ci pl
Ġpro ib
ĠP i
Ġlev ant
ĠIntern ational
ĠGen eral
ĠPh il
u iz
Ġencont ram
ĠM end
Ġam ericana
Ġtem as
cor e
ĠFund aÃ§Ã£o
y cl
r Ã£o
ar te
Ġre d
ĠP ass
8 5
Ġpol ÃŃcia
Ġnav io
m en
Ġintern et
Ġfin ais
Ġrod ada
n ologia
Ġpublic ou
Ġcon duz
199 8
qu is
Ġpot encial
p es
Ġel abora
ĠAm erican
Ġde riv
Ġus a
rim Ã´nio
Ġt elef
M a
ĠM ora
Ġfe itas
is p
ĠP ac
ĠPar que
it Ã¡ria
is f
S a
Ġ196 9
ĠS el
Ġm er
Ġjur ÃŃd
Ġp az
C opa
ĠSu Ã©cia
ĠM ay
in Ã¡rio
Ġdes apar
Ġb ra
ĠJ a
ĠDist rito
Ġw ith
ĠIl ha
u Ã§Ãµes
Ġs ou
Ġ197 1
Ġform ado
Ġatu ou
olÃ³g icos
R S
T re
it z
Ãº st
Ġb on
ec eram
A nd
ĠV ale
C or
Ġpass ag
panh ia
ual idade
uld ades
eix e
Ġrealiz ou
Ġdesc onhec
Ġmod elos
Ġtrop ical
ch er
iliz aÃ§Ã£o
ĠSt ud
Ġcandid ato
Ġrep et
Ġminist ro
Ġd Ãº
Ġfer ram
ria n
ret anto
Ġobjet os
f era
v as
ar Ã£o
Ġn essa
Ġ4 9
Ġrealiz aÃ§Ã£o
ĠN atal
Ġescol ha
ÃŃt io
Ġgu er
Ġpre fer
C al
P res
ĠN as
Ġvers Ãµes
Ġg l
Pro f
Ġposs ibilidade
og raf
Ġind ÃŃg
Ġfiz eram
Ġprote Ã§Ã£o
ĠM es
Ġtrein ador
ra to
et te
ortal eza
Ġap os
rÃ¡f ico
Ġderro ta
ĠSt ates
j i
ara s
n Ã£o
Ġconhec idos
Ġdom ÃŃnio
ĠtÃ©cn icas
te d
Ġpar l
ĠT ex
udo u
ĠAÃ§ ores
E v
Ġguitar ra
Ġv enda
ĠP S
P re
ĠSu pre
in n
c r
Ġhavia m
ĠdÃ³l ares
Ġcom uns
ent ais
ĠTh omas
ĠN ational
Ġme ados
Ġsimples mente
Ġesquer da
ei bol
Ġapro ve
ĠV an
Ġespec iais
ĠSt ar
ĠF al
T C
ri el
t al
Ġvend as
S em
ĠDe partamento
Ġpra zo
ĠC ON
Ġado lesc
b ro
D o
ĠdÃ©c adas
el s
ĠLe on
e us
Ġdis posit
Ġmem Ã³ria
Ġcont exto
S h
Ġmu ita
ĠindivÃŃdu os
Ġcons ci
Ġab sol
Ġb omb
Ġv in
Ġb a
P ost
Ġdia nte
U L
pres idente
Ġsal a
Ġapar eceu
Ġtem os
ent as
ric ultura
Ã³g raf
Ġt ira
Ġm adeira
ĠS cho
Ġatu aÃ§Ã£o
ĠConstitu iÃ§Ã£o
ec ida
ri qu
ĠB ur
Ġcomplet o
ĠCast ro
et y
ã ĥ
or ou
ĠE p
Ġfo go
Ġac idente
Ġc ort
Ġnav ios
adr id
ÃŃ Ã§a
ĠH on
Ġt op
ĠE t
jet os
ĠT a
ĠV I
in Ã¡ria
Ġcur sos
Ġsec und
G al
Ġtra diÃ§Ã£o
Ġj ud
Ġp Ã¡gina
Ã¡c il
Ġaut o
Ġn ÃŃveis
ĠEsp ÃŃrito
g ia
ĠS on
Ġpos to
ag os
Ġdire to
at Ã³ria
ec ia
po t
Ġdis p
Ġperman eceu
Ã´m etros
ĠPro c
ĠF C
Ġint elig
Ġapo nt
unda Ã§Ãµes
Ġanteri ormente
ĠSer vi
un cia
Ġmed alh
ĠCor po
v enÃ§Ã£o
ĠM er
ios o
Ġcas al
Ġha ver
Ġ riv
ÃŃst icos
n aval
Ġa us
ĠO pera
ĠF inal
Å Ĥ
ÃŃ dio
Ġel og
ĠG oi
Ġre mo
ĠIs abel
Ġ196 7
P essoas
de ia
Ġanunci ado
ĠmÃ© todo
ĠP ernamb
az z
ĠIntern et
an al
Ġ und
in ou
ĠC er
Ġganh ar
e ja
ĠÃģ ustria
ito ral
Ġcomplet amente
ai or
Ġext ensÃ£o
Ġqu inta
ro l
Ġreg ul
ĠA er
Ã©m io
Ġor d
Ġsol dados
co tt
as es
Ġdifer enÃ§a
ĠEd itora
Ġque da
Ġplata forma
Ġserv iu
Ġbat eria
Ġcomp l
Ġl iga
ĠD ig
ĠL o
Ġesc rever
Ġc ult
Ġl arg
im ar
ĠR ad
cl am
ĠFede raÃ§Ã£o
Ġestre las
es to
Ġex pressÃ£o
as ta
ar ch
ĠG omes
Ġvol ume
Ġv ag
F l
ĠD A
Ġdispon ÃŃvel
Ġcont empor
Ġdiz endo
Ġtra ta
Ġgra u
Ġcar reg
Con s
era do
ĠM em
Ġb rin
gan izaÃ§Ã£o
Ġg ast
Ġpra ta
j or
Ã¡st ica
Ġcomplet a
Ġv eget
Ġalt itude
Ġdes sas
Ġde partamento
ros so
us o
Ġcl ientes
Ġcontinu a
Ġinic iat
Ġcomport amento
ĠMar inha
Ġp il
Ġ194 5
Ġconsegu ir
ĠN ight
Ġsus p
Ġc iÃªncia
Ġal guÃ©m
p at
Ġart igos
ra nte
Ġpass aram
Ġcer im
Ġf rom
Ġentre t
Ġcomp on
Ã¡l ogo
Ã³g ica
R ob
Ġ3 4
ĠAnton io
Ġex posiÃ§Ã£o
199 7
ĠSuper ior
D O
Ã´n ico
Ġencont rada
s ite
un es
Ġm ÃŃdia
Ġ3 8
Ġs ÃŃmbol
ĠCam po
V ol
Ġp un
it ava
ĠC ro
Ġde las
Ġcook ies
Ġc ena
Ġ196 6
ĠÃģ sia
Ġrecor de
Ġfutebol ista
a gue
ĠAm or
ĠRodri gues
ĠVer de
Ġaz ul
p ia
Ġsol ic
an sÃ£o
Ġvol tar
ĠAnd rÃ©
iz ou
ĠCast elo
ta Ã§Ãµes
al idades
Ġan g
v idas
Ġex ec
ĠB re
% .
Ġem it
ĠCin ema
ĠMar k
end Ã¡rio
ĠPar k
B andas
Ġren ov
Ġis ol
ĠS oviÃ©tica
B ar
rea u
Ġcl aro
Ġesc al
Ġdescob erta
20 19
m ira
Ġsa ir
ĠP eter
ĠpÃºbl icas
Nasc idos
ĠR oc
Ġconf ront
ĠM esa
ĠS mith
Ġv elho
Ġlet ras
ĠcÃ©l ulas
Ġcorrespon d
ĠAn o
rut uras
htt p
ĠA qu
der e
ent ro
ĠH all
Ġl og
Ġconstru ÃŃda
ĠBar cel
Ġm el
Ġav ent
Ġlingu agem
Ġd ram
Ġtrabalh adores
199 6
Ġper segu
Ġast ron
s ula
Ar qu
Ġreconhec imento
est as
ĠChamp ion
Ġjog ar
Ġp iloto
Ġconfl ito
r icas
ament ais
am ericana
ĠJ an
put ados
ou ra
Ġp Ã©
Ġ3 2
Ġdesenvolv ido
Ġf esta
Ġpropri et
Ġs o
Ġapresent ado
Ġprof und
Ġdesc rita
6 9
ess em
Ġro up
D ist
ĠEx t
Ġestud antes
M S
Ġsof t
Jo hn
Ġrec us
Ġab erto
Ġprot est
Ã©t icos
er me
6 5
Ġv iver
Ġtransm issÃ£o
Ġlib ert
b it
ĠB aix
Ġalem Ã£
Ãªn ia
ĠC re
pl as
Ġdis s
Ġpre j
ĠPol ÃŃcia
ĠT Ã©cn
ĠJ Ãº
Ġmed idas
Ġform ar
Ã© st
v Ã£o
Ġp atro
ĠP os
ĠGlob al
Ġdesenvol ver
Ġcur ta
Ġviol Ãªncia
Ġor g
ĠL or
D isc
Ġin dustrial
og le
us h
Ġaf ast
ĠcÃ³p ias
ĠD oc
199 5
Ġref or
Al g
ric k
Ġviz inh
Ġb ril
Ġmen ores
Ġ19 20
ĠFil ho
Ġcons ider
ĠCar valho
ific ados
ult ado
Ġ196 2
Ġmov imentos
back ground
l Ã¢ndia
Ġco raÃ§Ã£o
ĠK n
f in
C o
Ã©ci es
Ġfo tos
ĠA ven
u ela
r Ãªncia
ĠB atalha
ĠG er
Ġf Ã¡cil
ax on
ĠCatal ina
ex ic
Ġform ada
Ġdoc umentos
> <
Ġ196 5
ÃŃ ba
ĠN este
ĠCom panhia
Ġapos ent
ĠV ocÃª
Ġfal a
u aÃ§Ã£o
ĠSa int
ĠL in
Ġretorn o
al do
Ġpoder Ã¡
ĠB or
olÃ³g icas
Ġreg ras
Ã¢ne o
M P
Ã© lio
ĠC SS
end ente
o ard
ĠCol e
Ġtro ca
Ġsuf iciente
Ġsex ta
ian as
Ãºc leo
Ġhum an
Ġol hos
ĠM adrid
Ġpint ura
us c
y r
Ġm im
Ġest rada
ÃŃ rus
ĠnegÃ³ cios
t el
Ġlit er
Ġj ude
ren do
ĠprincÃŃp io
ens Ãµes
on i
ĠF e
pos s
ed er
Ġencont rado
orn o
Ġs inal
ĠL ev
Ġpre Ã§o
Ġin g
Pr Ãªmios
ĠOc idental
Ġconv en
ce ano
ĠalcanÃ§ ou
ra b
and ro
ĠC ard
T ÃŃtulos
to dos
ĠÃ¡lb uns
ĠG ran
u as
ĠprÃ³p rios
if er
Ġp ud
1 00
Ãª me
Ã¢nt ica
io ca
Ġrefer e
Ġc ard
Ġs p
it ch
is se
Ġimpl ement
uc k
Ġfin an
Ġver Ã£o
te is
Ġim ig
ÃŃn a
Ġad qu
ri Ã§Ã£o
Ġfund ado
Ġequip a
Ġconv oc
Ġper form
ĠmÃ¡ ximo
Ġconc urso
ĠD ay
Ġre nd
Ġapl icaÃ§Ã£o
ĠR og
ÃŃ cul
Ġutiliz ada
ĠS ac
Ġpassag eiros
Ġcr Ã©d
ib us
M in
-- --
Ġ ilhas
it ados
ant os
me ida
ĠV ida
ilh erme
Ġvizinh anÃ§a
I s
Ġ196 3
ĠOs car
ĠD ias
Ġsol uÃ§Ã£o
Ġusu Ã¡rios
Ġquil Ã´metros
ĠT ri
ica go
ĠCultura l
ĠDis ney
Ġp ec
y d
Ġter ren
ĠBu reau
Ġve ÃŃculos
ĠS ara
Ġv Ã¡l
ĠBiodivers ity
ut enÃ§Ã£o
ĠC r
Ġofer ece
b urgo
ur s
Ġda quele
Ġbase ada
F orm
ingu Ã©m
ĠgÃ©n ero
ĠCh ile
Ġter ror
Ġim ag
Ġproduz ir
ĠlÃŃn guas
S ingles
ĠJ ornal
Ġpel e
Ġqu eria
Ġj un
Ġmanif est
ĠSu ÃŃÃ§a
Ġpl anos
Ġf ran
ĠestÃ¡ dio
B S
c er
Ġc Ã³digo
Ġper c
ĠH an
Ġarmaz en
Ä ģ
T P
Ġ4 5
Ġl ist
Ġban co
Ġsegu e
ĠC u
Ġencont ro
ĠVer m
Ġdeix ando
Ġm ortos
ĠPer u
ĠCam pos
Ġpag amento
Ð ¾
p i
v in
Ġplan eta
T er
it iva
Ġext re
Ġsan gue
p se
Ġcateg orias
re iro
ĠR on
ĠLeg isl
m ed
ĠC amb
uvent ude
Ġestre la
Ġpos se
ĠD VD
Ġm anhÃ£
R ev
D i
Ġfuncion Ã¡rios
Al unos
ĠB lu
Ġin ov
Ġt ub
Ġmud ar
Res ultados
ĠM onte
Ġac res
ĠS how
Ġcheg ada
Ġdire ita
Ġpa ul
199 2
Ġs il
ĠC op
Ġf Ã¡b
ĠM ass
Ġvo o
w in
ĠF ab
Ġesc ala
ra c
ab a
ĠBan co
| }
ĠU N
6 4
v ent
ĠC ens
Ġres istÃªncia
ĠB ru
Ġpos sa
om os
Ġinfer ior
af a
I B
Ġant igas
Ġpl ac
Ġdecl arou
Ġex cel
Ġconsegu e
ĠN esse
ĠM adeira
et s
g in
Ġexpl ora
Ġp p
t ion
Ġar ran
ian s
Ġreceb e
ĠMa x
ont ade
ĠAlexand re
ĠLib ert
M us
Ġoportun idade
Ġid eias
Ġn am
Ġcultura is
oc ol
Ġnovel a
S er
ĠN ev
k in
Ġ *
Ġcons iste
Ġ193 9
Ġmor to
Ġo posiÃ§Ã£o
Ġexp ansÃ£o
Ġl uc
te ra
Ġutiliz aÃ§Ã£o
Ġcust o
b on
lb oard
ik i
Ġcond iÃ§Ã£o
ĠSecret aria
Ġenc erra
Ġsex ual
is on
ĠBranc o
quet ebol
in Ã§Ã£o
Class ificaÃ§Ã£o
Ġb e
Ġf ortes
Ġv ant
ĠsÃ©c ulos
Ġd or
Ġgrav aÃ§Ã£o
Des de
aliz ar
ĠEnt Ã£o
ĠR osa
Ġ195 8
Ġdescob erto
Ġacad Ãªm
Ġvenc edor
g h
Ġd ro
Ġmist ura
ĠG old
Ġt en
Ġreb el
Ġa to
Ġtempest ade
ket ing
Ġautor idades
pos iÃ§Ãµes
in adores
og ia
Ã© ia
Ġex terior
Ġ196 1
Ġaqu ele
Ġcrim e
Ġb ronze
Ġh ospital
Ġpl anta
ĠB ill
Ġgal Ã¡x
Ġn ucle
anc es
Ġvoc ais
9 3
ĠEurope ia
E qu
Ġ3 00
Ġdia grama
Ġsu pera
ĠLe ague
b ert
er ica
Ġ 000
ĠS eb
Ġen dere
I nd
ĠSou sa
Ġopin iÃ£o
Ġper der
Ġjapon Ãªs
Ġadminist rativa
and er
Ġdest es
ĠPl ant
ĠN at
ĠM ill
Ġtent ar
e Ã§
Ġg ar
Ġal imentos
ĠLe Ã£o
ĠScho ol
Ġj ul
ĠPop ular
ĠFo ot
indo ws
Ġlig aÃ§Ã£o
ĠGon Ã§
U C
Ġgarant ir
ĠM ur
ĠLe e
Ġsat Ã©l
Ġor qu
Ġin Ãºm
Ġdire t
Ġser iam
Ġro do
ogrÃ¡f ico
Ġcheg a
ĠPro grama
b res
Ġv s
Ġtar ef
Ġbilh Ãµes
ĠÃ¡ guas
Ã¡g inas
Ġating iu
Ãº lt
f ield
ast ia
Ġpopular es
Ġata ques
Ġv ira
ĠH ospital
ch i
Ġcam pos
Ġrespons abilidade
Ġadv ers
ĠF ol
ĠM P
u o
Ġa gu
Ġfam oso
D A
Ġres to
Ġh idro
Ġle is
Ġf isc
ĠF ri
ĠJ ud
Ġinflu enci
Ġo t
Ġc ara
Ġanal is
Ã ļ
Ġexec uÃ§Ã£o
ĠÃ ĵ
Ġrealiz adas
ĠC la
ĠA re
Ġconc elho
Ġpergu nt
Ġc enÃ¡rio
Ġposs ib
Ġconstru ir
Ġtom ar
ĠPÃºbl ico
9 2
Ġaument ar
ĠY o
ĠCon de
Ġ9 78
ĠXV III
re y
ud es
B I
Ġv inte
Ġrot eiro
Ġdispon ÃŃveis
ce ae
ĠAl meida
Ġenc er
Ġamb as
ĠF ar
Ġpr ÃŃncipe
Ġprote g
Ġcont ou
ĠS w
Ġcons ist
ĠF emin
Ġform ou
Ġequip amentos
Ġfic Ã§Ã£o
teri ores
Ġna quele
Ã©s ar
Ġcomput ador
N ot
Ð ¸
Ġem erg
Ġpesqu isas
te x
ĠXV I
Ġp ad
Ġmant eve
ĠEnt retanto
B log
ĠL ar
ed ida
6 7
Ġc ima
ocra cia
ĠL y
Ġconqu ista
ou ro
ĠL op
olog ias
Ã ł
ĠRib eiro
Ġcomer ciais
an ismo
Ã©s ia
int as
ik a
Ġcomp ra
esso ra
ĠĠ Ġ
F ranc
ĠBro wn
ug o
Ġmat Ã©ria
il y
Ġab orda
ci es
Ġv iu
Ġfund aÃ§Ã£o
Ġtit ular
Ġval e
Ġinvestig aÃ§Ã£o
Ġm eios
it ivo
Ã¢ nc
ĠReg ional
Ġar que
Ġimp acto
ĠP ap
Ġrele v
Ġindepend Ãªncia
Ġt enham
n et
ch as
s i
Ġfe itos
oriz onte
Ġre forma
ĠRevol uÃ§Ã£o
oc iaÃ§Ãµes
Ġshow s
p le
Ġref let
pres a
Ġme ia
Ġad qui
Ġleg al
S al
Ġ3 3
s ul
Ġcl ima
Ġcons ult
ĠAt Ã©
ĠT orn
ĠC he
ĠB ay
t udo
Ġlev ando
Su per
Ġdisc ut
9 4
Ġir Ã¡
em it
ĠBil lboard
ĠI b
ĠAugu sto
ĠC ant
ĠDes envolvimento
ĠbritÃ¢n ica
aliz a
ĠAn n
de al
qu ete
b io
Ġrelig iÃ£o
Ġir ia
ĠChampion ship
u Ã¡rio
Ġpromov er
9 1
ĠS ob
Ġrelacion amento
Ġv Ãª
fe de
ĠR em
ĠSt re
Ġconsum o
anh as
rat ivo
du Ã§Ãµes
Ap esar
im bra
Ġc ru
Ġre ino
ĠPernamb uco
Ġv ul
ĠBer lim
Ġpres o
Ġrus so
ĠN orm
ĠCir c
ON E
i rou
Ġreun iÃ£o
st on
Ġs ag
Ġpar que
Ġpro l
erta in
it Ãª
t ro
Ġsuc ess
Ġame aÃ§
ing a
is i
q Ã¼
ÃŃn as
id ez
C C
Ġdire c
Ġqu adr
l i
Ġfil osofia
el le
f a
N ew
8 7
Ġmot ivo
Ġquad ro
ĠCens us
ĠeconÃ´m ica
ĠIn depend
ĠRic ardo
Ġident idade
Ġassass in
ĠF un
abora t
Ġv ontade
Ġ $
ur u
Ġprov as
ĠSe us
D E
Ġmes mos
ĠLou is
Ġacab a
Com unas
Ã¢ nd
ĠcrÃŃt icos
Ġportugu eses
ĠÃ¢ mb
Ġ194 4
end ia
Ġdef ens
Ġev ent
ation s
Ġjunt os
199 4
end em
Ġru as
Ġorganiz aÃ§Ãµes
Ġre duÃ§Ã£o
Ġf Ã£s
Ġatu a
ĠPra ia
ĠBarcel ona
Ġocas iÃ£o
Ã©r m
Ġcontinu ar
Ġintit ulado
Ġacont ece
nc e
Ġpermit ir
Ġtex tos
Ġcoloc ado
Ġcole Ã§Ã£o
l ig
ĠPr ÃŃncipe
Ã³s ito
ef f
Ġc red
Ġusu Ã¡rio
Ġtal vez
urg ia
ycl op
ĠU r
ol and
ĠGr Ã©cia
Ġvari edade
x a
Ġrec ente
Ġped ra
Ġtra duz
Ġver de
ĠrÃ¡p ido
Ġcar ga
ÃŃt icos
Ġsu je
ult os
l anda
ol as
ru pÃ§Ã£o
il os
Ġlocaliz a
Ġass unto
b le
iv elmente
Ġcam inh
ĠEg ito
Ġpodem os
Ġtest em
% ).
Ġman utenÃ§Ã£o
ar qu
Ġe cl
ĠCe arÃ¡
Ġed iÃ§Ãµes
P R
Ġprof essores
ĠDem ocrÃ¡t
Ġa nte
Ġs oci
ret or
ĠMart ins
Ġp ena
f Ã©
Ġfic ando
Ġvis ita
Ġfund ador
ĠR et
Ġindivid ual
ili ares
ĠH ill
Ġcome Ã§o
Ġin com
ivers Ã¡rio
Ġcomplex o
ent re
ab il
ĠW ill
ÃŃ r
Ġsof reu
uv en
Ġprecis o
8 4
am i
G E
M at
Ġdo enÃ§as
Ġd anos
z i
Ġv an
Ġdeix a
Ġco z
Ġatu ais
Ġconhec er
vi ar
ĠJo aqu
Ãº r
ĠHen ry
ĠH al
Ġs Ã¡b
ĠO x
ĠN av
ĠU ru
ron o
Ġproduz ida
Ġnasc imento
ĠÃ³rg Ã£o
Ġque b
Ġestudo u
eir Ã£o
Ġed itor
ĠAl ves
ĠP as
ot es
D F
Ġno bre
ĠS istema
Ġra inha
Ġevol uÃ§Ã£o
ĠAlb erto
Ġmens agem
C ant
ic es
Ġgre go
ĠV ia
Ġs ÃŃ
I l
it i
In st
Ġsurg iu
A A
ol i
Ġv il
ĠR us
Ġc enas
Ġas pect
ra ria
Ġdes cont
od as
C r
re nte
te za
ĠAf onso
N as
Ġ195 9
S Ã©ries
Ġanim al
Ġlidera nÃ§a
ĠS at
Ġfrequ Ãªncia
Ġfaz ia
ĠFor Ã§a
n asc
Ġ194 3
ĠEst re
ĠCh icago
ier re
Ġ194 2
Ġm ass
Jos Ã©
ĠMar y
Ã¼ r
ĠfÃŃs ico
ĠOf icial
Ġcon clus
en g
e da
Ġev id
Ġsub s
Ġequ ival
Ġf ins
Ġparc ial
ĠI sto
rig a
it iba
ĠPal m
D ec
Ġt ÃŃp
Ġcan cel
ĠEsp ecial
ro g
ĠP ubl
Ã´m bia
ĠE M
ĠPal Ã¡cio
M ic
ow er
Ġarquit etura
m at
ic ada
por to
Ġcomp ost
oro este
Ġtent ou
ed iÃ§Ã£o
ib iliz
F amÃŃlia
Ġmod erna
rar y
ĠO ne
iz adas
ol s
ci fe
Ä ĩ
Ġap el
Q U
ĠBo ok
v an
m entos
f al
Ġaspect os
Ġnorm al
ĠEn genh
ĠMinist ro
ertain ment
Ġterrit Ã³rios
Ġferro vi
Ġf oss
6 2
ĠP esqu
ÃŃmp ico
Ġseg undos
Ġn atal
Ãºn ior
E G
Ġsup orte
iss ion
P A
Ġutiliz ados
ĠG irl
el ect
Ġdent re
6 1
Ġde us
Ġm ob
Ġpr Ãªmios
and es
ĠhistÃ³r ica
rat ado
am en
Ġd uraÃ§Ã£o
Ġband eira
Ġe duc
Ã©l gica
20 20
Ġrealiz ados
ÃŃ fer
Ġs aiu
Ã¡ ter
ĠAss oc
Ġasc endÃªncia
Ġlet ra
ĠMa ur
6 3
is pos
al i
ol f
Ġrelacion ados
Ġm it
Part icip
bo x
ri or
Ġconst ante
Ġa ÃŃ
olog y
ĠFil m
om y
ĠJ im
ire m
Ġcic lo
to p
Ġnot ÃŃcias
Ġdesc ritas
y an
ino pse
Ġcomand ante
de z
Ġp ista
ios a
Ġdese j
âĢ ĭ
ĠS and
Ġconf ig
Ġsoft ware
ĠG reg
ĠÃ Ģ
Ġatlet as
az er
Ġsitu ada
ĠSoci ety
Ġmom entos
ĠPaÃŃs es
c es
ĠA N
Ġb loc
ĠCol le
ĠS in
Ġpropri edades
p is
Ġtri p
r um
on ha
Ġver e
Ã§ ado
ĠâĢ ĺ
ar ta
rat os
Ġtradic ionais
Ġre inado
Ã¡st ico
ĠLet ras
ĠTem po
Ġ195 6
ĠÃ¢mb ito
Ġapresent am
Ġcheg ando
Ġgol pe
Ġc ens
199 3
Ġ194 8
ĠT y
pro vÃŃncia
Ġre quer
ĠEnt ertainment
Ġcar ros
ra ph
ut ion
Ġaf ric
Ġvenc er
rat ion
Ġempres Ã¡rio
ĠB ritÃ¢n
ro t
Ġess encial
l ei
Ġ Ã³p
Fil m
Ġcl ara
ara v
Ġf rag
Ġmus eu
Ġinic ia
ONE OS
ĠS m
Ġpre to
b aix
Ġf antas
Ġest iv
ĠL ONEOS
Ġengenh eiro
qu im
Ġquest ion
Ã³l ogos
Ġdipl om
Ġcons ol
p ing
P rin
id i
Ġregist ro
ĠÃ ´
Ġest aÃ§Ãµes
Ġsa ud
Ġpas so
Ġadvog ado
ed ral
M arc
ĠBaix os
ios os
am ericanos
ĠC Ã©sar
Ġjog ou
ĠW indows
Ġro ub
Ġ Î
Ġequ il
ru d
Ġencont rados
Ġ4 7
Ġcham ados
Ġp ul
Ġt rÃ¡s
riz es
n i
Ġarg ument
Ġfat ores
L u
ĠLu is
Ġimpl ant
Ġsobre tudo
ĠHist ory
Ġter em
Ġvit Ã³rias
Ġrom ano
Ġtor c
ĠSupre mo
t ada
Ġan ual
Ġdific uldades
Ġd it
ĠD er
ĠcomeÃ§ ar
" ),
ĠSen ado
f ÃŃb
Ġg ram
Ġgrav adora
Ġadqu ir
F ran
Ġinf Ã¢ncia
Ġassin ou
ĠS i
Ġher d
ĠSeb ast
8 3
ĠGu ilherme
t i
S ua
y e
ĠRoy al
ĠB ig
Ġretorn ou
Ġating ir
ra estrutura
ĠprÃ³xim os
Ġin cl
S eu
pe Ã£
ĠVen ez
n ibus
199 0
Ġalem Ã£es
ĠB i
ĠM Ãºsica
ĠTrabal ho
Ġop Ã§Ã£o
ĠB ob
Ġrec Ã©m
Ġcoloc ar
Ġb ens
Out ros
C ole
ĠPr inc
ra y
Ġt este
P h
oc o
c an
Ġpal co
Ġin cent
ĠâĢ ¢
D on
Ġv ert
Ġfic aram
ĠTex as
Em presas
Ġdetalh es
Ġde leg
Ġ195 4
ific ou
ĠP el
ĠT op
ĠL im
ar os
Ġt enho
l ad
Ġc Ã¢m
Ġres idÃªncia
m m
Ġm ad
ĠAtl Ã©tico
ont es
ĠK e
Ġim press
Ġsitu ado
Ð µ
u ar
ĠCon f
Ġcap itÃ£o
A ut
Ġ3 7
Ġ194 1
Ġpl ant
Cl ubes
Le ia
Ġpesso ais
Ġaval iaÃ§Ã£o
ĠlÃŃder es
ĠP Ãºblica
ĠlanÃ§ ados
ric idade
P ublic
t s
col as
int os
elh as
r idas
ĠC ada
O l
Ġpo eta
Ġestad uais
Ġesp alh
ĠPol Ã´nia
Ġp eg
% ,
M on
ĠJ r
Ã¡ ce
ĠM aran
Ġ Å
M ortos
ĠC art
Ġd ada
Ġcomun idades
ĠLat ina
Ġqu is
aliz ada
R ece
ĠComp any
Ġinfant il
Ġpod endo
k ins
en z
Ġtorn aram
Ġpaci entes
Ġm ig
end ido
ĠFre der
un e
ra be
At ores
ant emente
Ġimedia tamente
it ion
ĠColle ge
Ġest ruturas
Ġemb arc
C icl
Ġele g
man da
f ica
Ġcandid atos
at ar
Ġcon g
l ist
ĠS Ã³
s em
Ġdest ino
ĠÃ¡ c
Ġh osp
an k
ĠFl ores
Ġiniciat iva
Ġdesenvol veu
Ġsecret Ã¡rio
end entes
ĠCo imbra
ĠB rit
EN T
N otas
Ġper f
ot h
ers Ã£o
ink s
Ã³ cia
Ġap aix
ĠD ar
Ġcheg aram
om en
ĠOut ros
ĠIr landa
ĠS ci
ceb ispo
Ġv aga
ĠDu que
Ġrec urso
Ġ rios
Ġto po
Jo Ã£o
p al
Ġ Ã³t
ĠG ram
ĠP ost
Ġqu into
Ġdoc umento
Ġen orme
Ġ195 5
ĠZ el
Ġcompart ilh
Ġmat emÃ¡tica
199 1
Ġper de
Ġextrem amente
ĠB elo
ĠSeg uranÃ§a
Ã¢nc er
az ar
ĠP esso
Ġmelho rar
J Ã¡
Ġpos iÃ§Ãµes
Ġ3 9
Ġcer ta
ĠÃ³rg Ã£os
ĠPar l
Ġpr Ã¡ticas
ĠU E
ĠT axon
minist ro
Ġlim ite
Ġmilh Ã£o
Ġcham ou
yclop edia
Ġpal Ã¡cio
Ġ193 8
C P
Ġse p
ĠFoot ball
Ġent ender
ra de
Ġc ad
Ġass ociaÃ§Ã£o
Ġestud ar
lo ad
p rim
' t
end endo
ĠTec nologia
s er
Ġanim aÃ§Ã£o
Ã³ so
ĠL it
e do
ĠB Ã©lgica
Ã§ ul
Ġtur no
ĠSou th
ĠJack son
U R
d y
ĠS ta
Ġt rou
ĠCol Ã´mbia
Ġren da
S A
Ġ0 8
ĠEst es
ÃŃs ica
Ġlon ge
f ab
og a
Ġgu arda
Ġrelat ivamente
Ġempre go
Ġcar Ã¡ter
Ġv ac
ĠR Ã¡dio
ĠUn idas
ĠK a
F inal
Ġdefin iÃ§Ã£o
Ġ0 1
ĠJu an
Ġpropor cion
Ġins er
ĠPar Ã¡
Ġtest es
ĠT erc
ĠA gu
amar ca
Ġglob al
S inopse
Ġs Ã©ries
el ar
o o
Ġdes fil
u va
Ġpra ia
Ġmost rar
rid ge
ĠS ing
Ġpor to
Ġdes loc
ĠAven ida
eix es
ĠCab o
Ġco op
ĠSant iago
Ġa ulas
Ġbase ados
Ġacres cent
Ġle itura
Ġb l
ĠprincÃŃp ios
ĠHom em
P E
emb urgo
ĠEsp orte
B as
Ġl av
Ġest ou
ens a
Ġres g
Ġ195 2
r Ã³
r icos
Ġed itora
ĠJos eph
he im
ĠAl c
ĠF Ã³rmula
Ġent idade
y o
od y
Ġ195 7
ou co
ĠJ ardim
Ġcompet iÃ§Ãµes
Ġdesen ho
Ã§ amento
Ġexper iment
sk y
Cas a
ĠF ut
Ġparticular mente
ĠS cott
ĠG rosso
Ġjapon esa
Ġant i
Ġjust iÃ§a
C in
Å ¡
an Ã§o
Ġjude us
ĠR ap
t he
Ġpo vos
ĠC P
ĠA ntes
Ġmor re
ĠL es
S C
Ġd ura
ĠEst Ã¡dio
Ġac um
ord es
Ãª nt
Ġb ola
rat ivos
Ġtent a
ĠeletrÃ´n ico
Ġdis cipl
ĠP ia
Ġbus c
Ġtrein amento
Ġs ai
I O
Ã§ ar
ÃŃ ria
Ġfoss em
ĠM ato
ĠSou za
Ġgra Ã§as
ĠMed icina
mon d
Ġ4 1
ĠLu z
Ġexp and
Ġcast elo
V ID
z y
Ġbat er
ĠH orizonte
ĠF M
Ġag rad
Ġinst ru
er do
ec idos
âĢ ¢
Liv ros
" ).
ĠV in
rim Ã³nio
el son
is es
Ob ras
in ete
F undaÃ§Ãµes
Ġrec entes
ĠE P
our n
Ġsus pe
Ġfuncion amento
8 1
ĠU p
. :
Ġunivers idade
Ġpatro c
Ġlo ja
il aÃ§Ã£o
ĠmÃ© todos
S obre
Ġb ic
Ġfo co
Ġf Ã©
Ġn inguÃ©m
Ġl er
Ġ193 6
un n
Ġsubstitu ÃŃdo
Ġverm elho
Ġband as
ir ia
Disc ografia
R om
N ova
c ast
ĠPr in
Ġ ;
Ġreg ional
Ġag rÃŃ
Ġcomb ust
Ġmic ro
Ġ194 6
w ork
Ġmed ic
Ã¡c ulo
Ġo pt
ÃŃs mo
ĠCol Ã©gio
ĠeconÃ´m ico
ec imentos
ĠPra Ã§a
Ġreceb ido
S im
ĠAdminist raÃ§Ã£o
8 2
Ġt rono
Ġm exic
ic ia
it adas
Ġun iverso
am o
ĠM osc
Ġin gress
ac ho
ro w
Ġb iz
ung ria
b i
B o
er y
ĠP s
ĠAl to
in ental
il ton
ĠCont udo
ent ar
Ġcor e
do l
Ġdom Ã©st
ĠHou se
th ur
t ico
Ġre je
ip es
ĠRom ano
Res pon
Ġcomem ora
ĠD at
ĠO rig
Ã©c ulo
erv o
ĠGoi Ã¡s
int h
Ġv et
it amente
ĠRev ista
Ġv ive
t y
ĠU rb
ĠF am
ĠT ime
id th
Ġrepresent aÃ§Ã£o
ĠD C
ĠGre en
Ġdia gn
ĠDig ital
Ġutiliz ando
20 21
el lo
ĠU s
Ġrec entemente
ĠIt al
stru Ã§Ã£o
Ġescolh ido
ĠCar olina
Ġconsidera dos
Ġped iu
Ġendere Ã§o
Ġcl iente
Ġsemelh antes
a in
Ġint enÃ§Ã£o
Ġen d
Ġme do
Ġinstr umentos
Ġmora l
Ġprat icamente
ĠnegÃ³ cio
ad y
Ġpromo Ã§Ã£o
ĠCent er
Ġinstal aÃ§Ã£o
ĠB om
Ġv az
ĠL ive
Ġpr Ã©dio
Ġtempo radas
Ġb lo
amb igu
re ta
ĠprÃ³p rias
Ġcon ect
R el
Ġart ilh
ĠA M
Ġsitu aÃ§Ãµes
ran ge
raf t
ĠclÃ¡ss ico
ĠEurope u
g eral
w an
Ġesp et
Ġpag ar
ĠJ ones
Ġf eliz
G eral
ĠlÃŃ qu
Ġaust ral
Ã¡ via
ĠB ut
Ġpens amento
ĠBra ga
inter est
Ġb reve
ĠAng ola
ÃŃn sula
Ġtra duÃ§Ã£o
ĠS k
Ġorig inais
Ġpers pect
Ġp ast
____ ____
b ilidade
ĠEn s
Ġ4 6
198 9
ĠN O
ĠG rand
Un ivers
Ġg Ã¡s
ĠindÃŃg enas
b at
ĠOri ental
Ġ194 7
ĠDef esa
Ġmedalh as
ĠM un
enh um
Ġcidad Ã£os
S p
and emia
C D
Ġent ra
ĠR ay
Ġcolabora Ã§Ã£o
Ġquadr inhos
Ġcap a
d on
ĠWh ite
Ãº ncia
ĠRe cife
Ġenvolv endo
et n
ĠW ay
ĠR ub
Ġcrist Ã£os
Ġaud iÃªncia
qu Ãªs
in Ã©
Ġt ela
Ġtrat ado
om et
ĠAm erica
Ġcor o
IC A
Ast ero
Ġp Ã¡ginas
ĠTr Ãªs
Ġreligios a
Ġpo nte
Ġoc idental
ĠMar co
ĠCol l
Ġan iversÃ¡rio
Ġcol or
Ġciv is
M o
ĠB ento
Ġutiliz ar
Ġ193 4
Ġdisput ou
Ġedif ÃŃcios
ĠL inha
Ġroman os
ĠOr ch
Ġt onel
Ġcaracter ÃŃstica
Ġsem if
i ri
Prof essores
Ġcoloc aÃ§Ã£o
Ġastero ide
re ntes
ar ias
Ġasc ensÃ£o
icial mente
ĠTrabal h
u ca
ap e
Ġexib ido
Ġ4 00
Ġcons ecut
Ġocor rer
ĠEd ward
ĠmÃŃn imo
Ġint elect
Ġespanh ola
Ġcon de
ĠG ame
ĠY e
ĠD en
aix Ã£o
Ġcon ver
Ġ0 9
ĠEnc yclopedia
ĠCar l
Ġhum or
iat ion
Ġve ÃŃculo
Ġac h
era nte
Ġgu ard
Ġ195 3
ĠMend es
Ġpe da
ĠvÃŃt imas
ĠGo ogle
Ġus adas
Ġlegisl aÃ§Ã£o
ec as
ell y
Ġprop ag
Ġdes f
Ġmilh ares
Ġid i
Ġcorre nte
Ġocup aÃ§Ã£o
ĠT ar
Ġpoder iam
H O
S O
ĠA ires
Ġcap ela
ĠrÃ¡p ida
ur us
Ġref lex
r ub
Ð ½
Ġrespons Ã¡veis
Ġtab ela
emit Ã©rio
Film ografia
ĠS he
r Ã©s
Ob jetos
ÃŃm etros
Ġcont ÃŃn
Ġinteress es
Ġadapt aÃ§Ã£o
I G
Ġm estre
ĠS ud
t ambÃ©m
w ell
Ġtransp ort
ĠT ro
Ġass inado
Ġind ica
Ġp iano
ĠBe at
ĠP ict
Ġcomp rar
Ġfen Ã´m
ci Ã³n
ĠAl m
Ġpre Ã§os
ĠAl i
it Ã¡rios
Ġproduz idos
Ġlim ites
ĠFil ip
ĠÃ´ nibus
ag n
ĠVenez uela
ĠJoaqu im
Ġf ar
F ac
do min
Ġo x
Ġdetermin ado
Ġab erta
ĠG ol
f utebol
f os
ĠmÃ¡ xima
ĠHo je
eri es
ã Ĥ
Ġal deia
Ġv ence
Ġap ost
Ġpre feitura
ropolit ana
ĠL ag
Ġre col
Ġcan ad
Ġdispon ibiliz
e um
Ġecon om
rag Ã£o
ĠH av
re w
Ġmot ivos
Ġelem ento
ĠS erv
ĠAtl Ã¢ntico
ĠPortugu Ãªs
eg as
ĠAd am
M aria
ĠmÃ©d icos
ĠG ust
ĠLop es
Ġpoder es
ĠPol ÃŃtica
ÃŃfer os
Ġter rest
ĠEst Ã¡
Ġmant Ã©m
an z
Ġcont ar
op hy
Ġlocal idade
Ġengenh aria
at Ã³rias
ĠBar ros
Ġnecess idades
V ocÃª
Ġrepresent antes
Ġp lay
Ġide al
Ġf ura
ĠMes mo
il ia
se is
Ġtom ou
cr Ã¢nia
ĠCl ass
Ġind icaÃ§Ãµes
Ġche f
Ġco leg
En viar
Ġs Ã©t
ĠF ortaleza
ĠH igh
ĠN orth
ĠT imes
rop ri
I greja
Ãºlt ip
Ġnos sas
Ġindivid uais
ust o
Ġterren o
Ġp Ã©s
ĠEss es
W h
Ġconhec idas
. ).
ĠXV II
Ġjulg amento
ib e
ĠgÃªn eros
Ġen g
Ġtrabalh ando
Ġpadr Ãµes
Em bora
Ġestabel ecer
Ġc Ã¡l
Ġpap a
Ġs enhor
Ġper fil
Ġc Ã¢mara
se y
Ġpro n
Ġpermit indo
Des ambigu
Ġcom unic
Ġag reg
ian ismo
Ġinvas Ã£o
g ada
ip s
Ġpara da
Ġmora dores
ĠMach ado
F re
Ġg a
Ã´m icos
Ġas p
Ãª ut
ĠEst udos
unicip ais
umin ense
Ġal vo
at i
Ġer ro
ĠRe is
p ed
ĠLib rary
Ã© lia
ĠL as
Ġfam iliar
ĠOri ente
Ġass untos
ed entes
Ã©t icas
Ġcob ertura
ĠNew s
Ġdirig idos
Ġrelat Ã³rio
m or
Ġnasc ido
ent ou
Ġsegu ido
Ġserv ir
ĠN i
Ġdire ta
Ġ ran
ĠWilliam s
Ñ Ģ
Ġam pla
in adas
Ġobjet ivos
ĠP az
Ġparl ament
Ġcab o
Ġsub t
Esp Ã©cies
Ġlo jas
re al
ĠM Ã©d
Ġ5 5
Ġ193 7
ut h
ĠR D
io v
Ġat endimento
Ġaprov aÃ§Ã£o
. ;
vi Ãµes
C ond
Ġcal or
' ,
Pol ÃŃtica
Ġc Ã¢ncer
Ġn Ãºcleo
Ġ1 20
Ġres ist
Ġmod ern
Ġrepresent ante
Ġ195 1
Ġalte raÃ§Ãµes
Ġhip Ã³t
Ġexper iÃªncias
Ġcria t
Ġencont rou
Ġ193 3
Ġespecif icamente
Ġult rap
ĠIl has
im ental
ĠB us
am as
Ġart ÃŃstica
ĠC orte
Ġfo to
Ġd anÃ§a
ly wood
ĠS erg
ĠB ow
ĠCh arl
I P
at ivamente
ĠWil son
ĠPrim eiro
Ġhistori ador
ĠD esta
Ġesp acial
it aÃ§Ãµes
ĠR oss
Ġd ÃŃ
e o
Ġ ib
as on
ĠAf ric
d in
u j
peon atos
afa el
ĠS ong
i adas
u ega
Ġan Ãºn
ĠÃ ļ
ĠEsc Ã³cia
ĠDin amarca
Ġs ovi
es i
Ġestabel eceu
Ġescol her
Ġespa Ã§os
Ġdisc urso
on omia
Ġat mos
ip Ã©l
ĠO h
rest ling
Ġbel eza
Ġ193 2
Ġtiv esse
ĠK im
Ġexpl oraÃ§Ã£o
ĠK o
ĠmÃºs ico
Ġcur to
Ġverdad eiro
Ġdese jo
ĠMar cos
Ġhor Ã¡rio
en berg
Ġpo bre
ab le
Ġre aÃ§Ã£o
In f
Ãª x
Ġaqu ela
Ġvis ual
ĠH ow
Ġ4 4
ĠcrÃŃt ico
Ġtor re
Ġaeron ave
Ġpap Ã©is
C ast
ĠO N
ade ia
Ġpro xim
da y
ĠK ar
Ġcap ac
v ido
ab eth
.... ....
ĠPod er
v ora
ĠL i
S E
ĠP om
ĠPre feitura
ĠGr Ã£
h s
Ġassum ir
Ġmost rou
Ġdisput ada
ĠLond on
ĠalcanÃ§ ar
inth ians
ĠL an
Ã§ amb
Ġar ma
ay lor
ĠPac ÃŃfico
Ġs amba
ĠLiv ro
ĠN ob
G ra
Ġambient al
Ġf estival
Ġrevel ou
ĠSil v
Ġ0 4
ĠelÃ©t rica
ĠInf ant
ĠB ad
Ev entos
Ġg ig
p ido
Ġpara das
ist er
ĠIl l
ĠEst aÃ§Ã£o
Ġfol has
ĠZ o
Ġigre jas
Ġtonel adas
Ġ194 9
T ambÃ©m
ĠP C
Ġinterpret aÃ§Ã£o
Ġexempl os
Ġpre d
ĠVic ente
ĠW ood
: #
Ġs essÃ£o
u itos
Ġfundo u
Ã³ leo
W il
st em
ĠS ev
Ġat ores
Ġforn ecer
ĠA Ã©rea
ĠE nd
od ia
Ġag ente
ug ar
Ġpol icial
ĠUnivers al
eg al
Ġob ject
Ġcon ex
A G
ĠMaran hÃ£o
5 00
Ġab sor
Ġmar gem
ĠC iÃªncia
Ġexist entes
Ġpart idos
Ġviv eu
ã ģ
Ġ0 3
Ġcons elho
b erto
Ġaeron aves
ĠO u
V al
ei Ã§Ãµes
Ġpou cas
ret anha
Ġo it
ĠU crÃ¢nia
Ġ uns
Ġdist ingu
O n
Ġesp irit
Ġaj udou
Ġmo da
A ntes
Ġvag as
ĠJ Ãºnior
Ġest ran
Ġser es
Ġca fÃ©
Ġa Ã§
dut or
Ġlocaliz aÃ§Ã£o
b gcolor
s ur
ĠAn im
Ã¢m etro
Ġcha ve
h r
Ġ0 5
unt a
Ġ6 4
Ġcrim es
Ġexerc ÃŃcio
Ġexclus ivamente
ĠGab riel
Ġs inais
v isÃ£o
rit ores
Ã³graf o
Ġentret anto
ĠT en
Ġdef ender
ĠWal ter
Ġins c
ĠâĢ ĭ
Ġconv idado
Ġbo as
Ġm est
Ġmu Ã§ul
ĠA P
ĠConst antino
Ġg aro
ab ase
ion e
Ġcons ag
Ġtem plo
Ġs oz
in es
Ġfo c
Ġel et
Ġav iÃ£o
ĠSo ares
ocl ipe
Ġpossu ÃŃa
198 8
ÃŃb rio
Ġindic ado
ĠF ight
Ġan ex
ch en
198 5
Tre inadores
U T
Ġno tas
Ġc ho
ĠF igu
Ġj ard
Ġcham a
Ġcart as
Ġrom ana
Ġcol una
ron omia
Ġinstal aÃ§Ãµes
Ġac el
ĠVic tor
à ¤
Ġaut oria
ĠindivÃŃdu o
og ue
ĠU lt
Ġab re
ri x
ĠB org
Ġconclus Ã£o
Ġmod erno
Ġvo to
ĠO este
Ġ193 5
ĠsatÃ©l ite
Ġposs am
ĠJohn son
Ġpint or
Ġc av
Ġfranc eses
Ġesfor Ã§os
ĠS ag
Ġdes emb
Ã´n icas
Ġaut ora
ĠOx ford
ĠR u
ĠfÃ¡b rica
Ġtrans ferÃªncia
ĠB log
Ġassin atura
Ġesfor Ã§o
Ġp ion
Ġres erva
ĠsÃŃmbol o
il v
ĠL ogo
Ġ4 2
Ġj uiz
Ġdom ingo
ĠestratÃ©g ia
Ġc aiu
Ġv ÃŃdeos
Ġampl amente
B l
a o
Ġr ural
ĠB ab
Ġtrop icais
G overn
r ista
fe ita
Ġcan ais
F aixas
f und
20 22
Ġmat em
Ġsim ilar
er b
Ġf ortal
Cicl istas
Ġdo ze
ĠEv ang
Ġjunt ou
ĠD ra
Ġatu ar
Ġposs ÃŃveis
og raph
ĠFern andes
Ġfig uras
Ġdec reto
ura is
Ġhon ra
ĠV ill
ĠLuc as
ĠC ara
Ġcl ÃŃn
ipÃ©l ago
ĠPara ÃŃba
Ġmarc as
Ġeurope us
ĠMarc elo
ĠC ria
Ġsat isf
Ġ4 3
Ġpens ar
ĠGu arda
Ġinter rom
Ġmed iev
Ġderro t
Ã©t rica
ĠG ard
ĠS um
ĠP into
Ġam ericanos
Ġv ar
ĠW W
ĠvÃŃt ima
Ġag ricultura
itt le
E la
Ġaer oporto
id el
Ġcas ado
Tra ta
ĠÃ© t
Ġdifer enÃ§as
Ġdro gas
futebol ista
Ġpermit iu
Ġbranc a
C IA
D av
k es
Ġam ost
ĠHist Ã³rico
ĠDev ido
F L
Ġutiliz a
Ġh id
ĠFil ipe
Ġ0 2
Ġroup as
ul to
Ġprof essora
Ġig ualmente
E nc
Ġon da
Ġcont endo
Ã³r ida
at u
ĠR eb
G en
ĠT est
ĠI dade
D ire
Ã³qu io
j u
Ġprej ud
Ġ19 10
ĠN ordeste
ĠJ ov
ĠM ost
198 7
h l
Ġim poss
Ġdescob ertos
ĠDat abase
% )
ĠP ens
Ġcar ne
ak i
Ġapaix on
Ġdest as
Ġambient ados
h al
Ġrecom end
Ã§ ada
Ġprodut ores
ĠÃºlt imas
ing er
Ġentre ga
Ġjorn ais
Ġg est
era nÃ§a
Ġprinc esa
ĠC rim
Ġinv ad
Ġexecut ivo
met ragem
Respon der
V eja
ĠStre et
ic on
ob o
ĠAssoc iation
ĠMar gar
Ġ0 7
Ġcom issÃ£o
ĠF ort
M G
al ves
ett i
ĠB art
mo nt
Ġprote ger
Ġj e
at ic
Ġ19 18
Ãº l
Ġt Ã©rm
Ġest amos
Ġp andemia
ĠR odo
fer m
ĠMov imento
M E
Ġarqu ivos
Ġn ordeste
Ġreduz ir
Ġat ras
ĠMc C
ĠRoc ha
ĠB ell
Ġsu d
ĠmÃ¡qu ina
Ġemb aix
g ht
es co
ĠTur quia
Ġsint omas
ap p
Ġcust os
ĠC N
Ġfac to
Ġflu xo
ĠPre to
ĠÃį nd
Ġc ro
Ġpres idÃªncia
Ġcompara Ã§Ã£o
b ita
ran da
ĠâĢĭ âĢĭ
land Ãªs
Ġsing les
ĠNor uega
Ġorganiz ado
Ġadic ional
Ġpres s
Ġacred ita
Ġm ente
Des criÃ§Ã£o
Post ado
ist os
ĠDo is
ĠTe am
M od
Ġrelacion adas
B e
D u
Ġg rÃ¡f
und iais
Ġ19 14
ĠSt an
ĠVol ta
ar reg
ĠC unha
ĠInform ation
ac os
h ann
co pa
Ġfab rica
ai re
etr Ã³leo
ir d
pres so
Ġesp orte
Ġ0 6
ĠYo ung
Ġsegu iu
ÃŃb lia
Ġab riu
At ualmente
n ome
Ġpos terior
Ġurb ana
ĠB iblioteca
Ġav es
Ġperson alidade
Ġenvi ado
Ġestre l
Cant ores
ĠW all
Ġart ic
Ġvol unt
Rece pÃ§Ã£o
Ãº car
ex t
Ġa le
t en
ĠP T
ĠPo de
ĠGon z
P ra
po p
Ġvia gens
ĠCast ela
r inho
Ġfemin ina
or s
Ġdesc reveu
Ġper i
ĠmÃºs icos
ent ado
Ġcent ros
Ġesp ÃŃrito
Ġad ultos
Ġfun cional
Ã¢n icos
ĠIm perial
Ġas seg
Ġexpl os
ĠP interest
Ġnecess Ã¡ria
197 9
C E
w o
adr Ã£o
D oc
Ġm Ãºltip
Ã³r ica
198 6
Port ugal
M ulheres
vel mente
Ġd anÃ§
Ġb or
. âĢĿ
A inda
ĠL oc
Ġassist ente
Ġ19 12
Ġinc Ãªn
Ġestrang eiros
ĠS or
ĠI B
S anta
ing os
Ġsign ificado
ĠY our
Ġl ago
anÃ§ amento
Ġag entes
ĠSant ana
Ġinteg rantes
Ġfacil mente
ĠcatÃ³l icos
ĠLa w
Ġc aixa
Ġpromov ido
ĠPro v
ĠFo x
ĠM Ã¡rio
Ġmot iv
ĠCur itiba
Ġ ign
ĠB ran
Ġ15 0
if orm
Ġcontrat ado
Ĩ Ĵ
u Ã¡ria
Ġaus Ãªncia
Ġg elo
ĠO k
ĠZel Ã¢ndia
Ġinvest imento
Ġlon g
ĠBand eira
A lex
c ob
Ġh el
ĠOr ganizaÃ§Ã£o
ĠH ungria
ĠÃ¡rv ores
Ġtra v
Ġt imes
ĠAn os
ĠK enn
Ġc erc
ei j
Ġ19 19
198 0
P ed
ac tos
ĠPro jeto
Ã© us
ĠH y
Ġsur pre
Ġcor pos
ĠSte ph
ru st
ĠCon fede
Ġde pressÃ£o
os e
ĠM ara
ĠU FC
ÃŃt ico
Ġ19 29
Min ist
Ġclass es
l iga
ÃŃ am
Ġfl or
Ġcham ar
ĠFo ram
Ã´n sul
ĠP RO
Ġdific uldade
ed as
rei ras
ĠVi eira
Ġproduz iu
ĠP ublic
Ġc ren
am ÃŃferos
ÃŃn cias
ĠJo e
Ġraz Ãµes
* *
empl o
Ġrefer Ãªncias
Ġvant agem
Ġv as
Ġex er
ĠM ol
Ġsen ador
Ġcres ceu
Ġin Ã©d
Ġinstr umento
Ġferram entas
Ġh oland
Ġar gent
Ġassassin ato
Ġcel ular
l an
ĠG od
Ġcirc un
P erson
iv idades
rev endo
ĠD al
ĠH u
Ġtel enov
ĠL ong
Ġdis cos
Ġt i
Ġt iro
ĠN esta
aborat Ã³rio
Ġd ial
ar io
Ġhomen age
Ġgrav ado
Ġord ens
Ġal tas
Qu em
Ġp Ã´
qu esa
rad ores
Ġcon fer
ĠS Ã¡
ph y
Ġeleito ral
Ġte at
Ġrem ov
Ġofer ecer
ĠP ot
ĠFemin ino
M O
Ġl anÃ§a
Ġfac e
form as
em y
Ġfam osa
ke y
port ivo
end ida
Ġ Âł
ig aÃ§Ã£o
Ġassoci ado
Ġsegu indo
ĠOp en
Ġpo dia
Ġexib ida
ĠN ick
Ġdefin ido
ĠGonÃ§ alves
ĠC y
et ano
Ġelev ado
est ro
ĠCan Ã§Ã£o
ĠInst it
Ġat os
ĠGe org
Ġser ve
Ġfot ografia
o x
Ġm ental
Ġf rota
Ã¡ quia
ap or
Ġdivulg aÃ§Ã£o
as ter
ĠPos teriormente
Ġt endÃªncia
Ġdesc rito
Ġl ine
Ġpra Ã§a
Ġvot aÃ§Ã£o
Ġram o
ourn al
F or
Ġf a
Ġpre domin
Ġcompon entes
Ġop Ã§Ãµes
Ġ19 17
ĠServi Ã§o
ĠAlg umas
f ogo
Ġ6 5
ĠP AR
ĠComun idade
ra qu
N ov
Ġconcent raÃ§Ã£o
f ace
Pro duÃ§Ã£o
Ġdesemp enh
de x
Ġ19 28
Ã³st ico
ĠPict ures
ĠL ew
ĠCan al
ĠSu as
att le
ĠC orn
il ity
ĠEx ecut
ĠC ass
ĠMu itos
ĠAr ch
Ġinteg ral
ĠPl an
ĠJ on
ĠC os
Ġar rec
Per fil
ĠV II
ĠUru guai
Ġdocument Ã¡rio
ĠGro up
ĠA D
ĠPara guai
p ha
Ġd ito
ab e
Out ras
Ġf irm
Ġart ÃŃstico
Ġc ura
Ġv indo
ĠT it
Ġn ut
av i
iz ade
est es
AD E
ĠÃ³ leo
Pa ul
M or
ess Ãµes
Ãªm ica
ĠFranc o
ĠP R
Ġc re
Ġv ou
ici entes
Ġescrit os
ho ra
Ġexp ect
Ġfam iliares
ĠA R
Ġro b
Ġim perial
C aracter
P os
ce pt
Ġrev istas
Ġsac erdo
Ġ19 24
ĠEss as
ĠN C
ĠC le
Ġsu pl
ĠSpe cies
Ġ193 1
ĠK at
ĠRa inha
Ġhab ilidades
k u
ĠcrÃ©d ito
ÃŃcul as
Ã©r ico
Ass im
ros oft
ĠG ood
Ġent idades
Ġconsci Ãªncia
st a
av ier
Ġacont ecer
Ġorient aÃ§Ã£o
ĠAer oporto
E t
Ġflores tas
Ġbair ros
is cos
Ġdever Ã¡
Ġbenef ÃŃcios
on al
ĠP hy
Ġn eu
Ġus ou
ag ram
198 4
H e
ĠL Ã¡
ĠAnd rade
ĠFl Ã³rida
Ġcerim Ã´nia
Ġcar naval
Ġdenom inaÃ§Ã£o
ec om
ed y
Ġme us
b as
if f
Ġ7 5
Ġpublic ados
gues ias
on der
Ġprotagon ista
Ġdisc ussÃ£o
Ġpol iciais
Ġdec isÃµes
Ġtrans iÃ§Ã£o
ĠB rand
D ia
ul ou
Ġev ang
L eg
f im
Ġcont as
ĠÂ »
ĠS T
Ġbril h
ĠCam peÃµes
Ġrecup eraÃ§Ã£o
Ġint era
Ġ <
Ġsol ar
iz aÃ§Ãµes
cul ino
ran o
Ġport as
Ġrep ublic
St ation
ĠProf essor
Ġcer teza
av era
c al
ĠT aÃ§a
Ġgrav adas
iz e
Ġclass ificado
ĠBr uno
Ġf usÃ£o
Ġqu in
Ġat ivo
Ã´m ica
Ġg osta
ĠS eries
Ġtrou xe
Ġre quis
Ġin do
Ġfal eceu
) "
um i
ĠEngenh aria
Ġpo esia
ÃŃm ica
Ġcrist Ã£
Ġpot Ãªncia
L A
k en
Ã³ quia
Ġform ando
ar quia
ĠFranc esa
Ġalt amente
oc ar
ĠVol ume
Ġe g
ĠCh ris
ĠIn s
T ube
Ġa Ã©re
Ġaliment aÃ§Ã£o
Ġs ÃŃtio
Ġcontin ente
ĠM elo
ĠÃģ l
Ġemp ate
Ġexc eto
Ġt rem
ĠS r
Ã§ u
Ġmes mas
rat ivas
at ina
198 3
uv as
ĠP onte
Ġc ron
Ġins etos
Ġverd adeira
Ã¡ ut
Ġsu g
ĠlanÃ§ ar
ĠCom itÃª
ĠT ransp
aliz aÃ§Ãµes
L oc
Ã Ĭ
ug h
ĠCor inthians
Ġorganiz ada
ai os
ĠCol umb
Ġpaul ista
fÃŃb ios
Ġar co
eric anas
Ġpert ence
R J
Ġfuncion a
Pr Ãªmio
j ecto
Ġtoc ar
Ġultrap ass
ĠL ic
os co
Ġna quela
ĠJ ord
du aÃ§Ã£o
Ġcresc ente
Ġ19 22
ĠHol lywood
Ġof erta
Ġt an
Ġad mit
ĠRodri go
Ġun iÃ£o
ĠhistÃ³r icos
ĠU F
Ġap art
Ġcar b
Ġho tel
Ġfil Ã³so
Ã¡ culos
ĠC up
ĠR uss
Ãªn cio
Ġlat im
Ġm ut
ĠL ist
Ġenfrent ar
Ġk g
Ġconsequ Ãªncia
ide o
H o
Ġl eve
Ġmes a
Ġexib iÃ§Ã£o
P esqu
pos t
N e
ĠM Ã©dio
encia mento
Ġassist Ãªncia
Ġd an
Ġ ur
Ġj o
Ġsud este
Ġconfl itos
Ġreceb eram
Ġvisit antes
Ġinaug urado
ĠestÃ¡ t
ador ia
Ġdeb ate
ro me
Ġab rir
Ġmed icina
ĠB R
ost on
Ġand ar
Ġp an
ad ia
arg as
Ġvocal ista
ĠPort al
Ġenvi ou
ĠQ U
Ġperform ance
ĠÃŃnd ice
Ġsim ult
ĠMosc ou
ĠA k
ĠPubl ish
Ġexpl ica
Ġeta pas
ont o
Ġrevol ucion
Ġatlet a
Ġsuper iores
er ca
Ġsof re
h u
ĠO ceano
Ġpos icion
Ġresult ou
m ais
Ġg reg
ess as
ĠDec reto
Ġsem i
uven il
Ġle ite
t re
Ġit ens
Ġar ro
al Ã©m
ĠÃ¡ rabe
Ġexce Ã§Ã£o
Ġex at
Ġreconhec ido
Ġimig rantes
ĠsÃ¡b ado
id al
Ġg osto
Ġo nd
at Ã³rios
ĠÃº til
M ont
ĠC ra
Ġca Ã§a
Ã¢n io
Ġ ?
i ol
l ag
er d
el d
Ġv amos
ĠA L
ĠH or
Ãªn ero
Ġperman ente
Ġpont uaÃ§Ã£o
Ġa re
Ġd ubl
Ġapresent ada
Ġsal v
Ġv ÃŃrus
Ġconserv aÃ§Ã£o
Ġdest aca
Ġimpress ion
Ñ ģ
Ġc anto
iz ando
ĠStud ios
Ġarrec ad
g ado
ĠCom m
Ġna Ã§Ã£o
Ġcont udo
Ġcapaz es
ĠN ap
Ġlat eral
Ġavent ura
Ġre iv
Ġmarc ado
ĠMat h
qu ad
Ã± a
ES P
Ġa nc
ĠP M
via Ã§Ã£o
ĠNot ÃŃcias
Ġtraz er
ĠJ eff
Ġext erna
ĠM it
un Ã§Ã£o
Ġg erais
ĠĠĠĠĠĠĠĠ ĠĠĠĠĠĠĠĠ
ĠquÃŃm ica
Ġado t
Ġame aÃ§a
Hist Ã³rico
ĠS us
ĠÃ¡rv ore
Ġtra tar
Ġdenom inado
ĠN elson
Ġnecess Ã¡rios
ri e
Ġf atos
ast as
Ġinter venÃ§Ã£o
Prim eira
Ġdescob rir
Ġaf ro
Ã³l ico
Ġdivid ido
ĠH ay
Ġform am
Ã³t ico
Ġfinanc eira
Ä į
Ġus am
b el
F al
Ġdescob riu
Ġaborda gem
ĠL ula
Ġj uda
amen go
Ġra Ã§a
Ġcap ÃŃtulo
Ġvis u
ĠF amÃŃlia
ĠGu inÃ©
ĠEn g
ĠF erra
ĠV ers
ina Ã§Ãµes
ĠO ff
Ġfede rais
Ġderro tou
I t
Ġp adre
pres sa
s ito
Th is
ĠUE FA
Ġsob era
Ġinv Ã©s
ĠE ug
Ġpro gress
r ÃŃvel
ÃŃ via
ou ri
Ġst atus
ĠSÃ©r gio
V A
Ġg anha
Ġadic ionais
aca u
cia mento
Ġnome adamente
ĠIr m
ĠPart icip
Ġinv erno
ec ret
ĠT aylor
ap t
ĠIs land
Ġest iver
Ġ19 00
ane amente
ĠAr g
Ġvend ido
Ġn oroeste
ĠBu enos
in er
ĠN asc
unicÃŃp io
emp enho
Ġfort emente
ĠL G
Ġac ord
Ġeurope u
ĠL Ãº
rav o
ĠperÃŃ odos
ic let
ina e
Car los
Ġaqu is
ĠBarb osa
Ġpopul aÃ§Ãµes
S te
ĠAg ora
Ġequival ente
a j
ÃŃt icas
Ġdist ritos
Ġmat ar
int endo
ĠEst ende
Ġal tos
Ġweb site
ĠTe oria
Ġ riqu
et ta
ĠR ol
Ġna z
if a
Ġpriv ada
ĠT udo
Ã³n ica
Ġfab ric
p p
ĠI P
Ġsol uÃ§Ãµes
Ġasp ecto
ĠL and
Ãªn is
oria is
" :
" ;
ĠFaz enda
ograf ias
C ha
Ġat ender
it age
Ġvol umes
Ġmot ores
Ġl ados
ĠInt eg
c il
w er
ĠV o
ĠD J
Ġcar gos
Ġapresent aÃ§Ãµes
eix eira
and ra
ad i
ĠM TV
ĠH ard
V itÃ³ria
Ġintro duÃ§Ã£o
ra que
Ġ19 26
ĠCom ics
enci ado
Ġinterpre tou
Ġrest antes
Ġreligios o
r Ã´n
Ġcu idados
Ġest ando
ĠH it
Ġag Ãªncia
Ġne ut
ĠC E
ĠAr thur
rab es
Ã³r gia
ilv Ã¢nia
Ġbrasil eiras
Ġpossib il
Ġc adeia
Ġde manda
ĠW at
g rÃ¡f
Ġ19 11
il as
o que
al y
Ġconsegu iram
Ġexp ul
Ġcompl ement
A f
her e
ĠOl imp
Ġinim igos
h or
Ġviv em
ĠBel Ã©m
ĠCO VID
po nt
Ġindepend entes
ĠP ira
ĠV el
Ã§amb ique
Ġreb aix
Ġse Ã§Ã£o
Ġconhec eu
Ġenc om
Ġte or
O rig
ron s
ĠLiv re
Ġrevel a
en ia
ĠS un
Ġprop Ã³sito
Ġl ou
198 2
em an
Ġes cl
Ġal uno
Ġdeclara Ã§Ã£o
Ġdesc reve
ĠEst as
lov Ã¡quia
rÃ© st
Ãµ em
Ġgrav aÃ§Ãµes
ĠhÃ¡ b
ĠAmaz onas
Ġ19 13
ro c
at iv
Ġfic am
Ġinvest imentos
ĠParl amento
in st
Ġp ior
Ġres s
ĠMan ch
ĠâĢ ¦
put aÃ§Ã£o
T odos
m us
T RA
Ġf Ãªme
o qu
Ġob st
Ġra c
ĠT am
Ġcont am
Ġflores ta
it Ã¡rias
Ġcost um
ĠÃ¡c ido
ĠCar ta
Ġcolon ial
Ġv endeu
Ġvel ha
v ias
un h
Ġan uncia
ific adas
Ġgre ga
T empo
Ġdu que
Ġpaci ente
ĠD il
Ġchin Ãªs
Ġseg ura
ĠEns ino
Ġab ast
Ġv ento
Ġconf ianÃ§a
Ġder rub
Ġlev ado
H A
ril ha
De putados
Ġsu do
ĠB lo
Ġpriv il
Ġrealiz a
imar Ã£es
ĠHer itage
Ġm ort
cri Ã§Ãµes
id aÃ§Ã£o
Ġexcel ente
i ed
l en
Ġcom et
ĠT ai
Ġintelig Ãªncia
00 00
Ġecon Ã³m
Ġresol ver
b ar
an de
Ġb atal
Ġdenom inada
Ġrit mo
ĠgalÃ¡x ia
Ġse i
Ġcham adas
Ġintern o
ĠRep ublic
ĠSe gu
Ġm ortes
Ġb ordo
ÃŃn ia
Ġd orm
Ġencont radas
Ġaltern ativa
Ġgrav ou
ĠespecÃŃf ico
Ġescrav os
Ġf est
Ġaj ust
ĠBat ista
ĠPa ula
Ġestabel ecimento
Ġ19 27
Ġpa in
ĠHar ris
Ã¡ p
ĠB ÃŃblia
ĠB est
Ġcria ndo
Ġil um
Ġ5 2
Ġ rig
ĠS ax
Ġcin emat
Ġdis sol
m el
Ġ19 25
ist emas
u an
P int
Ġmov iment
ĠM id
Ġaprend er
Ġposs ivelmente
ĠN atural
Ġtur ismo
ĠdÃº vida
Con st
M en
ĠT ratado
j ar
pl ic
Ġe du
ul e
el m
ĠB BC
ĠD ream
Ġocor rido
Ġatrav ess
D an
ĠR afael
Ġapar Ãªncia
ĠK arl
a w
Ã³g ico
ĠDi ego
ath an
Ġg in
Ġrepresent ou
Ġresol uÃ§Ã£o
ĠPesso a
ora da
Ġsudo este
A F
Ġjan ela
ĠP es
ra ta
ĠPlay Station
ĠD isc
ĠMar vel
Ġp etrÃ³leo
ar in
Ġreligios os
Ġcoleg as
co ol
Ã©r icas
Ġman g
Ġtom ada
ĠVas co
ĠC Ã³digo
iz abeth
Ġrepresent ar
m issÃ£o
At Ã©
Ġassoci ados
al to
ĠT u
Ġ190 8
Ġderro tado
ĠT Ã³quio
ĠMus eum
d iÃ§Ãµes
Ġele itos
Ġnorm as
Ġpass am
un k
Ã¢n g
Ġinter val
D om
ĠH ab
Ġal ma
Ġrepresent ando
Ġexp ediÃ§Ã£o
ĠEnc ont
E con
Ġen redo
ĠA C
ĠA G
Ġdisposit ivo
Ġc atal
ĠT eixeira
Ġmar keting
Ġdes m
ch os
cri pt
ĠL ight
Ġs Ã³l
ĠK ong
Ġmo de
Ġ19 23
est ado
Ġapresent ando
Ġp le
Ġt era
ĠD or
Ġmanif esta
Ġpro postas
f ar
ĠÃ¡ l
ĠGu er
Ġeste ja
ĠT ab
Ġn erv
Ġdisposit ivos
Ġsu port
ĠAr n
Ġreceb endo
ĠEsp anh
ĠBo y
Ġcoloc ou
Ġf ator
Ã© e
ĠYou Tube
Ġoportun idades
ĠB ibliografia
la h
ĠMich el
Ġdin astia
In ÃŃcio
cam peÃ£o
ĠSÃ©r via
ing en
C ultura
Ġdi Ã¢metro
ĠZ ona
D ev
j unto
os l
Ġvir ia
Ġelim in
r s
Ġf Ã³s
ĠCons erv
B retanha
Ġor b
Est ados
ĠS O
ĠG et
M y
ĠOut ro
L ei
est ino
Ġsub met
ĠCha ves
ĠB erg
Ġexat amente
id s
Ġz onas
id aceae
Ã³t ica
tex t
ig er
Ã³r d
ura dos
Ġtre cho
ĠTaxon omy
Ġcanad ense
ĠC ho
Ġt ip
our t
Ġd urou
Ġt rama
S eleÃ§Ã£o
Ã¢n sito
Am ericanos
Ġpubl icaÃ§Ãµes
m od
Ġent erra
Ġpil otos
it etura
ĠPl ano
ĠAl t
Ġreg ra
Ġnot Ã¡vel
ĠL este
ĠJ e
L O
S an
Ġab ord
Ġ8 5
Ġnum eros
ĠAlb ert
ĠConc eiÃ§Ã£o
Ġreligios as
Ġparticip aram
Ġcent enas
Ġcl im
Ġb ons
Ġir reg
Alg uns
Ã©n s
Esc ritores
Ġc Ã¡
ic ÃŃdio
Ġestabel ecido
Ġfund ados
ĠC uba
N GC
Ġpint uras
Ġdescob re
ĠQu em
Ġb ack
Ġorient al
Ġliv res
or os
he u
Ġpr ision
Ġd ign
Ġprecis am
ĠVi ena
Ġdig itais
ĠR ac
on Ãªs
Ġh e
ĠOn line
Ġvoc Ãªs
Ġdet ect
Ġm issÃµes
ĠL ÃŃb
ĠTor re
ĠP riv
one y
Ġregist ros
Ġequil ÃŃbrio
il lo
og u
Ġperspect iva
D iv
Ã© reas
on esa
Dav id
ÃŃ qu
Ġson ho
ĠCard oso
Ġg as
Ġm unicipais
el ado
Ġgra ve
ĠPesqu isa
ic ismo
Ġal fab
Ġexpl ic
Ġcirc uito
ri k
Ã¢m ico
ĠVerm elho
ÃŃ v
Ġda ÃŃ
ĠComun icaÃ§Ã£o
Ġh ar
Ġint eiro
Ġlev aram
Ġsuc essor
Ġjog a
ĠL ago
red ores
ĠFri ed
Ġab rig
P rem
ogrÃ¡f icas
Ġb anh
ÃŃ adas
ĠJ am
Ġ25 0
ĠAlexand er
ional mente
ĠP rem
ĠEst rada
ĠFl amengo
ÃŃn ios
Ġret rat
panh as
ĠMic rosoft
ĠJ ournal
Ġenvolv idos
C amp
Ġf ach
Ġdeput ados
Ã³g io
ĠInv erno
reg aÃ§Ã£o
Ġdesenh os
ur no
ĠNet work
Ġnucle ar
c m
Ġl hes
ĠFl uminense
Ġbas es
Ġcab elo
F onte
Ġs ites
Ġ5 1
ir st
Ġb iblioteca
ÃŃr culo
Ġp rior
Ġol har
Caracter ÃŃsticas
Ġreg ress
on na
Ġcomp rov
ug a
Ġmod ernos
Ġlut ar
ĠLe op
oc rat
Ã©m ica
Ġdestru iÃ§Ã£o
ĠR ou
ĠGu imarÃ£es
Ġc Ã©u
ĠC ov
Ġpar ede
ĠtÃ©cn icos
ĠH ero
!! !
Ġcirc ulaÃ§Ã£o
Ġgrat u
Ġapar iÃ§Ã£o
nc h
Ġda qu
Ġfra se
id ou
Ġrus sa
ĠS E
ĠI d
Qu e
adre z
Ġ >
ĠR amos
ĠH ale
Ġcar deal
197 8
C ON
r Ã³p
Ġfund os
Ġdesc on
Ġdiv ert
Ġren ome
Ġsent ir
Ã¨ re
ĠSp ring
Ġretira da
Ġreg ionais
ĠBo a
ĠprÃ³xim as
Ġcaus ar
198 1
ĠAd v
Ġconquist ar
Ġmar gens
ĠMo Ã§ambique
ĠDire itos
Ġtent ando
ĠJer us
Ġrest ante
b en
ĠN intendo
Ġfran quia
p son
ĠbritÃ¢n icos
Ġperi Ã³d
Ġa Ã©rea
ho t
ĠTerc eira
M il
Ġins criÃ§Ã£o
ĠCamb ridge
j amento
ĠSebast iÃ£o
ĠEst at
D a
Ã³ x
Ġatac ante
ribu iÃ§Ã£o
ĠB oston
Ġpropriet Ã¡rio
Ġpopular idade
um ental
AD O
Ġclassific ou
Ġ5 9
Ġdedic ado
H ar
ĠD am
ĠM ike
Ġconhec e
ĠB all
posit ores
ĠN GC
Ġouv ir
idad a
ĠD ie
Ġind icaÃ§Ã£o
Ġdetermin ar
Ġe uros
Ġ19 15
ĠclÃ¡ss ica
Ġab rang
ĠInv est
Ġl Ã³gica
Ã´n ios
Ġb oca
Ãº rb
ĠMar io
uk i
Ġpos teriores
Ġp av
Ã´m ico
Ġ5 4
Ġespecial ista
Ġe col
ĠS Ã©
ĠS ex
C ruz
gu eiro
Ġef ica
Ġvide oclipe
c ular
Ġident ificaÃ§Ã£o
ĠCamp inas
ĠLegisl ativa
T om
ou ch
ĠFranc is
ĠCo op
Ð¾ Ð
Ġper cor
Pro c
ĠBar ra
Ġafirm ando
ocra ta
ĠP u
ĠT ak
Ãº ne
Ġgovern os
Ġcient istas
d is
cion ado
ĠmÃ©d ica
Prin cip
i ew
Ã© f
ĠHol anda
Ġ19 21
ĠCap itÃ£o
z as
ĠB rad
Ġapo iar
Ġtri nta
Ġcandid atura
ĠTÃ©cn ico
ĠT i
Ġex port
Ġdec ide
ĠPr Ã©mio
Ã³r um
ĠXX I
eg ro
ĠMa ia
T rans
ĠCon v
Ġdesc riÃ§Ã£o
Ġguitar rista
ĠEx istem
Ġf ases
Ġescrit Ã³rio
ĠV argas
Ġmost ram
ĠT rin
Ġpres os
ĠJun ior
Ġpesquis adores
Bas quetebol
f ia
Ġfinanc eiro
Ġsegu ro
Ġhuman idade
ut t
Ġconce itos
Ġincl inaÃ§Ã£o
h ol
tura s
Ġsal as
EN TO
Ġdivid ida
Ġrevol uÃ§Ã£o
Ġocorre ram
Ġenvol ve
Ġlarg ura
Ġdo wn
Des porto
Ġart ific
Ġs h
Ñ Ĥ
ĠM Ã©dia
Ġran king
ec os
ĠTh re
Ġemp rÃ©st
Ġinteress ante
ÃŃn gua
Ġcap it
Ġmant endo
J ornal
ett s
Ġforn ece
Ġc m
ÃŃ zes
Ġevid Ãªncias
Ġespirit ual
ĠB uc
rop ical
Ġperd endo
ĠB ea
Ġcomp at
ian e
Ġelev ada
ĠCar n
Ġlig ado
C entro
H en
ĠTer esa
Ġtel ev
Ġc ertos
ĠF ire
R a
ĠinÃºm eras
Ġ19 16
Ġtax as
Des empenho
ĠK u
Ġutiliz adas
Ġcomb inaÃ§Ã£o
Ġarquit eto
Ġdo ce
ĠH ip
ĠAust ral
Ġconfirm ou
Ġevent ualmente
ĠX III
Ġfac uldade
Ġprov ÃŃncias
Ã´n ias
Ġespecial istas
197 6
Ġp eixes
ent or
ĠP etro
Ġar re
Ġm m
ĠC ount
Ãº jo
Ġar cebispo
Ġestre lado
Ġtro c
ĠG all
Ġpar edes
ĠS av
baix ada
ann i
c y
ĠGar cia
Ã¡ vio
Ġbanc os
ĠmÃ¡qu inas
P e
cion amento
Ġapar ecer
Ġcaus as
Ġinaug urada
B O
F und
Ġor Ã§amento
Ġbaix as
j ac
ĠB rian
ĠCam ar
r idos
Ã´n imos
Ġastron Ã´micos
rÃ©s c
Cin ema
] ,
En quanto
ĠCl Ã¡
ĠM ulher
Ġtaref a
ect ion
Ġf lex
An g
Ġg ab
Ġport al
it udes
ri Ã§Ãµes
log ia
ĠP adre
Ġb ara
Ġmont anha
ĠVi etn
M art
S ol
Ġ5 6
Ġpont a
Ġconstitu cional
Ġident ificar
ĠS l
Ġnot ÃŃcia
ĠS id
Ã³n oma
Ġestud ante
Ġaux iliar
ĠWar ner
ĠdÃ©c imo
Ã¡ gua
Ġinc ap
Ġapl icaÃ§Ãµes
Ġrecup era
ab iliz
Ġocor rem
us e
ĠBern ard
Ġde ram
ĠMar ques
Ġexist ente
Cam peÃ£o
Ġpud esse
Ġo per
Ġdefin ir
ĠS ÃŃria
Ġv idas
ĠD rag
ĠNC BI
Ġnome ou
197 5
T em
ĠG estÃ£o
ev in
Ġcam panhas
ĠFreder ico
ĠA ud
Ġdisput ar
p us
ĠT ony
ĠTel ev
Ġrecus ou
ĠW restling
Ġconv idados
] .
Ġp se
ĠF ord
ve ja
ak er
ĠBro ok
ĠDi Ã¡rio
D er
iv id
bo ok
ĠS ar
b ach
ĠP L
bl og
Ã©d ios
Ġplata formas
Ġcaus ou
Ġf ib
Ġter iam
Ġcom ida
197 7
Ġdetermin ada
b os
Ġret om
ĠWW E
P T
P ubl
ĠGe Ã³rgia
ĠHe art
ÃŃ bl
Ã©r sia
d ist
Ãºn g
m i
Ġcontrol ar
rof Ã©u
A lb
Ġinclu ir
iam i
Ã¡s ia
ĠS obre
og ador
Ġinim igo
ĠX II
ĠCha p
ĠFranc e
Ġdefin ida
ert ar
ĠMi randa
ĠFor Ã§as
Ġconclu iu
Ġrece pt
ĠD io
Ġset ores
ĠAnt h
ĠcientÃŃf ico
on Ã©sia
Ġm undiais
Ġf el
ĠÃ³r bita
ĠH unt
in son
ĠIm perador
ĠAra Ãºjo
ul ados
Ġpat rimÃ´nio
ĠF Ã¡b
ĠS n
ĠM aior
Ġj uÃŃ
vi ew
ach us
ĠD ados
Ġer gu
Ġv entos
ĠN enhum
Ġmu da
Ġtelenov ela
Ġdesaf io
Ġdep ende
N O
Ġat iva
Ġext inÃ§Ã£o
Ġalc ance
ĠDav is
iv eram
Ġt ese
Ġen erg
Ĥ ¬
ĠN eto
Ġretorn ar
os h
Ġbra Ã§o
il ares
Ġperman ece
rÃ© ia
ĠDom in
Ġunivers idades
Not ÃŃcias
rav am
Ġmat a
Ġbranc os
Ġespera nÃ§a
Ġp eixe
it Ã©
Ġ ras
m ore
ul aÃ§Ãµes
aliz ou
ĠCap ital
do wn
ros a
ell er
Ġequip as
Ġinteg raÃ§Ã£o
ĠFac ility
Ġrad io
em Ã¡ticos
Fl ora
Ġtransform aÃ§Ã£o
ĠRad io
ĠR ot
ĠT av
ud ia
B R
D is
ĠK ir
Ġprov en
N av
Ġescol ar
ĠhipÃ³t ese
art h
b ras
Ġesc ultura
ill y
ĠF is
eg an
ĠFil osofia
on do
Ġfo gu
ce pÃ§Ã£o
Ġmar ÃŃt
Ġtira r
Ġac ha
T o
ri p
ĠSt ate
do c
ĠBern ardo
Wil liam
A ves
ĠQ ual
Ġper igos
ĠDi retor
ĠMor eira
Ġcon dut
ĠM Ã©rito
Ġextra ord
ĠJÃº lio
Ġex clu
Ġch uva
Ġperd ido
Ġres pira
ch es
Ġneg ro
ĠSy stem
Ġpro b
Ġen x
Ġmod alidade
Ġeg ÃŃp
Ġresta ura
ĠE ric
ut as
ĠE ast
Ġrevol ta
ĠM ess
ĠV ar
om ot
ig an
Ġtecn ologias
es pera
Ġvig or
ĠB ispo
Ġf asc
Ġh em
Ġch Ã£o
B en
T ransp
Ġcal endÃ¡rio
Ġdout orado
V is
el i
ÃŃss imo
ĠÃ©t n
ĠPro t
Ġles Ã£o
ĠJerus alÃ©m
an ge
Ġt ido
Ġim postos
ĠCon ferÃªncia
Ġt um
Tra bal
ĠSt one
ĠG ama
ĠH ans
Ġconv ert
Ġp ac
Ġan ime
Ġrefer ir
se x
Ġconc ord
Ġarqu ivo
Ġer ros
Ã¢ne as
Ġb rut
Ġmed iante
ĠD un
ĠFel ipe
Ġde mo
Ġpar ecer
Ġconfront o
Ġurb ano
ĠT ib
Ġaprend iz
Con f
Ġros to
Ġmediev al
Ġens in
Ġpre en
Ġac ho
ess es
ab o
Ġmor rer
Ġdestac ou
ĠCirc uito
al es
ĠM eio
ĠV ista
Ġdesc endentes
d ie
Ġconstru ÃŃdos
Ġdim ensÃµes
ĠLG BT
E r
iv ar
ĠEsp a
ren s
Ġ189 0
ĠSecret Ã¡rio
ic us
Ġpor te
ĠXI V
Ã³r icos
Ġcri ados
Ġna Ã§Ãµes
Ġp ico
Ġl itoral
Ġson o
enc er
197 0
Ġt io
AS A
ĠBro ad
RI O
Ġform al
ĠHa w
htt ps
ĠS ony
Ġpro emin
eir ista
ĠPÃºbl icas
ĠFilip inas
ĠM estre
Ġferram enta
ĠAp ar
Ġcert as
ĠM ano
Ġab ra
ĠPort anto
gl as
Ãº t
ar ial
Ã©re bro
Ġcarb ono
Ġl ux
Ġintens idade
emb er
ara t
Ġcompet iu
M Ãºsica
ĠHum an
pens a
Ġin iciais
Ġdisput ado
Ġdirig iu
Pa ulo
Ġcont os
Ġneg ros
ĠU l
Ġsex to
Gal eria
ot s
O f
Ġex cent
Ġimped ir
Ġco t
197 4
Ġescl ar
ĠLibert adores
c in
ĠL ittle
ran a
pera t
ĠHar ry
ĠB ert
Ġcomprom et
ĠP ower
ĠR iver
Seg unda
Ġdever iam
achus etts
ĠM ulheres
m ina
ĠF red
Ġcon ceb
ern idade
Ġcomput adores
ĠEcon omia
C ur
I R
nasc ido
Ġbloc o
Ġes m
Ġcomum ente
ob il
ĠAg Ãªncia
Ġg r
Ġmont anhas
Ġcrit Ã©rios
Ġs ant
ĠH ong
ĠCo ok
Ġargent ino
Ġc anh
Ġdec is
Ex istem
IS T
b rasil
p an
Ġat ivos
Ġsubstitu ir
ĠTor res
ĠTorn eio
ĠP ierre
Ġatmos fera
et or
er es
Ġapar ecem
ĠNeg ro
Ġv ender
Ġan ualmente
gan e
ĠOut ra
Ġrecup erar
anc ha
Ġcam isa
Ġdit adura
Ġqu ente
Ġrec rut
ĠDu arte
Ġcomp ar
Ġsub ord
Ġch ance
ĠfenÃ´m eno
Ġs ig
ug osl
ach ar
Ġplanej amento
Ġc edo
ro co
Ġint im
Ã³r ter
Ġinici ar
Ġt end
Ġposit ivo
Ġrepresent am
Ġcam peÃ£
Ġinter med
ĠLew is
Ġt ensÃ£o
ĠEn gl
Ġganh ando
J ul
Ġm ando
per c
Ġhab ilidade
Ġc adeira
ĠB rig
ĠM unicÃŃpio
cion ar
ĠOut ras
Ġaquis iÃ§Ã£o
Ġm ix
ĠV ice
Ġ( ;
ĠB ack
v est
Ġc iÃªncias
Ġsim pl
ĠComun ista
ĠAc t
arm ac
C a
Ġadqui riu
id entais
ec edentes
Ġrev isÃ£o
or c
Ġlic enÃ§a
ĠHot el
ar que
Ġsepara Ã§Ã£o
Ġbus car
m l
ch t
is ar
ĠBen fica
G rande
Ġ u
Ġpo bres
Ġrece ita
Ġest ilos
ion ar
Ġag ress
ĠN essa
Ġcard ÃŃ
ĠPalm eiras
Ã´ lei
if t
Ġconsidera das
I F
Ġm Ã¡s
Ġprov Ã¡vel
Ġexcent ricidade
Ġ 00
Ġof ens
Ġhist or
ol os
Ġdesign ado
ĠM ix
Ġintit ulada
v ard
G o
Ġc ub
Ã³ w
Ġal iados
Ġesp ortes
Ġcu jos
Ġtermin ar
N ome
197 3
Ġfura cÃ£o
Ġmens agens
if orme
Ġab und
Ġ5 7
Ġapar entemente
Ġassoci ada
Ġs orte
ÃŃmp ica
Ġde d
Ġneg oci
cul a
Ġ orn
ĠG ot
Ġter Ã§a
Ġcam ada
Tel enov
inal mente
ĠP av
Ġcombust ÃŃvel
Ġgrav ada
b or
Ġb rig
Ġam izade
Ġaument ou
Ġl as
Ġcor rupÃ§Ã£o
Ġr Ã©
ĠO d
RA S
Es se
Ġtelef one
ro le
id iano
ĠSte ve
Ġsucess os
ĠF u
enci ar
ĠDemocrÃ¡t ico
Ġnot Ã¡veis
ĠM am
Ã¡r qu
gu ez
Ġpou ca
Ġol ho
Ġf estas
Ġam iga
ĠChrist ian
ĠOh io
Ġfaz enda
Ġamb ientes
Ġgra us
P op
on ial
Ġace itar
k ov
Rob ert
Ġinspira Ã§Ã£o
Basquetebol istas
ĠSim on
E A
Ġfil os
S ch
z ar
ran ha
jet Ã³ria
ang er
Ġperc urso
Ġn ele
Ġt ort
Ġ5 3
Ġfic t
Ã¢ne os
Ġcorrespon de
Ġenc arreg
on da
ĠV elho
Ġpreocup aÃ§Ã£o
Ġmagn itude
P M
Est Ã¡
Ġna ve
ĠestÃ¡ gio
ĠL ov
Ġequip amento
ĠD eb
Ġd ono
et ra
f amÃŃlia
Ġvenc edores
Ã³ c
Ġconstitu iÃ§Ã£o
s che
Ã§ ados
Com p
Re p
Es sa
ĠVir g
en imento
Ġs or
Cat eg
Ġ Ãªx
as o
eb eu
Ġ8 4
ĠT s
ĠH ome
Ġpara r
Ġcu idado
Ġmost rando
ĠCom Ã©rcio
ĠOb serv
ad j
ĠBlu e
at ou
ec idas
Ġrelacion ado
ĠB ul
ce p
Ġconst elaÃ§Ã£o
b our
ĠGu ard
Ð º
Ġfilm agens
T ur
ĠEd iÃ§Ã£o
Ġres sal
ĠEqu ador
to ra
abel as
ĠGovern ador
Ġconf und
ende dor
Ġcorrespond ente
Telenov elas
ĠB la
Ġcoloc ados
iter r
Ġhon or
Ġcost as
ĠincÃªn dio
ret amente
Ġb ur
Ġcas ar
ĠD NA
or it
Ġcircun st
r icaÃ§Ã£o
Ġdesconhec ido
B r
ĠBranc a
F ern
Ġf Ã³rmula
ĠH and
Ġpe de
rÃ©sc imo
Ġt ras
il de
Ġest aria
197 2
icion Ã¡rio
Ġeuro p
ĠS ho
ĠH ugo
est ar
Ġro ta
Ġcontribu iÃ§Ã£o
ĠF ÃŃsica
Ġinclu iu
ĠAl ta
man os
Ġrevel ado
Ġenvi ar
ĠA os
ĠR TP
ria no
Ġdef ende
Ġimp Ã©rio
p id
Ġl idar
Ġlut as
Ġenfrent ou
Ġentre g
ĠC ax
Ġtem por
Ġinspira do
Ã¶ r
ĠjurÃŃd ica
Ġmil it
Ġprepara Ã§Ã£o
Ġcul to
ĠJo hann
im b
Ġdirec Ã§Ã£o
Ã¡ ct
ĠâĢ ł
ĠDe ad
ans as
ĠL og
up i
Ġz ero
Ġ3 60
Ġda quela
ĠNo ite
Ġsab ia
Ġpert encia
< /
Ġha ja
ill er
Ġparcial mente
Ġcor oa
Ġconv ite
Ġâ ĨĴ
ĠL ut
Ġra ÃŃzes
Ġtent ativas
Ġaplic ativo
Ġterm ina
Ġse v
Ã¡s io
Ġprom et
Ġ190 5
. ),
ĠE N
co t
Ġace ita
Ġsur ge
Ġv inho
âĢ İ
ĠPhil ip
ĠN BA
k g
Ġpermit em
Ġcas ada
pl os
Ġregist rou
ĠAre na
Ġdes ist
Ġital ianos
Ġsac rif
Ġcor ridas
Ġsub sequ
ĠCat edral
196 7
P s
Ġal b
Ġac ol
ĠM edia
P G
ss on
H ome
ĠW olf
Ġcat Ã³lica
Ġprofund idade
Ġfinan ci
Ġm arav
Mic hael
ĠN ig
aliz ando
ĠPro p
S am
c ara
Ġd Ã£o
an na
ĠJ uventude
... ]
ĠColumb ia
Ġparticip a
Ġconsidera r
Ġdivers idade
Ãºst rias
Ġc Ã´nsul
ug e
Ġcart Ã£o
Ġsof rer
ĠCh art
Ã¢n icas
Ġman ip
Ġc os
ĠAz ul
Ġcompost os
Ġconex Ã£o
ĠUn iverso
ĠBol ÃŃvia
Ġaprov ado
Ġm apa
at em
Ġv ias
w idth
ĠW iki
Ġsal var
Ġautom at
ant h
ac he
land esa
ĠTwitter Compartilhar
g overn
ia nt
Ġpos ta
Ġma jor
Ġbenef ici
? ?
Ġc ine
ĠS BT
ĠCar ioca
ĠServi Ã§os
ĠL us
L ou
Ġneg ociaÃ§Ãµes
Å «
Ġsuger e
E ra
Ġt ribunal
ĠF antas
Ġal ianÃ§a
Ã©n ia
Ġdestac am
ĠA BC
Ġpresid encial
ĠAm ara
ĠPrin cip
L E
Ġab st
Ġfund adores
Ã³ via
Ġaument a
ĠB em
Ġcultura s
Ġdown load
ri go
Ġcons elh
Ġcab e
Ġ190 9
ID ADE
Ġpal est
ĠBo ta
Ġespect adores
ĠCon n
em pre
eb re
Ġsignific ativa
Ġaust rÃŃ
ĠI g
Ġdes port
Ã¡r b
Ġgera r
Ġant rop
ĠNev es
B ra
lb um
Ġacont ecimentos
. (
ĠV illa
Ġriv al
ĠLu a
L uc
ĠP io
C S
res sÃ£o
ĠEl izabeth
it ivos
Ġre ver
ĠJac ob
Ġm Ã³veis
Ġon ze
Ġinterpre tar
Ġdepend endo
ĠAmaz Ã´nia
ĠD ol
Ġat ira
Ġim pressÃ£o
ĠespecÃŃf icos
R ed
at her
ĠL ab
ĠP elo
ĠM is
ĠPro vÃŃncia
Ġex ame
con de
ĠD own
Ġopera cional
W eb
Ġv ing
it ivamente
ir Ã¡
196 9
enn y
ra st
Ġg raf
Ġedu ca
Ġa ula
eve do
M Ãºs
o ide
Ġjog ando
ĠB omb
Ġcont er
Ã¢n ime
Ġfam osos
Ġmet e
Ġa viÃµes
ĠN am
Ġav anÃ§o
ĠX box
ntes e
c imento
ĠSport ing
Ġfinan ciamento
d ire
Ġpl aca
Ġfinal idade
ren Ã§o
Ġjapon eses
Ġs inc
ĠS ky
ĠV III
E ducaÃ§Ã£o
ĠR E
Econ omia
ĠHel ena
Ġmec anismo
Ġatu ando
Ã³p io
Ġescrit ores
Ġcump rir
re iros
ros t
RA N
Ġtec ido
Ġque im
ÃŃl ica
M al
enc es
Ġjorn ada
Ġn ew
Ġres tos
Ġentre gue
Ġreconhec ida
Univers idade
Ġ190 4
Ġv ivas
ĠIn dustrial
Por to
ĠL en
Ã³r cio
osse x
Ġc Ã©rebro
hop ping
Ãº ria
Ġh ard
Ġprodut ora
Ġperman ecer
Ġfach ada
Q ual
Ġ9 5
Ġjud icial
Ġ7 8
ĠR ita
ĠF ons
ĠSt ory
ĠdÃº vidas
iov anni
ĠM os
iv ais
ĠD ark
Ġp et
Ġfil has
Ġdef endeu
Ġ ia
ĠFacebook Compartilhar
E pis
ĠAl an
ĠGre at
Ġin con
ĠAm ericana
Ġsubstitu iÃ§Ã£o
Ġaliment ar
Ġrefer ido
Ġref ug
Ġpriv ado
Ġprol ong
ĠBran gane
ĠG i
ĠSa ud
om an
T orn
let ismo
an co
Ġdedic ada
Ġvirt ual
ĠRe present
ĠC R
og Ãªn
Ġrel atos
Ch rist
Ġ190 6
ĠM and
Ġan Ã¡l
z il
Ġcrim inos
Ġond as
ork s
ĠAng el
Ġ190 7
Ġis l
H er
Ø §
ĠÃŃ nt
ĠL t
ĠCo elho
Ġd icas
Ġpart ÃŃculas
197 1
ĠCO M
ĠC oraÃ§Ã£o
ĠM ult
Ġtestem un
ĠL ac
Ġpret ende
Ġconst rut
ĠM ak
Ġseg mento
Ġra st
Ġlim p
av y
Ġsol id
Ġdesenvolv ida
Ġconstitu em
in Ã¡rios
Ġn ativa
it ro
ĠDes ign
qu ist
ĠF undo
Ġrepro duÃ§Ã£o
P od
ĠM iami
ĠI sa
ĠOpera Ã§Ã£o
d eias
ĠPra ta
ino is
ĠMont eiro
Ġdesign aÃ§Ã£o
V O
ĠS ir
Ġeurope ia
ĠMass achusetts
ĠÃģl v
enh as
in z
Ġ( ),
Ġdis posiÃ§Ã£o
ĠCom pl
ĠBe ach
Ã©m ios
ĠTh om
Ġvin cul
ĠC ri
s uc
Ã´n icos
it Ã³rio
Ġdu plas
Ġconsider ou
Ped ro
Ġtransfer ido
ĠL am
ĠI X
ĠJ ur
Ġsuc edido
ĠF ront
ider ou
Ġextre mo
Ġcompre ensÃ£o
Ġante cip
Ġdes ast
Ġdiz em
Ġinflu Ãªncias
Ġreform as
g i
ec ular
Ġ6 8
Ġorden ou
Ġguer ras
or f
Ġob s
Ġcoloc ada
Ġconden ado
ĠP ad
ant ar
ĠAl ice
Ġvaria Ã§Ã£o
d ig
Ġde mit
el t
ĠS ic
Ġ6 00
Ġorig ens
Ġa Ã§o
er ias
Ġresult ando
Ġdesenvol ve
Ġm ural
Ġtermin ando
U F
ĠN unes
Ġte orias
ĠMet ropolitana
Ġre is
ay a
Ãº lio
Ġ idos
ĠN u
Ġper igo
ren se
Ġlim itada
V I
ob ra
Ġesp ira
Ġrecon stru
anÃ§ ado
Ġaut onomia
Ġatu ava
ĠPol it
im ir
Fac ebook
oc as
k k
Ġcomprom isso
Ã ¸
ĠM ate
Ġdem ocracia
Ġprev isto
Ġfantas ia
ou th
ĠCl ar
Ġapo ia
g es
ic ados
en Ã¡rios
ĠC B
ĠRog er
Ġd il
Ġre clam
sh ire
ĠCruz eiro
ĠG as
Ġen ferm
Ġlat ino
ĠD iocese
ur ch
Ġacus ado
ĠBota fogo
ĠM ir
Ġav en
Ġsent imentos
Ġacompanh ado
Ġinterpret ada
en Ã§Ãµes
ĠK ent
ĠT odas
Ġes f
Ġocup ou
Int ern
if ÃŃcio
ĠBar Ã£o
Ġint eraÃ§Ã£o
Ġde lic
Cole Ã³pteros
ash i
ĠAmb iente
Ġque bra
Ġest rÃ©ia
ĠeletrÃ´n ica
le os
Ġres ulta
n ov
Ġadolesc entes
ĠR ick
Ġchin esa
ĠCap it
Ġmarc ada
ĠS uc
Est at
Ġcomer cia
ra te
re io
Ġdim ensÃ£o
ou ros
ĠG P
Desambigu aÃ§Ãµes
k h
ag on
Ã©r s
alh Ã£es
Ġplac ar
ĠAnt iga
ri ram
ul ha
ĠN ik
Ġorgan ismo
Ġol ÃŃmpico
Ġquad rados
Pres idente
rav Ã©s
Ġped ir
Ġmol Ã©c
ĠB our
Ġdesenvolv idos
un icaÃ§Ãµes
Ġr ico
ĠdÃ©c ima
196 4
Ġinaug uraÃ§Ã£o
Ġc ai
Ġcir urgia
p x
im in
Ġrep orta
es ouro
Ġconc essÃ£o
Ġgol eiro
Ġel ite
ret os
Ġnar rativa
ĠFin lÃ¢ndia
Ġmatem Ã¡tico
U M
ĠDe putados
Ġposit iva
Ġcoment ou
Ġderro tar
rit Ã³rio
ĠTom Ã©
Ġem ail
ou d
per o
Ġac ervo
ĠMed alha
Ġm ission
id ge
via mente
unci ou
Ġvere ador
M ac
Ġdiv isÃµes
Ġgrav ar
Ġpovo ado
os sa
Ġnecess Ã¡rias
y er
Ãº p
Ġass ent
uc ran
Ġtr Ã¢nsito
Ġtaref as
ol do
at ual
ĠM ana
Ġpublic idade
Ġcaus ando
ĠHen ri
ent Ã¡rios
ĠPe qu
ĠSam uel
Ġexc ess
Ser vi
Ġlig ados
Ġs ap
ÃŃ amos
et on
Ã©l ica
Ġinteg rante
Ġcap ÃŃtulos
ĠMu itas
19 45
Ġexpl icar
ĠlÃŃqu ido
Ġproced imento
Ġproced imentos
Po de
Ġvis ando
Ġingress ou
H om
Ġp erante
ro cos
ri nt
ei ght
Ġvol eibol
Ġsitu a
Ġs elo
Ġunivers al
Part ilhar
Ġemerg Ãªncia
ĠG rav
ĠEr n
id en
Ġserv idores
ð Ł
ĠTo da
Ġt iver
Ġpro duÃ§Ãµes
Ġorganiz ar
we et
Ġpergu nta
ĠO m
Ġinform ou
Ġadvers Ã¡rio
Ġm Ã¡g
ur Ã£o
aliz ados
Ġtex t
Ġing les
ĠfÃŃs icas
er on
Ġcontinu idade
ar ra
20 23
Ġmec Ã¢nica
Ġquin ze
og en
ĠCh ico
ĠS up
Ġata car
Ġsuje ito
Ġqu ero
ĠÃ¡ udio
ĠTur ismo
Ã¡st icos
Ġtemperatura s
ĠA dol
R et
ĠFons eca
ora r
ĠM ata
Ġfam a
Ġparticip aÃ§Ãµes
or idae
ĠS emin
ĠCar ol
Ġab ol
ient al
196 6
rÃ¡f ego
Ġfab ricaÃ§Ã£o
Ã³ lio
Ġlib eral
ĠCont inental
iform es
at en
ut i
ian Ã³polis
ĠP ovo
196 5
era dos
ct ion
ĠÃŃnd ios
te rap
Ġass ume
Ġhtt ps
ĠI raque
Ãºm ero
Ġaqu ilo
Ġsom os
ĠB et
Ġj ardim
P P
ĠinÃºm eros
Ġriqu eza
w art
UC N
Ġprocura r
ĠInstit ute
ol uÃ§Ã£o
ev a
Ġespecial izada
ĠE ver
Ġestre aram
ĠOr gan
Ġescrito ra
3 00
Ġinf l
Ġleg ais
ĠCas o
Ch ar
C H
Ġro w
Ġinf raestrutura
ĠEd itor
omet ria
Ġlig ada
Ġirreg ular
Ġrece pÃ§Ã£o
Ġmec an
O M
Ġastero ides
in clu
Ġ( -
ĠB iz
ĠH art
Ġo vos
Ġext inta
Ġcant ar
ron g
C u
Ġca Ã§
ĠLou renÃ§o
Ġa ve
ca o
ĠcomeÃ§ ando
Â» ,
ĠGram my
M e
ĠC av
Ġpo ema
Ġespanh Ã³is
Tel evisÃ£o
An fÃŃbios
Ġen sa
Ġnome ada
Ġexist ir
ĠT own
ĠN A
Ġvend idos
Ġcomp ens
ĠcomeÃ§ am
ic am
ĠM Ã¼
Ġv apor
az ine
ĠFil me
ĠP ai
gan Ã§a
ist ente
ert ou
' .
Ġpoder Ã£o
ĠTor onto
ad d
ĠM A
Ġl ink
ÃŃss ima
Ġas i
T S
ÃŃf ica
met ros
Ġr ica
In form
s oc
ĠM eu
ĠCa etano
ad er
Ġnome aÃ§Ã£o
Ġac erca
Ġrow span
Ã Ģ
Ġenf at
Ã «
ic ol
ro mo
de ais
Ġvis itar
ĠSocial ista
ĠclÃ¡ss icos
ĠM Ã¡r
ĠInd onÃ©sia
Ġclassific ados
at ra
Ġes g
orn ia
pos tamente
Ġpat ri
Ġher Ã³i
Ġ8 00
Ġdeco raÃ§Ã£o
ĠAn na
ĠHit ler
Ġmo eda
Ġdiagn Ã³stico
ĠfilÃ³so fo
Ġconstitu ÃŃdo
Ġtransform ar
196 8
ĠNic ola
ĠG ib
ĠX avier
est ina
Am ericana
Ġd on
i ras
ĠS S
Ġfront eiras
nd rome
Ġ6 6
Ġneg ra
Ġpublic adas
Ġverm elha
Ġintermed i
son aro
Ġco p
Ġencont rava
Ġcole ga
ĠM oura
Ġsim bol
Ġcaval o
op s
Ġhistori adores
Person agens
j ust
ĠN Âº
Ġmarc ando
pe u
Ġfug ir
Ġnaveg aÃ§Ã£o
ĠConfede raÃ§Ã£o
gres sos
Ġsens aÃ§Ã£o
V ila
ion ado
ĠT ag
Ġbiz ant
R D
un idade
ĠMag n
Ġmedic amentos
Ġ ucran
Ġ5 8
Ġobserv ar
Ġf on
Ġimplant aÃ§Ã£o
A present
Ġb ud
Al l
Ġcob re
c Ãµes
Ġrepro duz
r indo
Ġc abel
g rad
Ġest radas
ĠPont a
Ġg rÃ¡fico
Ġsuc essÃ£o
G r
O p
Ġcoz inha
M et
Ġt ut
ĠAp ple
Ġat itude
ĠespecÃŃf ica
ĠC ou
Ġenc am
Ã³ b
Ġdirig ida
Ġinteg rar
ora l
Ġpro clam
Ġmen ina
ÃŃd ios
ĠConstantino pla
ĠDou glas
ĠK l
Ġlon gas
tor y
Ġmorre ram
Ġj am
Ġda t
Ġad mira
Ġinf in
Ġconstru iu
ĠEl ect
I Z
an ca
ĠMag alhÃ£es
Ġestabelec ida
ĠRel aÃ§Ãµes
Ġc adas
ĠAt enas
Ġped ras
Ã³qu ei
Ġe ixo
ĠÃ¢ ng
ĠM ira
r idade
ĠT ru
ĠK elly
ĠDou tor
Ġgradu aÃ§Ã£o
, "
op her
Ġfinanc eiros
Ġdout rina
Ġde ntes
Ġrespon deu
Ġintelect ual
Ġhar mon
w ig
ĠB ulg
Ġcont ando
Ġroman ces
ĠÃ³p era
qu istÃ£o
Ġabsol uta
Ġcam peonatos
Ġterrit orial
d amente
ult ores
S tar
Ġa Ã©reas
ĠMun ique
Ġcont ava
arc as
ÃŃdu os
... )
ÃŃ so
Ġpra zer
l ando
Ġparticular es
id ent
ĠG ri
Ġhabit ats
ag es
ĠNap ole
Ġident ific
ĠEle itoral
dustria is
qu ed
ĠT oc
D S
Ġ6 3
Ġdesaf ios
ĠF eira
Ġconsidera ndo
ĠHale ak
Ġ190 3
Ġbot Ã¢nico
ĠExecut ivo
Ġambient ais
ĠB ase
rag ens
Ġquad ros
Ġplac as
ap as
le d
ce ito
Ġarquit et
Ġcompart ilhar
Ġopin iÃµes
Ġele ita
Ġdem ol
ĠDil ma
e jo
Ġbrin c
P C
Ġmen ino
Ġpreserv aÃ§Ã£o
ad s
Ġf Ã©rias
ĠG ord
Ã¶ n
ĠPet ers
Ho je
z inho
Ġparc eiro
Ġcontribu iÃ§Ãµes
Ġproduz idas
Ġmar car
Fil ho
Ġhom ossex
in us
Ġr iscos
Ġenf raqu
Ġpo emas
Ġac amp
Ġreun iu
se a
Or dem
ar to
con hec
Ġman usc
ĠIm prensa
Ġl iderou
Art igos
ĠanÃºn cio
Ġc ento
Ġace itou
ĠT on
Ġim pe
Ġpod iam
ĠNob el
M aior
do ras
ĠFre itas
W e
in dic
ĠA present
Ġgrav es
Ġhabit at
Ġrespon der
ĠGal es
; "|
Ġassist ir
Ġse ca
ĠI UCN
Ġr um
Ġdem ocrÃ¡t
Pol ÃŃticos
d el
ot al
Ġcicl ismo
ol ia
Ã³ cios
Ġampl o
Ġtransmit ido
Ġacompanh ar
Ġveget aÃ§Ã£o
Ġidi oma
Ġmanifesta Ã§Ãµes
or gan
Ġprojet ado
Ġterrest re
ĠK h
Ġautor izaÃ§Ã£o
Ġocas iÃµes
ĠLit eratura
pres ente
Ġalte raÃ§Ã£o
Med alha
Ġpos tos
D own
Ġa der
Ġtra diÃ§Ãµes
Ġcu jas
ĠPro te
Ġcoment ar
Ġsubstitu indo
Ġcam peÃµes
Ġatribu ÃŃdo
Ġprotest os
ĠRom ana
ĠMill er
ĠB ac
ĠPia uÃŃ
Ġcal cul
b and
en es
ĠMa jor
M orte
ĠĠĠĠĠĠĠĠ ĠĠĠĠ
V enc
ĠP ho
ĠT ok
ES T
Ġvirt ude
Ã³r dia
mira nte
J ames
x os
Ġesc ond
ĠSo und
R ich
Ġpol it
Ġtelev is
ĠC ord
Ġbar ra
Ġap ren
u er
empl os
Ġimplement aÃ§Ã£o
ĠZ Ã©
J ean
ĠG ames
ĠT ail
Ġim per
dut ores
ĠHam ilton
ĠRe y
Ġfal ou
Ġocor rÃªncia
eÃ§ ou
Ġf rio
Mus eu
ĠdÃŃ vida
E ss
F in
Ġn uv
ĠA y
ĠM acau
ĠH amb
Ġcontempor Ã¢nea
Ġb acia
ag ner
ĠW in
Ġj uventude
eliz mente
Ġconsequ Ãªncias
Ġ ),
Ġv ent
Ġcol oca
che fe
ig i
ĠIs l
ĠcatÃ³l ico
Ġbol sa
Ġimposs ÃŃvel
ĠH op
ĠLu x
Ġcresc er
ĠPen ÃŃnsula
Ġre man
Ġj azz
Ġpre cip
Ġblo que
Ġresta urante
ĠSci ence
ĠAp enas
ogrÃ¡f icos
Ġimp uls
ĠR ui
Ġin de
Ġmon ito
P ass
ĠL av
emb l
Ġfund amentais
Ġvi eram
Ġgrav ados
M el
Ġp isc
ĠMar cel
ĠCorpo ration
Ġapar ente
Ġjunt ar
ÃŃg io
ĠespecÃŃf icas
Ġco d
ĠB ros
ĠN ar
ĠIr Ã£
Ġpass os
D T
S ecret
ĠE let
Ġcons ent
ĠF all
Ġprof issÃ£o
an ato
ĠL ind
ĠW ord
à ¸
de ram
Ġext ernos
Ġrodo via
Ġot im
g y
Ġser t
Ġtorn am
Ġca ir
ĠAz evedo
Ġform adas
Ġprec isÃ£o
ro up
Ġdes v
m Ã£o
ES CO
ob ili
ĠEs col
na ense
Ġacab ar
ĠAng ra
Am ericano
Ġpart iu
ĠCaval eiro
ĠagrÃŃ cola
era da
Ġrec u
anc he
ĠAg ost
ĠMil Ã£o
Ġmat riz
% ),
j an
ĠsÃ©t imo
ĠJov em
s el
ĠSoc iais
Ġprat ica
ĠaÃ§ Ãºcar
Å Ħ
an im
Ġr urais
Ġp Ã¡t
Ġprote ÃŃnas
Const elaÃ§Ã£o
Ġcor das
Ġadolesc ente
ï ¿
Ġcontro v
Ġcompanh ias
Ġil eg
Ġsurg imento
EI RA
T op
Ġco inc
Ġcin emas
h ist
Ġpossu ir
Ġm ent
Ġch uvas
Ġinclu ÃŃa
anc el
En redo
ĠLib erdade
Ġprem iados
ĠS her
Ġal inh
Ġent raram
ĠVi ol
ĠB y
ĠMus ical
Astero ides
H z
l av
ĠV iv
ĠPAR A
A na
Ã³s itos
Ġanc est
Ġtrib o
Ġartilh aria
L iga
f ei
rim entos
g ios
ĠB elas
Ġacred itava
Ġdu plo
Ġinclu ÃŃdo
Ġconc erto
Ġ190 2
ĠDire c
at Ã©
je Ã§Ã£o
c c
m art
Es cola
} }
ĠAll en
Ġbas quete
ic ologia
ĠP ires
vi Ã¡ria
Ġ188 9
Ġre Ãºne
ec ta
Ġad es
Ġquais quer
ĠRos e
Ġc il
un c
Ġconj untos
Ġesquer do
ĠV il
Ġtrib ut
Ġfund adas
Ġcompos iÃ§Ãµes
ĠFol ha
Ġtrip ulaÃ§Ã£o
ĠRen ato
Ġp asse
Ġconhec imentos
Ġdirig ir
ĠFre nte
Ġfrut o
Ġpre f
terap ia
ĠF ra
ĠV ivo
Ð »
Ġpes ca
do nt
Ġcomplet ar
Ġperceb er
Ġan el
ag re
Ã©r pre
Ġvaria Ã§Ãµes
Ġfech ado
U P
Ġres postas
ĠDemocrÃ¡t ica
h m
Ġef iciÃªncia
Ant ecedentes
L it
S istema
ĠZ e
Ġc Ã£es
Ġt rÃ¡fego
ĠD all
Ġobserv aÃ§Ã£o
C rist
ard ia
g s
ĠTra ta
Ġregul ament
Ġhosp ed
B at
ĠmÃ¡ r
ue gu
ĠK al
H el
ing ham
ĠAl ago
Ġcol Ã´nia
Al em
Ġaux ÃŃlio
ĠSteph en
ian g
ĠPol Ã³nia
ĠgalÃ¡x ias
ĠcÃ¢m era
{ {
ĠS ite
ĠCl ara
Ã³n imo
F a
Ġpro jecto
ĠUn der
Ġdi Ã¡rio
it aram
Ġg ord
Ġamar elo
int on
ce deu
Ġreun iÃµes
Ġorqu estra
Ġefica z
ĠG in
Ġac lam
Ġmarc ados
Ġartific ial
w ick
ĠV egas
Ġinclus Ã£o
Ġl igaÃ§Ãµes
ĠI van
Â» .
ĠMat t
ĠÃ¡l cool
Ġas as
Ġmerc ados
Ġconstitu i
Ġjur is
Ġox ig
Ã© b
ĠÃ¡ t
itar ra
Ġins criÃ§Ãµes
ĠDe ut
Ġfal ando
Ġcrist Ã£o
Ġquis er
M u
isc he
por ta
ĠVen eza
Ã¡st icas
Ġtra jetÃ³ria
Ġmor f
Ġvari Ã¡vel
Ġmult ip
Ġentrev istas
l hes
Ġsu postamente
ann el
ĠR an
Ã©t ricas
Ġsal Ã¡rio
Ġdiscipl ina
id iocese
ĠQu atro
ĠAm ar
Ġcompost as
am Ã¡
nc o
ĠInfant aria
ĠE X
ĠW ik
Ã³t ipo
ĠO S
Ġconfirm ado
ĠC ec
Ġl os
ĠN eu
enn is
Ġpar es
Ġhab il
Ġlat erais
Ġquart as
Ġirm Ã£s
Ġdireto ra
Ġparlament ar
is os
ĠP ok
Ġlim itado
ÃŃ der
et z
ĠV atic
ĠW ith
Ġext ens
Ġinteg rou
Ġtri un
Ġinterpre tado
Ġo ceano
Ġv idro
ĠU A
ĠOr qu
ĠBra ganÃ§a
E uro
f re
Ġprim o
inu x
ĠsÃŃmbol os
j ado
ĠDom ingos
ĠMano el
al s
ĠB ull
ĠFigu ei
L anÃ§amento
t r
ĠS endo
Ġsent imento
Ġd iocese
ĠM Ã¡
Ġrepresent ado
Ġx adrez
ÃŃ rio
ĠB ast
ici Ã¡rio
Blog This
G O
Ġex posiÃ§Ãµes
put ado
Ġsuper vis
A v
ĠA ragÃ£o
ez as
re ll
Ãº cho
ĠPl at
it uras
Ã§o is
Ġinstal ado
Princip ais
Ġenvolv ido
Ġv inha
ĠCl ark
Ġprof unda
Ġfilos Ã³f
ĠMar ie
Ġsem entes
ĠEl as
ĠMad onna
ĠM ik
Ġ6 7
ĠAs h
stitu cional
ï¿ ½
ĠCrist ina
Ġestud iosos
ĠBook s
L o
Ġag rup
Ġanalis ar
ic ha
Ġpert urb
ĠWal t
mail BlogThis
En genh
L isboa
Ġb ro
ĠMel lo
Ġsu ÃŃ
Ġretira r
Ġdeus es
Brasil eiros
Ġb ÃŃbl
Ġdef iciÃªncia
Ġpropag anda
ĠNasc imento
Ġre ta
Ġrot eirista
Ġcon ferÃªncia
Ãº va
Ġenvolv imento
Ġviz inhos
off s
Ġcomb at
i erar
Ġc ass
ult or
ĠAb ra
ĠP inheiro
Ġprov is
Ġevol u
ÃŃcul a
Ġco gn
ophy ll
ĠaÃ©re o
U D
ĠV lad
icl op
ĠProf iss
Ġpros segu
---- ----
Ġdesc rever
Ġap ropri
Ġpar ecem
in ess
ĠI v
il ho
Ġdez enas
ĠbÃ¡s ico
Ġcompanh eiro
Ġg ira
Ġcul min
G er
Ġl aboratÃ³rio
ig ual
ĠV ideo
Ġcond ec
Ġinter face
Ġilum inaÃ§Ã£o
Ġ1 000
ĠCh in
rop icais
Gu erra
Ġconfig uraÃ§Ã£o
ĠOlimp ÃŃadas
T ec
ĠL ady
ĠGust avo
el y
Ġor i
Ġmil ÃŃmetros
Se gu
Ġcomput aÃ§Ã£o
Ġm Ã³d
Ġtran qu
Cam peÃµes
az es
Ġmen inas
Ġapar elho
v endo
Ġp Ãªn
ĠMo ore
Ġterm inal
ĠIll inois
Ġ7 2
ĠFre e
ĠSport s
? "
ĠO ce
in ador
Ġcri adas
Ġdefin itivamente
n ess
Ġge ogrÃ¡fica
Ġb act
Ġpart id
il er
Ġcontinu aram
Ġsimult aneamente
ras es
Ġat raÃ§Ã£o
Ġpar entes
ĠHar vard
Ġl ag
ĠCam peÃ£o
Ġconstitu ÃŃda
Ġvo os
ĠJ ogo
Ġcomb ater
Ġjornal istas
ĠW ell
Ġcontra ste
Ã ķ
ar ro
ĠR i
Ġcri ador
ĠAss is
Ġh ost
Ġdesc endÃªncia
Ġelabora Ã§Ã£o
Ã¢ng ulo
ĠC S
and y
pt on
Ġlegisl atura
ĠE SP
ĠD og
Ġ18 70
ĠEuro visÃ£o
Ġin ex
ly n
Ġarmazen amento
Ãļ lt
Ġbrilh ante
Ġre perc
ĠJ ay
Ġdest inado
ĠHum anos
oph oridae
Ġcoop eraÃ§Ã£o
ĠA qui
ĠT rib
ĠPar te
Ġvari Ã¡veis
Ġapre ci
Ġm i
ab orou
ĠLe ite
ĠG az
Ġinterval o
Y ou
Ġt ol
Ġh oriz
Ġcons pira
Ġbranc as
ĠindÃŃg ena
re z
ret t
Ġ189 5
fl ix
Ġconvers a
ist ro
ĠN Ã³s
ĠPro ject
ĠcrÃ©d itos
ĠC urso
ĠRe ich
ie f
Ġtal entos
ĠjurÃŃd ico
Ġindic ada
Ġjam ais
ad eiro
Ġt ele
Ġmon umento
Ġestrang eiro
Ġorb ital
l is
ĠC idad
Ġselecion ado
Ġgen e
B L
Ġrelacion ada
ĠmÃŃn ima
om i
Ġesc av
F er
ĠS C
Ġinici ada
Ġgaro ta
Ġespera r
ecom unicaÃ§Ãµes
Ġda tas
S ant
ara Ã§Ã£o
inos sa
par ou
Ġcur tas
Ġencam inh
M es
Ġm ach
Ġar bit
Ġ ida
Ġb ac
Ġser iado
ras s
Ġpersegu iÃ§Ã£o
Ġten ente
af f
Ġ[ ...]
Ġesc apar
Ġobrig ado
Ġgreg os
ĠP A
I nc
Ġcar ioca
Ġimp orta
W al
Ġf aÃ§a
ĠP ouco
Ġg an
ĠeconÃ´m icas
Ġrus sos
Ã Ł
iv ado
Em baixada
Ġescrit as
ment s
Or gan
w orth
ad ro
Ġsurg iram
ĠJa ime
Ġexpl icou
ĠBer lin
ĠelÃ©t rico
Ġa x
Ġpoder oso
ĠCab ral
Ġlar ga
Ġcontrat os
inh eiros
Ġsub m
Ã´n us
Ġef iciente
Prim eiro
M L
Ġm is
Ġ1 10
ip a
ĠG h
Ġc itado
Ġm erg
ĠC ient
Ġ6 9
nt em
ĠforÃ§ ado
Ġcol Ã©gio
ĠQu art
Ġ189 1
Ġfra cas
ĠInform aÃ§Ã£o
p to
Ġum as
le ft
ĠCor onel
Ġint eiramente
Ġ190 1
ÃŃl ico
U TC
c ap
Ġp ernas
Ġf ome
ĠAnd rew
ĠSy d
ĠMora es
n as
Ġlidera do
ivid ual
Ġl enda
Ãºm ulo
Ġclara mente
Ġgab inete
i jo
Ġc ach
ria m
ev o
Ġdef ine
Ġvis ÃŃvel
ĠBol sonaro
S at
ilh os
Ġnav al
Ġocup a
ĠON U
Å Ł
Ġcam adas
Ġesqu ema
ĠIndepend Ãªncia
Ġesc reve
Ġherd eiro
Î ±
on c
Ġpos so
Ī Ĵ
Ġcon form
ag s
ĠAr ist
ĠCor reia
ĠMet al
h ard
Ġcu rios
Ġsur presa
Ġbenef ÃŃcio
ĠAlf redo
ĠRus so
Ġlemb rar
Ġfisc al
ri va
Franc isco
ĠMath emat
ic io
ĠBulg Ã¡ria
l om
m al
Ġconsum idor
Ãķ ES
Ġc emitÃ©rio
ĠEs lovÃ¡quia
Ġsemif inal
ĠCon g
ĠCar lo
Ġdec rÃ©scimo
No ta
ĠGr Ãªmio
adj uv
Ġre in
all y
Ġobserv ou
C art
Ġaqu elas
Ġencer rou
G Ãªnero
Ġp aixÃ£o
Cont ato
ci r
Ġcomp rou
Ġav Ã´
Ġorgan ismos
Ġrecol h
Ġtem Ã¡tica
Ġmost eiro
Ġaleg ria
Ġextre ma
ĠM ant
Ġel ect
At rizes
Int er
Ġs essÃµes
Ġtrib os
196 0
Ġocup ar
ĠRo ad
Ġdesfil e
Ġn ad
ĠK en
Ġdesc art
ĠQu er
Ġgarant ia
Ġter Ã£o
ĠB ry
vol uÃ§Ã£o
ĠBan k
m il
w eb
ĠR y
ĠL ob
Ġpobre za
ro b
ip er
ĠPat ri
Ġem an
Ġarg umento
Ġparl amento
Ġespet Ã¡culo
ÃŃ sa
ĠL Ã©
po ol
Ġaprov ada
Ġutiliz am
ac re
Ġsubstitu ÃŃda
T U
ro id
Ġdi Ã¡logo
Ġf ui
Ġcons igo
196 3
ĠGirl s
ĠL ista
op le
Ġ7 7
Ġcontribu iu
FF D
Ġof f
Ġis rael
Ġs op
Ġres identes
ici ou
ĠInst agram
Ã³ ide
ĠBorg es
Ġsub esp
igu idade
o ram
F emin
Ġbeb Ãª
Ġvert ical
f ase
Ġv og
Ġrel ato
ĠPat rimÃ´nio
Ġje ito
a Ã§as
ic ando
Ġalg orit
Ġfal ha
Ġcer eb
Ġc ortes
Ġdeix aram
Ä ±
Ã³t icos
ĠV iana
Ġt ribun
Ġdist intas
ĠMin eiro
ĠReg imento
ĠLeon ardo
Ġsecund Ã¡rio
ĠT rad
ĠN aval
sk a
Ġadequ ado
p anha
ec Ã§Ãµes
Ġcompanh eiros
Ġrad ical
Ġger ou
ĠCax ias
ot te
Ġpar ecia
ĠCon go
Ġqual ificaÃ§Ã£o
quer que
Ġconstru Ã§Ãµes
Ġtec idos
re mo
Ġconc edido
Ġecl esi
ĠMana us
ĠDi ret
Ġdese ja
ĠM ob
Ġcor onel
Ġ6 2
Ġra ios
Ġb ras
ĠCl asse
ĠNeg ra
ĠR ug
Ġman eiras
ĠAd vent
Ġess enciais
Ġ188 0
ĠÂł ĠÂł
T odas
ĠrÃ¡ dios
Ġent endimento
Ġrece itas
Ġpropriet Ã¡rios
4 00
n ot
Ġn or
Ġforn ec
Ġliter Ã¡ria
T al
us ias
N este
in ente
ĠD os
Ġsignific ativo
Ġc em
ÃŃl ios
Ġconquist ando
Ã Ĺ
ĠT ol
Ġ9 6
z os
ilh elm
ĠCalif ornia
E E
Ġfut ura
ut u
ĠGu ad
ĠEs qu
ĠEx per
! "
ĠWe ek
Ġconsider Ã¡vel
ĠPens ilvÃ¢nia
L ar
P il
dut os
Ġrebel des
MÃºs icos
Ġconc ertos
et im
Ġele itores
e qu
ĠAt h
Ġprision eiros
Ġmete or
ĠV e
la us
ari edade
ĠPed ra
Ġo pon
ĠJ ane
Ġfol ha
ĠS ap
Ġmin im
ech al
Ġtransform ou
ĠagrÃŃ colas
G rav
ĠconteÃº dos
Ġcidad Ã£o
R ua
ran Ã§a
ĠAl ianÃ§a
olog ista
Ġsex uais
ĠConstitu cional
t oria
al ho
Ġh ect
Ġtur b
ĠAmb os
Ġprej uÃŃ
ĠTÃ©cn ica
ĠF orte
op hora
196 2
Ġcient ista
ĠDu as
Ġdo b
Ġob ed
Ġtom b
om Ã©
ĠAnt Ã¡r
ĠIn icialmente
ert Ã³rio
Ġinici ado
Alg umas
f ri
ot us
Ġprocess amento
Ġdin Ã¢mica
Ġposit ivas
y st
Ġp ne
Ġ9 9
ĠRa w
ĠHow ard
gre jas
Ġf i
Ġparc eiros
n ie
ĠCap ela
Ġcicl ista
Ġm un
ĠA ta
ĠSt ad
ĠestratÃ©g ias
B ol
Ġl ent
Ġconc ret
dist rito
P ont
Ġs oma
Ġcont o
ĠK on
Ġmant ido
Ġlidera da
Ġsoz inho
ar de
an ic
ĠD ick
an es
Ġre pl
ant i
ĠTur ma
c le
Ġaut Ã´n
Ġv ivos
int es
ĠMar sh
Ġfre guesias
T ER
r Ã´
Ġm onte
ĠE ST
ĠB ag
ĠD ance
ab ela
Ġsegu idores
Ġvenc endo
Ġfica va
Ġmag ist
Ġdestru ir
Publ icaÃ§Ãµes
ĠAt letismo
p el
ĠFo und
Ġtor res
ĠÃ³ b
ĠF ora
ĠChe fe
ĠO ver
ĠMar ÃŃa
Ġconst antemente
Ã©ci e
ĠForm aÃ§Ã£o
Ġdram Ã¡tica
Ġrequis itos
u is
Ġs ons
ĠM Ã£e
Ġint uito
ian i
Ġol h
ĠR yan
C L
Ġmet ab
Ġinterpre ta
Ġb il
Ġcrist ianismo
ĠV era
Ġ7 6
uc ado
Ġadminist rativo
ĠmuÃ§ul manos
Ġreman esc
it oria
he Ã§a
ĠÃģ gua
all en
Ġrep Ã³rter
Ġinc idente
Ġregist rada
Ġ189 8
Ġcert ificado
Ġf is
ĠFlor ianÃ³polis
Ġsusp ensÃ£o
Ġ %
ĠU K
ĠP IB
c at
ĠA B
Ġcont rad
Ġcor d
Ġ189 6
Ġcert amente
Ġmist er
im ate
ul Ã¡rio
Ġol ÃŃmpica
Ġexecut ar
Ġconvers Ã£o
Ġviaj ar
Ġaplic ativos
Ġesport ivo
Inst ituto
Ġper feito
Ġesc oc
Ġregist rado
Ġtransp ar
Ass ociaÃ§Ã£o
ĠJ ason
Ġdes l
Ġv ib
ĠN em
Ġap er
ĠK y
ĠBru ce
ĠN ich
G Ã©n
Ġo v
Ġexist ia
Ġbaix os
ant il
Ġapresent ador
Ġquer em
Ġag rav
ab lo
Ġtorn eios
ĠInt erior
nes to
ĠAut or
Ġviaj ou
g raf
Ġm istas
Ġprev isÃ£o
Ġpat r
ĠGal eria
IT O
Ġmang Ã¡
Ġaval iar
ĠTec hn
oft ware
Ġdram at
Ġsemif inais
D ados
Ġo ce
Ġ189 7
Mat emÃ¡ticos
Ġexer ceu
om bo
Ġev idÃªncia
Ġanunci ada
F ase
Ġp ira
Ġp iso
Ġest arÃ¡
Ġim Ã³vel
Ġreceb em
ĠL ud
Ġjornal ismo
ĠMag azine
avi era
ĠestÃ¡t ua
ak a
Ġsusp ense
s ub
ĠCar naval
Ġfre qÃ¼
ĠBen jam
cha ve
ĠcÃ³p ia
Ġm ong
Ġsem an
Ġreconhec er
ĠAg ricultura
ÃŃ odo
ĠT ob
Ġex am
Ġinteg rado
Ġy ou
Ġ rat
ul h
Ġal ien
Ġconsum idores
Ġpergunt as
Ġlimp eza
Ġnat ivos
Ġtrabalha va
at ed
ĠK evin
Ġsim ilares
Ġaplic ada
Ġfug a
Ġcam inhos
ĠA ch
Ġg el
ĠL P
ann y
Ġg ama
int eg
ĠCole ophoridae
Ġapresent ados
ĠhistÃ³r icas
uss Ãµes
ĠC asc
Out ro
Ãºr g
cion ada
19 59
ĠB anda
ĠD et
Ġgera Ã§Ãµes
ĠWh it
Ġem issÃ£o
iz am
ĠBat man
Ġa reia
ĠC Ã¡
ĠPro duc
Ġacus aÃ§Ãµes
ĠanÃ¡l ises
Ã ¥
Ġcontinu am
ĠVerm elha
oc olo
z en
Ġb ei
Ġpre n
aran ja
ĠWar s
Ġexig e
Ġdiminu ir
Ġline ar
F e
i ologia
Ġf res
lo yd
Ġinclu ÃŃda
Ġrev est
ĠCom ercial
Ġag ric
ict ion
Ġpre con
ĠfÃŃs icos
l iv
Ġdis para
Ġindic am
Ġexempl ares
Ġretorn a
Ġorden ado
ĠU TC
Ġind iano
Ġle itores
Ġconqu istas
cional mente
dic ato
air ro
Ġpat ente
B ro
ĠT an
Ġarro z
ect or
ĠRac ing
b us
Ġfra c
al th
Ġen via
Ġbloc os
i edade
Ã³ cio
Ġcaval os
Ġdiminu iÃ§Ã£o
Dan iel
P oss
Ġnecess ariamente
Ġab ertas
Im p
Ġsoci edades
j us
ĠC ry
cion ados
i h
ĠMiss ouri
ĠClÃ¡ udio
Â ´
âĢ ł
ĠPe quim
Ġpais agem
Ġcomp lic
Ġor todo
Ġext erno
Ġin dustriais
Ġdecl ÃŃnio
ent Ã¡rio
Ġmet a
Ġm emb
Ġro chas
Ġfuncion ar
av en
Ġ6 1
Ġdomin ante
F ontes
Ġcol unas
Ġconce pÃ§Ã£o
Ġdin amar
ese arch
f ra
fer ence
Ġesc ap
Ġpro gresso
Ġc ÃŃrculo
ĠA rÃ¡
Ġexerc er
b Ã¡
ĠTempo rada
ĠP ert
he ad
Ġrec ord
Ġpol eg
ĠSpac e
Ġcompon ente
Ġrestaura ntes
O D
Ġp ura
Ġdiv erg
ĠMo on
Ġbar co
Ġdigital mente
Ġcircunst Ã¢ncias
ophyll um
ĠL ast
Ġesc revendo
Ġequ aÃ§Ã£o
Ġcheg am
Ġcir cul
Ġlit eral
=" #
d am
Ġprim avera
Ġestat uto
Ġv istos
ÃŃt ios
cl ass
ĠRe ferÃªncias
isco pal
ĠLa ura
Ġcontrat aÃ§Ã£o
ĠGran des
ĠEstre la
st yle
duz ido
Ġprev enÃ§Ã£o
ÃĬ N
Ġext into
Ġcons enso
iterr Ã¢neo
Ã©r icos
ĠVol eibol
Ġfinanc eiras
Ġintens a
T aÃ§a
im i
ĠMar rocos
ĠlanÃ§ aram
Ġdist inÃ§Ã£o
let as
T or
b iter
re en
ĠB ia
inc ial
Ġde riva
iv es
col n
ĠG iovanni
ĠK le
ĠPres idÃªncia
Ġjan elas
Ġt abelas
ĠH ora
Des ign
Ġtal ento
Ġentret enimento
ĠBritÃ¢n ica
re f
Dev ido
ĠVatic ano
ĠNet flix
M ad
Ġcor rer
Ġvis itas
ĠPrinc esa
D el
ÃŃ ce
ĠP ic
Ġg o
Ġest ende
Ġ q
Ġins uf
Ġrem ix
ĠCom b
ĠVas con
and ante
Ġind Ãºstrias
Ġj es
Ġext intos
Ġcomplet ou
Par que
Ġapel ido
Ġdist ante
ix os
Ġpeda g
ĠF ase
c u
il io
Ġsu eco
og ados
ir me
ĠV ig
ess ion
Ġlemb ra
I r
et eria
ĠU t
Ġdistribu ÃŃdos
Ġobt ido
Ġsubt ropicais
Ġacab aram
Ġencontra ram
Ġfrut os
y t
ĠD ona
Ġca uda
H ol
J ust
ĠB aviera
Ġsel v
W orld
m und
ric e
ĠD as
ĠH D
Ġprop Ã´s
Ġacred itam
asc ular
Ġessencial mente
196 1
Ġre putaÃ§Ã£o
ag ar
ĠBritÃ¢n ico
ĠA S
ĠAugu st
Ġregular mente
Ġnaveg ador
Ġ18 0
Ġfal ecido
Ġdecor rer
Ġproxim idades
u querque
im ens
Ġserv idor
Ġresta uraÃ§Ã£o
ĠArm adas
ĠQue en
Ġencer ramento
G A
ĠP ela
ĠR elig
19 58
Ġdecid iram
Ġcirc ular
perat riz
Ġacom panha
Ġrelev antes
Ã¡ct ica
res se
Ġlon gos
Ġdecid ir
Ġact ual
Ġfaz Ãª
Ġpl Ã¡stico
Ġhum anas
Ġentrev ist
Ġigual dade
ĠC ross
if ÃŃcia
19 53
Ġsub mar
Ġ189 2
p r
Ġaut Ã³noma
Ġmac hos
ĠfÃªme as
Ġfaz iam
oi re
Ã± o
ÃŃci es
C ent
Ġexecut ado
aco te
Ġn ela
ag en
ht ml
anc ho
Ġdisc rim
Ġado tou
Ġfacil itar
ĠpÃªn alt
A ust
Ġv istas
Ġal imento
ap so
Ġrec ordes
Ġinf ra
Ġid Ãªnt
en zo
Ġaument ando
F un
Ġra ramente
Ġsol dado
Ġsab or
Ġespera do
ĠExt ernas
ub er
ele ito
Ġen vel
Ġrom Ã¢ntico
Ġsignific ativamente
L inks
ar on
Ġper if
Ġdedic ou
Ġab us
Ġsint et
Ġmencion ado
ĠF ont
ĠT w
Ġad iÃ§Ã£o
Ġoc identais
Ġsobreviv entes
Ã³l icos
Ġcomun as
ĠVal ent
Ġen z
ĠTh at
v id
ol ar
ĠP il
ĠW ho
Ġro das
Ġmo edas
ĠAnth ony
k t
Ġserv indo
Ġpossib ilidades
ĠC ad
ĠN um
ĠMar iana
Ġcer co
ach el
ĠbÃ¡s ica
ed s
Ġconst antes
Ġrefer ida
Ġ189 9
Ġtrat ados
Ġbater ista
ĠSemin Ã¡rio
C ir
om ano
Ġvence dora
y th
Â «
it ri
Ġcent rais
Cond ado
Ġmest rado
ĠTrabalh adores
Ġaprendiz agem
b Ã©ns
Char les
B ase
Ġexpect ativa
ĠSyd ney
M ortes
V en
s burg
ria Ã§Ã£o
ĠTh is
rev ista
Ġrad iaÃ§Ã£o
w en
ĠC ai
ĠS ig
Ã© le
iment a
ĠTest amento
Ġ7 9
Ġrap per
Ġm inhas
ĠS ofia
ĠM ap
ĠU CI
ĠcontÃŃn ua
D ou
Ġp Ã³
ĠDon ald
Ġinov aÃ§Ã£o
ĠC af
ĠC out
Ġdeix ado
ĠB urn
ard i
arin ense
Ġv itam
ai ba
ĠK os
ĠMar s
ĠfÃ³s seis
u ou
Ġindic ando
Astero ide
s core
Ġan arqu
Ġh Ãºm
Ġresid Ãªncias
Ġeurop eias
Ġcaus ada
Ġger ente
ĠC ost
ĠÃģ rea
Ġreserv as
ĠA po
Ġin qu
Ġar rem
Ġdescob ertas
Ġast rÃ´n
Ġsed iada
em e
el ia
ĠA post
Ġno bres
ĠB ud
Ġcap t
Ġindepend entemente
Ġquar enta
Ġest atal
Ġrev is
Ġren deu
Ġpertenc entes
ĠSol ar
Ġem bal
Ġl ac
Ġsem estre
Ġsubst Ã¢ncias
ĠR ico
ĠEspanh ola
l on
Ġaf ili
mon s
ĠMas ter
Ġbra Ã§os
qu el
ĠEst ud
Ġpass agens
ĠQu inta
Ġescol heu
Ġru ÃŃnas
Ġprepara r
ĠVir gin
Ġtorc ida
Ġbiz antino
Ġapart amento
M iss
ic ana
Ġcul p
t ions
cion ou
ett y
S il
U FC
ria na
ĠIngl Ãªs
ĠÃºn icos
IS E
eter min
Ġpast or
ĠcÃ¡l culo
Ã³ metros
ĠR esearch
it ies
ĠM G
Ġr icos
ĠSal Ã£o
u iÃ§Ã£o
Ġarqu ipÃ©lago
AN T
ĠU R
Ġfot ografias
ĠMargar ida
ĠMar te
Ġgu ia
RA L
Ġmascul ina
ĠtÃ©rm ino
C N
S o
Ġb rev
res so
Ġquant idades
Ġclassific ada
Ġaleg ando
ĠD iam
ĠClub es
Ġescolh ida
ĠSu z
ĠMart ÃŃn
R od
Ġ189 3
hou se
ĠVietn Ã£
ĠTail Ã¢ndia
in am
Ġar b
Ġcol oraÃ§Ã£o
Ġpreen ch
>< /
Ġde grad
ru pt
Ġar ist
Ġdiz ia
Ġsent enÃ§a
ĠIB GE
nd er
Ġcur va
Ġbom ba
Ġaposent adoria
Ġrend imento
qu ina
al in
ĠS ete
Ġrig or
ĠA T
av as
oca ute
Ġne er
L ib
Ġmat ou
red or
Ġintelig ente
ĠÃ¡ rabes
Com positores
Ġtur istas
Ġemp at
ĠÃ Ĥ
ĠMate us
inclu indo
Ġ rib
ĠP ant
anc ial
ĠCatal unha
Ġtra g
Pro grama
Ġfabrica nte
Ġseg mentos
Ã©d itos
Ġinvest igaÃ§Ãµes
Ã¡ss ico
Ġgara nte
Ġdivid idos
M ot
Ġ1 21
ĠD essa
ĠF esta
Ġ8 8
Ġz o
ik o
ĠFried rich
ĠR S
ĠAlb uquerque
ĠK or
ĠOrqu estra
ĠUn idade
ert on
ĠOl d
iqu ei
ĠAlf red
ĠM ec
ul u
AR T
Ġcren Ã§a
ĠSilv eira
ĠC ob
ĠJust in
Ġro da
ous se
ip se
Ġam ist
Ã¡t ima
ĠWil d
Ġmelh oria
Ġouv ido
Ġexplos Ã£o
Ġent usias
Ġprim Ã¡ria
Ġsub div
Ġautom Ã³veis
Ġcolet iva
O pera
Ä ĥ
Ġgrav idez
ĠmÃ©d ias
Ġw ww
ÃŃ nc
ĠIn g
Ġserv ido
ĠInd iana
Ã§ on
Ġprest aÃ§Ã£o
ĠE S
Est re
Ġmanifest aÃ§Ã£o
Ġestiv esse
ĠCh ild
Ġseg redo
is ebol
Ġpas ta
D C
Ġlocaliz ados
Des envolvimento
Ġconvoc ado
Ġmarav ilh
fei Ã§o
ĠOl ÃŃmpico
Âł Âł
Ġra iz
Ġte ologia
Ġac identes
Ġ za
in ando
end imentos
ĠCont inu
Ġexclus iva
end s
Ġmil ho
Ġapresent ava
Ġprev ista
f oi
Ġpro nto
ĠemprÃ©st imo
Ġs ente
ro duÃ§Ã£o
it Ã¡vel
Ġadqui rir
ĠPublish ing
ĠAmara l
Ġterc eiros
Ġmit ologia
Ġprob abilidade
Ġconc reto
Ġbatal has
Ġingles es
r inha
Ġ7 00
Com pet
ĠgrÃ¡f icos
Ġsal to
Ġac ons
Ġating e
Ġvend idas
Ġcompre ender
Ġroup a
ĠRus sa
Ġmar ciais
Ġ189 4
Ġex ames
Ġim posto
Ġocup ado
Ġcom bo
Ġdes pre
Ġsub sp
Ġestabel ece
orn os
âĸ ¼
Out ra
p tera
ĠA nc
ai j
pro duÃ§Ã£o
Ġsubst Ã¢ncia
ott en
ĠNig Ã©ria
Ġcine asta
b es
ĠL ord
ĠEsp ort
Ġconstru ÃŃdas
Ġtec lado
Ġreun ir
Ġcolabora dores
eri ormente
ĠPo int
bour ne
M ag
l ie
ĠPat r
Ġver ificar
ogu eira
M em
Mas culino
Ġhect ares
T r
la u
uz il
Ġacred itar
ĠF ez
ĠSam pa
Ġmecan ismos
V ice
ĠB ei
Ġcomp ras
Ġsob rinho
Ġgen Ã©tica
Ã©rc itos
Ġem ig
Ġin oc
Ġag Ãªncias
ĠLib eral
t iva
Ġab riga
ĠCh annel
Ġgovern amentais
Ġpriv adas
j es
ĠK ey
m inal
ĠD OS
form ance
Ġexper imental
Ġproteg ida
ĠOrch idaceae
ĠGord on
p ass
Ġsent iu
Ġc Ã£o
Ġb ord
Ġpor Ã§Ã£o
ĠW ol
Ġurb an
f eld
Ġv itor
ac iais
ĠcÃ©l ula
l ados
ic lo
Ġf rust
ĠR ang
ĠPat rick
Ġchin eses
Ġvere adores
Ġsacerdo te
f inal
ĠT rav
ĠT eve
Ġvant agens
ha b
Ġmar inha
Ã©t rico
Ġ188 8
ĠMov ie
lic e
Ġsal Ã£o
Ġdetermin aÃ§Ã£o
ĠJac ques
ĠKenn edy
Ġdes enc
ĠOl ym
ĠCharl ie
Ġt rom
ilh Ã£o
Ġra Ã§as
Ġenvol veu
C op
ĠM orte
ĠB aixo
po des
gu arda
ĠCont ra
ag i
ind ical
B al
G ol
ĠAc red
b ell
Ġf ec
ĠM inha
Ġ( ).
Ġv isa
ed idos
Ġ9 8
ĠA h
ĠP ers
Ġatu alizaÃ§Ã£o
qu ista
ĠL ugar
Ġsegu em
ĠsÃ³ cio
Ġib ne
qu eira
ĠCon venÃ§Ã£o
Ġreduz ido
Te atro
Ġdefens or
Ġde via
ĠC all
Ã³d romo
cel os
Ġens aios
ven Ã§Ãµes
. /
O C
ĠG am
Ġblo qu
ĠBen ed
ĠAcad emy
ĠP ais
ĠTe od
Ġgig ante
Ġgig antes
S ob
Ġf armac
Ġma u
ĠA do
il Ã¢ncia
Ġper das
Ġfol cl
M amÃŃferos
ic Ã¡cia
ĠVirg ÃŃnia
Rich ard
Ġpen ÃŃnsula
Ġintroduz ido
Ġb ispos
Ġcult iv
Ġt Ãªnis
Ġaf und
Ġped idos
Ġig uais
Ġabandon ou
at re
Ġsu icÃŃdio
ĠQU E
ri ve
ĠBo ys
ĠRa il
ĠestÃº dios
Ġ Ä
Con c
t empo
ĠG arc
Ġdesp esas
Ġhoriz ont
f urt
ĠC A
ĠGer man
ĠTav ares
ĠR enas
Ġg ado
Ġdesc ul
Ġcompet ir
Ġmont agem
Ġexc esso
we en
ĠÃªx ito
Ġs anto
ap ura
Ġdis pens
unt amente
gra duaÃ§Ã£o
end idos
Ġtorn ado
Ġportugu esas
ĠSud este
ĠP it
ĠP le
Ġprem iaÃ§Ã£o
J ac
b ury
ri es
bo y
Ġconclu ÃŃdo
Ġn u
Ġad ulto
Ġtre ze
ĠAlem Ã£o
EN TE
Arqu ivo
ĠP ast
Ã©m on
Ġun iforme
P eter
ele y
Ġrel ativa
Ġm ortal
ĠL ine
ha us
Ġcont empl
ĠK am
Ġmet Ã¡l
Ġlev am
Ġson hos
ĠF A
Ġram os
ĠÃ© tica
ĠOr todo
Ġvis itou
Ġelim inado
en i
it avam
ic Ã§Ã£o
Ġv Ãªm
Ġb er
Ġmet odo
ĠCor oa
Ġcu idar
Prim eiros
aster oide
ĠR iv
du st
ĠAn at
ÃŃg ios
Ġquart os
ador ias
iment aÃ§Ã£o
Ġcontin ental
ĠM og
te u
Ġorganiz ou
ĠGoi Ã¢nia
Î ¿
ĠB atal
Ġrest riÃ§Ãµes
Ġ8 7
Ġvi rou
Ġdel la
Ġunivers itÃ¡rio
Ġacess ado
Ġautom obil
ĠA Ã§Ã£o
ĠEm pre
ust ent
ĠM r
ĠAn ne
Ġassass inado
ĠpÃ´ de
ĠAnt igo
Ġaprov ou
b iliz
Ġn eto
ĠMar x
Ġbomb ard
E X
und er
Ġle itor
ĠUS A
8 00
Ge orge
Ġcul pa
ĠN az
Ã³p ia
out ube
f i
In s
O P
Ġp ist
Ġh ipo
elh ores
y ch
ĠC emitÃ©rio
ĠL ÃŃngua
og rama
Ġap rim
ĠPr Ãºssia
Ġexerc ÃŃcios
Ġes co
Ġcolet ivo
Ġmando u
Ġdi eta
ĠlanÃ§ amentos
Ġet n
Ġtoc ou
Ġp Ã¡ss
Ġvaria m
ĠBrit ish
ĠN Ã¡
Ap p
nt h
Ġjard as
F ab
ĠM anh
ific ando
Ġpe ito
Ġdeclara do
Nasc ido
Ġemisso ras
Ġex pressa
lex o
Ãģ RIO
Ġassoci adas
ĠGard en
Ġpro nt
Ġcump rimento
Dist ritos
Ġt Ã³p
ĠOr le
Ġps ico
ĠP in
ĠR ica
Ġgrat uito
% ;
ĠM atos
Ġre ag
Ġreg ulares
Ġtran st
Ġperm issÃ£o
lin es
Ġtraz endo
Ġaval iaÃ§Ãµes
iter Ã³i
Ġmem Ã³rias
ĠVir gem
ĠSara h
ĠC Ã³r
Ġass ociaÃ§Ãµes
Ġleg ado
Ġps i
j ou
ĠL ang
iss em
gua io
i et
Ġf ant
Ġrep ertÃ³rio
ea u
Ġviol Ã£o
Ġsovi Ã©tico
v ens
ĠW omen
Ġcol span
pon ÃŃvel
Ġconsequ entemente
B B
Ġresol veu
Ġparal elo
Ġgast os
Fern ando
Ġautomat icamente
Ġob sc
Ġnome ados
ĠCons idera
Ġven ez
Ġdestac ar
Ġadequ ada
d al
ĠM uito
Ġpos tura
Ġobt endo
Ġimedia to
ĠÃļ lt
ĠJap an
Ġcabel os
t ivo
w ar
Ġa viaÃ§Ã£o
Ġt u
ess os
Cl ique
ĠManch ester
u ke
itu ais
iss Ã©rie
pre feito
Ġbase adas
El eiÃ§Ãµes
ĠUN ESCO
ĠC rit
ĠR J
Ġinter c
ĠCar ibe
vo z
qu enta
ĠT rofÃ©u
Ġfuncion Ã¡rio
Ġelog iou
Ġreiv ind
L os
Ġating ido
cha ft
Ġgarant iu
G ab
Ġex ÃŃlio
Ġh eranÃ§a
ak u
ow ell
Ġcond icion
ĠMaur ÃŃcio
T rat
Ġext intas
pid Ã³pteros
f ol
ĠV eja
Ġexplora r
es o
ĠE D
ĠPara l
Ġtransfer iu
int ra
Ġcor rig
ĠDe ath
rad es
gua ia
ĠMor ris
Ġcomp il
Ġdesc endente
Ġacompanh amento
Ġnor uegu
D en
j Ã¡
re nce
Ġal erta
ron ic
ĠNapole Ã£o
f am
Ġs um
Ġac Ãºst
Ġpar Ã³quia
Ġnasc ida
i y
it ect
pl an
Ġcol eta
Ġc ra
ĠGonÃ§ alo
Ġb ura
ĠD ut
era n
G S
Ġh ierar
enci ada
Ġabandon ar
ci ent
ha g
egan istÃ£o
ÃŃce is
aran i
Estat ÃŃsticas
p lay
ĠQu anto
Ġfac ilidade
Ã©n io
Ġst ream
Ġminist ros
ĠAgost inho
Ġnobre za
st ad
aliz adas
Ġconsegu em
IC O
ĠTr ump
ugosl Ã¡via
ro d
ap Ã¡
Ġaproxim aÃ§Ã£o
C M
la in
Ġmexic ano
Ġform almente
Ġating indo
ĠPan amÃ¡
ĠM ei
Ġint Ã©rpre
Ã¡rb ara
L es
im ologia
vi Ã¡rio
Ġsim b
Ġexclus ivo
Ast ronomia
Ġfest ivais
ĠA uto
il t
ĠMed iterrÃ¢neo
ĠAmb iental
en stein
Ġvis uais
ole do
id em
ĠAb reu
Ġpublic ar
Vol eibol
h om
Ġsal Ã¡rios
ĠGe ografia
Ġconclu ÃŃda
Ġopera r
Ġdaqu eles
Ġan f
Ġdel ib
Ġtend Ãªncias
ĠD I
Ar m
Ġtransmit ir
Ġamost ra
t ÃŃtulo
ĠS qu
ora dos
Ġdev o
Ġconsegu indo
ĠDes port
ĠNicola u
R ock
Ġneg ativa
ĠRem ix
ĠFÃ¡b io
ĠAlago as
c ro
Ġm am
Ġmar co
Ġintern os
T witter
Ġl azer
ĠT ch
Ġr ÃŃg
Ġconf usÃ£o
Ġlit era
ĠB apt
ĠG aliza
ĠW is
Ġperde ram
Ġ Ãªn
Ġenc en
Ġrep Ãºblica
Ġtorc edores
ĠBandeira ntes
es ch
Ġt rens
ĠB ang
ĠV it
Ġesc udo
ĠNev ada
Public ado
ev i
Ġper cepÃ§Ã£o
Ġ18 60
ĠCon hec
Ġado tado
Ġ188 5
Ġaustral iano
w ald
ĠS A
Ġno Ã§Ã£o
ĠÃ¡ rb
Ġel etro
Ġcl ipe
Ġcent ÃŃmetros
Ġo raÃ§Ã£o
ĠCo orden
Ġcontribu ir
e e
ĠR ab
Ġrelev ante
Re present
ĠM az
Ġcaval aria
Ph il
R IA
Ġl ab
Ġdist intos
on io
ĠS Ã©culo
ĠL ake
Ġad m
ĠR ond
ru gada
ter r
Ġaltern ativo
Ġj uros
sp ira
rat es
ari ado
Ġmost rado
Ġlig adas
Ġrom Ã¢ntica
ĠPont ifÃŃcia
P L
ĠNo w
Ġenvi ados
Ġgradu almente
Ġparlament ares
ĠEm p
Ġreduz ida
ocrat as
Ġmin uto
Pat rimÃ³nio
Ġre aÃ§Ãµes
Ġ7 1
Ġinteg ra
ant ins
ĠJo ana
Ġferrovi Ã¡ria
Ġend Ã©mica
z ig
Ġc unh
Ġgra Ã§a
Ġfavor Ã¡vel
Ġcost umes
ĠM ore
Ġres ÃŃduos
reg iÃ£o
ĠLat ino
ĠArqu ipÃ©lago
et embro
Ġform aram
Ġprocura ndo
Port ugu
ĠS ent
ic ultura
ĠF Ã©
Ġprim eiramente
ĠAm Ã©ricas
ĠacadÃªm ico
ro ve
part amentos
ĠA ga
S ab
c idade
ĠV elha
elh ado
Ġfer idos
Ġofer eceu
Ġth at
Ġdiscut ir
X X
Ġpes c
Ãº b
Ġcor on
Ġconsidera m
Ġir Ã£o
Ġarm adas
Ġbel ga
19 50
Ġtrabalh am
Ġpriv acidade
h um
gua Ã§u
Ġdif ÃŃceis
ux a
Ġche ia
Ġteat ral
ĠR oll
ver so
Ġbas ta
Ġpen al
ÃŃ vio
ĠAc esso
Ġperson alidades
Ġquer er
Ġ188 6
Ġrenov aÃ§Ã£o
Ġidi omas
Ġabast ecimento
M ov
ĠAl gar
An im
Ġsubstitu iu
Ġfrut as
ĠM etro
ĠcientÃŃf icos
Ġcart Ãµes
Ġre ab
ĠB ou
Ġr umo
Ġmon st
ĠRa im
ĠLin coln
R o
Ġest up
ĠW ind
ĠÃī vora
L ove
est rado
Ġch eio
eric Ã³rdia
Ġsepara dos
adjuv ante
J ack
ĠMar quÃªs
Ã³n ico
ĠSal a
ĠJohn ny
g et
ĠP aram
ĠL amb
ura das
ĠcientÃŃf icas
ĠsÃ©t ima
Ġb ela
Ġg ay
19 57
Ġcons ulta
Ġaf lu
Ġnorm a
Ġcrim inal
ĠMem orial
Ġs Ã©r
Ġf rases
Ġper feita
Ġperc ussÃ£o
ad eiras
ÃŃ o
ĠFil mes
Ġestabelec idos
Ġpre g
ĠRe port
Ġjust amente
nes ota
aten ed
F lor
ĠO nt
ob a
Ġcal c
ĠB eira
ora Ã§Ãµes
ĠRev iew
ĠAlexand ria
Ġestiv eram
an du
ĠP ou
ĠB rito
ĠG Ã¶
Ġab ertos
Ġam ante
ĠCar mo
Ġtransmit ida
Ġsecund Ã¡ria
Ġest abilidade
ab ilidades
ĠAl pes
Ġmod ernas
Ġlut ou
ĠSem pre
as co
ĠÃº m
ĠRib eirÃ£o
Ġda va
ĠGil berto
w i
Ġencont ros
Ġsan gu
Ġsobreviv Ãªncia
ĠE duc
Ġcorre ntes
B io
Ġf aria
at ive
ĠVir t
ĠThre atened
C idade
Ġaltern ativas
Form aÃ§Ã£o
ĠCh am
Ġeman cip
? )
el and
eg os
ard s
enh ores
Pa ÃŃs
ĠÃªn fase
ĠeconÃ´m icos
ĠAr c
Ġdom ic
pido ptera
ĠP ico
Ãº bal
Ġsal va
Ġprote ÃŃna
Ġ @
Ġpara s
ĠArt s
ey er
E F
ĠA V
ĠCom ando
ĠL inux
ĠJim my
C ri
g art
ĠE in
ĠV Ã´lei
Ġ7 3
ĠAlb um
ĠalcanÃ§ ando
ĠBa ÃŃa
vers a
R en
T en
Ġsub iu
ĠTai wan
Ġbas icamente
as so
Ġf rat
ran ga
Ġir rit
Ġdedic ar
Ġact ividade
ĠMich igan
19 39
ĠDom ingo
er ou
ĠEn ergia
Ġn it
Ġper cent
D esta
Ġdes igual
Ġfrequ entes
R em
Ġconclu ir
ĠSampa io
ĠP Ã³s
ĠIn Ã¡cio
Ġindic ar
Ġrele vo
Ġbic iclet
ĠP erson
Ġcinemat ogrÃ¡fica
j ada
Ġm Ã³vel
rag al
ĠRuss ell
Â Ń
Ġenc h
po de
R ad
Ġp ago
ic ul
Ġconsidera Ã§Ã£o
Ġit em
ĠAf eganistÃ£o
ĠCro Ã¡cia
ÃŃs io
Ġrelat ou
ĠAnd roid
Ġresg ate
Ġto que
ĠG erm
orn e
ĠTec n
Ġin ib
anc y
P lay
it Ã¢nia
Ġ8 6
Ġpra ias
re ga
Ġelim inaÃ§Ã£o
raria mente
G P
em ento
ec iam
S Ã©culo
V ia
Ġmat Ã©rias
dut o
Ġreflex Ã£o
ĠLux emburgo
ĠQu ad
att an
Ġconcor rentes
Ã³graf os
Ġensa io
g rÃ¡fico
ĠB uda
ĠLu ÃŃsa
H S
ÃŃt imo
ĠAs i
Ġaplic ado
ĠacadÃªm ica
ĠJord an
Ġcanh Ãµes
Ġex por
Ġcoloc ando
ĠCrist Ã³
Ġre el
ĠN ogueira
Ġocup ada
Ġpros t
Ġprofund amente
ĠquÃŃm ico
ĠÃº teis
Ġaven ida
Ġf eira
' m
v ert
ĠD est
Ġpsic ologia
it ter
Ġl Ã¢m
ez es
Ġpre val
olog ical
ĠCol orado
Ġde po
Ġprof undo
Ġinstru Ã§Ãµes
Ġterrest res
Alem anha
qu al
ĠSt and
ĠIntern a
Ġrelig iÃµes
Ġobserv ado
Ġa co
ĠJ ab
Ġprecis amente
Ġquil Ã³metros
as a
Ġen gan
Ġcat Ã¡logo
eix o
ich i
f ac
Ġapl ica
i idae
to ral
ĠEr nesto
ĠMod ern
T erc
Ġhom Ã´nimo
ÃŃd ias
ĠCh urch
ĠW agner
ĠNeg Ã³cios
f ort
Ġpre ferÃªncia
Ġsuger iu
Ġfracas so
C ada
Ġc um
ĠM S
Ã©c ada
Ġneg ativo
Ġcomplex os
C R
Ġf ortaleza
anh os
ĠOr lando
Ġaplic ar
ĠSerg ipe
Bl ack
Ġf io
Ġant ec
osta gens
ou ve
ci ente
ĠD ata
Ġcant ou
s ar
er te
ei ga
Ġag ir
Ġ188 4
ĠMor gan
Ġvest ido
R os
ĠM etr
ores t
Ġac ent
Ġp acote
S antos
Ġ up
ĠCom put
Ġperceb e
Ġdes per
Ġh Ãºng
av er
ĠYe ar
Ġo ral
ĠR esta
Ġru im
an ga
Ġf Ã©r
Ãģ rea
ĠLÃº cio
Ġpain el
ocol ate
Ġm art
ĠJ enn
Ġpal estra
Ġderiv ado
ant ic
Ġconf i
Ġen quad
ios as
port al
ĠRom an
Ġpeg ar
Ġt eu
it im
Ġcomun ista
t z
Ġp ano
ĠV Ã¡rios
ĠW ilhelm
Ġpass ava
Ġexpress Ãµes
Ġl istas
ĠN ASA
Ġes fera
ĠV oz
od es
Ġinstitu i
ĠPlant s
da g
19 51
Ġdivulg ar
Ġencerra dos
Ġasseg urar
Ġm amÃŃferos
ĠE y
eg aÃ§Ã£o
Ġdecl inaÃ§Ã£o
Ġimpl ica
B el
av ras
19 56
ĠAnd re
Ġcult ivo
c ab
t ec
Ġembarc aÃ§Ãµes
ĠGol fo
C he
Ġ( ,
Ġparticip ando
Ġcol apso
Ġapar iÃ§Ãµes
Ġcost uma
A no
Ã³d ia
Ġminist Ã©rio
Ġrespect ivos
Ġles Ãµes
est Ãµes
Ġmat ando
Ġado Ã§Ã£o
Ġconce deu
ĠInd Ãºstria
Ġesport ivos
Ġorqu ÃŃde
ent ura
ist ia
Ġal deias
A lt
ĠT iago
Ġgrav idade
Ġdisc ÃŃp
fil me
Ġvaria nte
ibliot ecas
ĠC enso
ri on
ĠE is
Ġcolon izaÃ§Ã£o
ĠArÃ¡ bia
Ġsa que
ĠsÃŃ ntese
ĠVers ion
N atural
Ġl ixo
Ġefet ivamente
S om
S on
m id
19 55
res c
Ġcompet Ãªncia
Ġpropor Ã§Ã£o
Ġp Ã¡
Ġb is
ow a
ĠS to
Ġexp ed
Ġing red
al dade
Ġass ust
are jo
Ġinfant is
Ġassist Ãªncias
h in
ĠC icl
ort eio
Ġint ernas
Ġcompre ende
Ġcicl one
ĠT uc
Ġtradicional mente
Ġrecom enda
Ġempreg ados
Ġs Ã©rio
om ic
ĠCar ey
ĠbÃ¡s icas
i Ãº
Ġcol Ã´nias
Ġdivulg ado
al ia
G l
n ik
Ã³p ez
Ġ13 0
Ġviv endo
ĠquÃŃm icos
Ġsu pre
ĠFre ire
Ãºrb ios
E p
F oto
Ġret irou
Ġlig eiramente
ĠVic toria
an gu
Ġafirm am
Ġpret endia
Ã³rd Ã£o
Ġw idth
Cl ube
ĠMerc ado
Particip antes
Ġmexic ana
Ġb eira
ok o
e ing
Art igo
ĠTelev ision
Ġconv idada
ĠFiguei redo
P RO
ĠM ace
ĠvÃ¡l ido
t is
ĠH ud
Ġped indo
Ġ188 7
Ġgaro to
gu ia
Ġembaix ador
ĠC ris
Ġt endem
Ġesp ada
ĠdanÃ§ ar
Man uel
ĠF irst
le v
Ãº dio
Dec isÃ£o
B a
ĠCh eg
ĠPor ta
ĠGeral do
Ġt iros
ut or
ĠDio go
R ei
Ġ ri
Ġas pira
Ġpres a
Ġpubl ica
Ġcomplex idade
Ġv ende
ĠR at
ac as
est ade
ĠEsp ortes
Ex t
e ar
u art
Ġm os
ĠL ink
Ġinvest ir
Ġbact Ã©rias
E B
em entos
unci ar
es is
ĠF aria
Ġceleb raÃ§Ã£o
Ġinter m
Ġpl eno
ĠOr t
Ġmud aram
ĠInf raestrutura
ĠCamar go
ĠJ ava
co Ã§o
ĠbÃ¡s icos
Ġliter Ã¡rio
Ġproxim idade
L inha
ĠMat riz
Ġemo cional
Ġv ital
om er
ĠL ike
Ġass inar
Ġvenc ido
F I
Ġcri pt
Ġrecon struÃ§Ã£o
Ġhidro g
r ÃŃculo
cos s
Ġimp ul
ĠSem ana
Ġfech ada
al os
ĠC ru
ĠM MA
ĠI st
cor do
stitu iÃ§Ã£o
ĠAtl anta
v idos
Ã§ ou
ĠF r
ĠPa quistÃ£o
âĢĶ âĢĶ
ĠHamb urgo
Ġt oma
ĠF Ã¡tima
Ġtra Ã§os
Ġafirm ar
ĠB ey
Ġag lom
Ġfrequ ent
Ãĩ A
Ġdest inada
Ġeste jam
p aro
ĠB og
ĠR ow
Ġpol o
Ġurb anos
G U
ord em
Ġf ita
ĠW o
ĠQu int
Ã©l ix
ĠPer man
Ġinstal ada
Arqu itetura
ĠMost eiro
ĠB ir
an ne
ĠMod erna
p Ã©
Ġf os
________ ________
Ġcondut a
h on
ÃŃ ada
ci ado
ram as
Marc adores
Ġobject os
Venc edores
u ada
ĠM ut
ingu e
Ġelev aÃ§Ã£o
S ha
Ġt rio
ĠPen al
Ġcoorden aÃ§Ã£o
Enc ont
Ġpublic amente
ĠKn ow
Ġsaud Ã¡vel
ĠclÃŃn ica
Ġoxig Ãªnio
ĠVascon celos
Ġt oca
ĠT un
Ġro und
ĠOb ras
Nav ios
Ġobs erva
Ġg ases
Ġapo iou
Ġesp ÃŃ
ĠestÃ¡ vel
Ġganh aram
Ġcorre ta
N esta
ec on
Ġpre ta
Ġdist o
ĠN uno
Ġext ragal
cip es
ĠNew ton
AD A
kes pe
ĠT at
Ġcomp Ãµem
ĠGu y
ĠAt or
ĠMat emÃ¡tica
Ġdeclara Ã§Ãµes
Ġatribu ÃŃda
Ġfix a
Ġdiret ores
D I
ĠN ak
Ġobserv aÃ§Ãµes
ĠBer k
Ãºc leos
ĠÃ¢ng ulo
Ä Ļ
ĠT oy
Ġos sos
ĠSuper man
Sa Ãºde
ĠBenjam in
Ġb Ã´nus
ĠI gu
Ġal tar
Ġvet era
Ġt antos
Ù Ħ
Ġreg rav
ĠProc ura
ĠtÃŃp ico
O ne
er ing
ĠM eg
Ġcontinu aÃ§Ã£o
Ġcren Ã§as
Ġfel icidade
Ġdi ariamente
Ġcar gas
Ġ7 4
ĠEx p
Ġelim inar
Ġpesquis ador
ĠMot or
Ġc ess
oc e
Ġal mo
Ġdes erto
ES S
Sem if
ĠPrem ier
f ato
Ġenc ora
Ġcolon os
ĠGold en
ĠRol ling
p in
iv ismo
Ġmens al
Ġhosp itais
Ġt eto
il is
ch em
Ġrepresent ada
Ġtel esc
Ġexpl icaÃ§Ã£o
Ġsing ular
Ġfemin inas
Ġviv ia
Ġgera ndo
ĠP age
Ġlibert aÃ§Ã£o
Ġ urg
Ġdes ativ
est res
Ġch il
Ġw h
Ġsustent Ã¡vel
Ã§ am
ĠL on
Ġconc edida
ĠHist or
Ġpalest ras
ĠCout inho
Ġadminist rador
al is
et to
Ġat er
des ign
M C
Ġf iel
ĠGu an
ĠOl iver
Ġsele Ã§Ãµes
Ġextragal Ã¡ctica
Ġf irme
ĠD iz
Ġper eg
Ġha vendo
Ġfavor Ã¡veis
Ġy our
ers a
Ġef ect
Ġros a
Ġt ria
Ġdes empre
Ġpass ada
ĠlanÃ§ adas
Ġapresent adora
Pro t
Ġexce p
nasc ida
rÃ¡ gio
Ġestim ado
ĠBru x
oqu ial
Ġant ecess
Ġcant ando
Ġbas quetebol
Ġsupera r
D ata
ĠN ome
Ġdisc ussÃµes
j ornal
19 54
Ġvi Ãºva
Ġviv iam
R ot
ĠD F
ab re
ĠAl o
Ġmilh as
Ġtraduz ido
at ri
ĠT oledo
Ġcomp ilaÃ§Ã£o
Ġam ericanas
Ġmarc ha
Ġ186 4
ĠÃģlv aro
ĠAl v
ĠCh ip
ĠAp ol
Ġtre ino
ĠLag oa
Ġnumeros os
ight s
ĠBiz antino
D in
Ġcoorden adas
ĠanÃºn cios
J ardim
Ġentre gar
Ġmon arquia
........ ........
Ġim un
ĠB aixa
Ġtrans c
Ġinc rÃŃvel
Cr Ã©ditos
ĠDes c
Ġinfant aria
I X
ĠJ ess
Ġfal has
ĠAust in
ĠJu iz
ĠC and
Ã³ lia
co a
Ġafirm aÃ§Ã£o
Ġame aÃ§as
ĠH ell
ĠLe pidoptera
ocol mo
Ġprivil eg
ul te
ĠK ra
Ġneg ociaÃ§Ã£o
Ġmon arca
e is
Ġs it
ĠAt riz
Ġmora r
Ġpre lim
th ers
ĠCart er
ĠG or
o rando
Ġmod alidades
ĠAdam s
ĠWat son
m erc
Ġg reve
Ġil egal
Ġcir urg
Ġfrac ass
Ġtorn aria
ire n
ĠMo to
L et
S en
ĠP itt
ĠW y
Ã©g ios
erat iva
ĠP ur
Ġrec usa
Ġconsegu ido
ia ram
ul antes
Ġform atos
Ġpl ena
Ġsub terr
Ġescrit Ã³rios
âĢ¦ ]
ĠA ur
ĠN azar
Ġapo nta
Ġmus ic
Ġampl iaÃ§Ã£o
Â ·
ha i
Ãªm ico
ane amento
ĠDire Ã§Ã£o
ĠProfiss ional
Ġex Ã©rcitos
Ġjunt a
ĠBra zil
d s
ĠH end
Ġpres tar
Ġreconhec eu
Ġg anho
Ġh ebra
Ġsegu iram
ĠQu eb
Ġdetermin ados
il da
ou se
J orge
Ġl eu
ĠB airro
ed Ã´nia
ĠÂ ½
Ãĩ ÃķES
cons ultado
Ã© p
ib le
met ragens
ĠMet ropolit
Ġpse ud
ig ura
Ġab uso
c ur
el agem
ĠCol Ã´nia
Ġcon so
Ġmar x
ĠCh allen
ĠRe forma
Pro jeto
Ġdesconhec ida
Ġdom ÃŃnios
Ġper fe
ĠUn ion
Ġch ances
ven ir
Ġace itaÃ§Ã£o
ĠOb s
Int eg
Ġabsol ut
ĠHon or
ĠBab y
ar Ã©
ĠD entre
ĠF Ã³rum
Ġ8 1
Ġ8 2
ĠPara naense
Ġvoz es
iz adores
ed oria
Ġvol tado
Ġ188 1
Ġestat ÃŃsticas
ĠL omb
ĠAmaz on
vers Ã£o
Ġatra ir
Ġv os
ĠB alt
ĠLa ure
Ġpromov e
Ã³ ides
ria mente
Ġcor reto
Ġho t
riz ona
ĠMin nesota
Ġef icÃ¡cia
a ux
Ġest uda
Ġent rando
Ġident ificado
Ġcompos itora
Ġrealiz ando
ĠAir lines
st one
ĠPer ry
ĠChrist opher
Ġf av
ĠTom Ã¡s
ĠM ast
Ġfor em
Ġmelhor ias
Ã¡g io
Ġcamp us
Ġprom ulg
ement ar
Ġconfig ura
H C
ĠJ ung
Ġg Ãªme
Ġal iado
Ġ18 78
Ġespera va
Ag ora
Ġal a
Ġab ert
Ġger enciamento
ĠA j
ĠF ur
Ġsol t
ĠHe in
Ġtip icamente
ĠB und
ĠL Ã³pez
ĠAb u
Ġcaus ado
Ġ188 2
ĠBatal hÃ£o
Ġv elhos
enn esse
ĠServ ice
at ividade
ĠBeat les
ÃŃ as
Ġus ava
Ġcompos itores
ald i
Ã¡ut ica
F ol
iz z
19 40
Ġenvi ada
Ġrot ina
m ica
Ġdif und
Ã¢m etros
ĠRom Ãªnia
Ġbeb idas
Ġhor Ã¡rios
aut ent
Ġmass as
Rel aÃ§Ãµes
ĠGarc ÃŃa
Ġc ano
Ġaprove itar
u ado
Ġout ono
Ġpes coÃ§o
Ġestabelec imentos
l it
ĠPr Ã©
Ġopera cionais
Ġfer ido
Ġinfer iores
ĠWay ne
Ġrast re
ĠB os
era mente
Ġpoder osa
ĠFrank lin
Ġcens os
Ġequil ib
Ġreb otes
Ã¡n dez
Ġbusc ando
Ġand amento
ĠAnd y
ĠT emplo
Ġmin issÃ©rie
D ES
Ġf eri
ĠK er
Ġart ÃŃsticos
Ġproduz indo
Ġprem iado
Ġth is
Ð ²
de on
Ġed itado
ĠCatal ogue
Ġpen et
ĠmolÃ©c ulas
S in
Ġp Ã£o
19 52
ĠK id
ĠFound ation
ic ional
Ġpr Ã©mio
Ġaqu ecimento
v ila
Ġar redores
Ġl in
ĠW el
Ġcam pon
Ġenterra do
G ran
c ost
in y
ĠM ul
Ġre eleito
ĠG ast
Ġesp Ã©c
op ortos
Ġpesso almente
ĠFern anda
Ġpovo aÃ§Ã£o
pol es
ĠC L
Ġobt idos
Ġpud essem
Ġcar n
Ġdistribu ÃŃdo
Ġferrovi Ã¡rio
Pil otos
ĠM orro
ÃŃst a
Ġcrist al
ĠSong s
Ġinterrom p
Ġse co
ĠF air
Ġapresent adas
Ã³g icos
Reg iÃ£o
Femin ino
G reg
Ġnov idades
Ġempres Ã¡rios
Nos sa
raf o
ĠSte ven
A ÃĩÃĥO
ĠZ ero
ĠConc ÃŃlio
ĠLuc iano
on Ã§a
ĠT ig
ĠE vol
ĠN ag
ac ab
ch el
Ġag ra
ĠRa ul
Ã© ias
ĠT odo
ĠV all
ĠMan n
kespe are
ĠRe f
ril h
Ġprov id
ĠsatÃ©l ites
Desambigu aÃ§Ã£o
ent s
Ġman ual
Ġtom ando
Ġdiret oria
P O
ĠP am
Ġin cons
dor f
Ġjuda ica
so b
Ġcal ib
Ġdepend Ãªncia
ĠGet Ãºlio
o ito
ĠSt udio
J ap
Ġn esses
ĠItal iana
Ġintelect uais
Ġconselh eiro
iv odia
Ġhel ic
d f
Ġf ert
Ġb lu
Ġpro posto
Ã¨ s
Ġadolesc Ãªncia
Ġoit avo
Transp orte
B er
{ |
ĠP ablo
Ġcria ram
unci ado
ĠelÃ©t rons
k ow
ĠH umb
Ġrelat Ã³rios
Ġterren os
ĠVlad imir
ĠT ais
Ġcin quenta
in Ã¡rias
ĠP ag
ĠF rom
ÃŃt as
Ġconv ento
Ġocas ionalmente
V ilas
Ġo ntem
al g
Ġb iografia
Ġavent uras
L ond
Ġ18 50
Ġinterpret ando
Ġb ru
ĠFre guesia
Ġsepara do
T I
Ġint enso
ĠMar ina
Ġconf orto
our s
Ġlut ador
ĠÃŃ con
Ġsubs idi
ĠBow l
Ġd ano
qu inho
ĠB ec
ĠL obo
Ġtent aram
Ġajud am
Ġdestac ando
Ġger m
Ġo m
Ġaper feiÃ§o
E du
Â ©
Ġh orm
Ġdocument aÃ§Ã£o
it ivas
ĠD ub
Ãº rio
Ġide ais
Ġprecis ava
Ġpoleg adas
Ġmu do
Ġesport iva
Ġisol amento
Ġarran jos
l ess
Ġcam a
ĠCer ca
ĠDrag on
in osa
Ġdes n
ĠAl as
Ġvers os
ĠMart inho
Ġve ja
Ġmad rugada
y ne
Ġmont anh
Ġadapt ado
ĠEditor ial
ĠB is
Ġest Ã©tica
ĠK az
ag er
Ġmin erais
qued os
ĠP etr
ĠM ai
ig e
Ġcontempor Ã¢neos
ĠRug by
V E
u ka
ĠB Ã¡rbara
ĠCon d
ĠSt ra
Ġ9 2
Ġcorpo ral
Ġlevant amento
Ġcontempor Ã¢neo
ĠC iv
iver pool
way s
Ġlar go
Ġempreg ado
ros e
ĠEx posiÃ§Ã£o
ennesse e
ad el
Ġm old
19 36
Ġens inar
Ġre port
Ġ8 9
ĠJos ef
ĠCa io
Ã ¦
ĠS amba
Ġass em
Ġass inal
Ġreiv indic
atem ala
A er
ro vis
em s
Ġcha p
ĠhÃ¡b itos
ĠToc antins
er Ã¢ncia
Ġdo aÃ§Ã£o
Ġat raÃ§Ãµes
Ġacab am
F estival
CI ON
ĠCong regaÃ§Ã£o
Ġcomun icaÃ§Ãµes
Ġvend ida
ĠavanÃ§ ou
ĠD ir
19 48
Ġmet ropolitana
ĠFran z
Th omas
ĠTrin dade
i ers
y on
ĠF ant
Ġcidad ania
Servi Ã§os
ĠC esar
ĠN iterÃ³i
ĠJ en
Ġrealiz aram
ĠSp ecial
Ġmist Ã©rio
ĠP OR
Ġpara do
ĠHou ston
Ġdisp Ãµe
ig ien
od Ã£o
Ġfl ora
Ġriv alidade
Ġlev ada
Ġresult ante
Ġfut uros
Ġtoc ando
b ophyllum
ĠQu ÃŃmica
Ġcond ados
Ġs enso
it amento
Ġdes lig
Ġderro tas
Ġacord os
ĠjuÃŃ zes
S anto
ĠA da
Ġdev ast
Ġsel et
ĠFam ily
á ĥ
Ġprov ar
Ã©cn ico
ĠMont real
Ġcomem oraÃ§Ã£o
ĠW ater
ĠPro mo
Ġperman eceram
Ġcrit Ã©rio
ĠelÃ©t ricos
ĠÃĢ s
U s
ĠC anc
Ġpes ado
ĠGreg Ã³rio
ĠM ens
Ġsub ir
Ġciv ilizaÃ§Ã£o
! ,
id ika
ĠL is
Ġan uais
ĠBar reto
Ã³d igos
Ġbaix ista
Ġperman ecendo
Organ izaÃ§Ãµes
at inado
ĠR ousse
ram entos
oria mente
Ġmet rÃ´
Ġpermit ido
ĠDav e
Par is
rÃ¡ ria
com p
ĠEsp ec
Ġcant ores
Ġmostra ram
ĠRon aldo
ĠMit idika
ĠAm ericano
Ġvari edades
Ġinspira da
Ġt ons
Ġapar elhos
Ġdipl oma
ĠEstat ÃŃstica
Epis Ã³dios
ad en
Ġinf ecÃ§Ã£o
Ġcaracter es
M ich
ĠS ib
ĠM AR
Ġb its
Ġgovern ante
Ġtre inar
enci ou
enci ados
Ġmult idÃ£o
Ġveget ais
Ġartilh eiro
Ġjard ins
ĠM ack
Ġb et
Ġdemonst rar
Ġvolt ada
Dist ribuiÃ§Ã£o
ĠÃ³t imo
H F
Ġnas ce
Ġprot esto
Ġretira do
Cal endÃ¡rio
Ġnucle ares
ĠC ult
Ġdesenvolv idas
Ar te
Ġreconhec e
ĠF onte
ĠL il
Ġos t
Ġinf lam
alh es
ĠTh or
le z
end ador
ulos e
Ġobject ivo
V i
g ers
Ġind is
uc ky
Ġer rado
Ġinfluenci ado
Ġlux o
Ġades Ã£o
Ġcomp or
Pop ulaÃ§Ã£o
ĠHaleak ala
ĠMarsh all
n am
p rin
Ġb re
Ġg rÃ¡
Ãº ri
ĠProte Ã§Ã£o
p u
ĠJ unta
Ġp istas
ĠB Ã¡s
ica cao
Ġin duz
rim ir
Ġro l
ĠMa j
Ġb anho
ĠFl ash
Ġclassific adas
Ġcil ind
en za
ĠRes pon
ĠÃŃnd ices
Ġc Ã©le
Ġro de
Ġ9 7
as te
ĠR ho
Ġapresent aram
ĠBill y
Ġt rÃ¡fico
ĠEx cel
A os
eb a
ĠPr Ã³
Ġlib erais
Ġ188 3
Ġparal is
ĠÃ³t ima
Ġson da
ĠMal Ã¡sia
Ġsep ultado
ĠmÃºltip las
T udo
Ġab range
Ã©s imo
Ġgu arn
Ġconv enc
Ġholand Ãªs
ĠP ena
ul ando
Ġb achar
ĠD ur
eb er
Ġev idente
Ġpens a
Ġacad emia
ĠPre c
Equ ipe
Ġlitera cia
r ino
ĠK ansas
ĠAnd rea
cios o
Ġdesenh ada
ĠJ ar
ĠW ISE
Ġim obili
Ġempres tado
Ġexp uls
Ġtre chos
Ġmerc adorias
Ġm inas
ed i
Ġrel ata
Ġ8 3
Ġmod os
ĠFran Ã§ois
g ol
Ñ ĥ
Ġv iva
ut ar
oc ado
Ãªn ios
Ġdesloc amento
Ġa cion
un ista
ĠL ocal
ĠW right
ĠGen ebra
wit z
Tempo rada
Ġreperc ussÃ£o
eb e
M Ã©
Ġp ian
im ore
Ġl ob
ab ara
ce itos
cif ic
iz ador
Ġtem plos
Ġret rato
Ġenvol ver
Ġadquir ido
Ġal o
Ġcol omb
Ġmet ais
ĠLe o
Ã´m icas
Ġalte rar
h em
Ġ {
Ġav iso
Re ino
umb i
ĠWal ker
Ġacus aÃ§Ã£o
ĠCarn eiro
Ġo posto
ig ar
Ġfil t
ok i
Re al
ĠOc idente
ÃĬN CIA
a gu
Ġabandon ado
Ġt ive
ĠS ak
Ġpr Ã©dios
Ġpol Ãªmica
Ġdifer encia
ĠM B
Ġ( ...)
ĠMar keting
Ġfrequ entou
ĠSte wart
Sa int
Ġinstru Ã§Ã£o
ĠCl aro
Ġofer ecem
b u
ĠS af
Ġgol e
ĠGra y
ĠOrig inal
Ġl agos
ist s
Ã³s io
ĠEl is
Ġmand atos
Ġalte rado
Ġemo Ã§Ãµes
D R
ram os
Ġ9 3
ĠPro gress
Ġviz inhas
Ġreserv ados
Pres identes
V ide
her ine
Ġalfab eto
ĠMace do
s il
ĠVis conde
Ġiniciat ivas
Ġagu ard
ĠS inf
Ġan at
pe cies
Ġfilm ado
Ġluc ro
Ġfi Ã©is
ĠF isc
am ina
il es
ĠT anto
Ġge om
Ġpun k
Ġincent iv
qu ez
te b
ĠAc re
Ġchef es
ava ÃŃ
Ġsim pat
inossa uros
B ispos
N ovo
grÃ¡f ica
Rev ista
ĠArg Ã©lia
Mes mo
S c
os ter
et Ã¡rio
ĠCont empor
Ġconcor rÃªncia
Ġdemonst ra
Ġâ Ĥ¬
Ġvisit ante
Ġreporta gem
Ġa mo
Ġo itava
um an
ĠS ang
Ġcar vÃ£o
ret as
Ġmod ificaÃ§Ãµes
ess oria
Ã³l icas
Ã´m etro
Ġcomun istas
Ġprev Ãª
ĠGra Ã§a
Ġviz inho
os hi
Ġh isp
Ġpl atina
ĠĠĠĠ ĠĠ
Ġneu ro
or ies
Ġper u
Ġtom adas
Ġdefin idos
ats App
Ġprovoc ou
l ler
gen eral
sen al
M erc
ĠC aixa
Ġfal antes
Ġden Ãºncia
Ġassum indo
Ġarg umentos
Do is
Ã¢nd alo
en egro
Ġv asta
gu er
ĠEm presa
ÃŃn guas
Ġatlet ismo
ĠPriv acidade
M uitos
U B
Ġn eve
Ġdes ac
Ġprim Ã¡rio
Ġcent er
Ġbril ho
Ġa uge
Ġt rim
Ġf Ã¼r
et izaÃ§Ã£o
Ġcat edral
Ġgen es
si edade
ĠSaud ita
ul hos
ĠF aro
Ġinteress ados
ĠFlor enÃ§a
Categ orias
ÃŃs seis
Ġreal ity
ic he
ĠestÃ¡ gios
ĠMa h
Ġlib eraÃ§Ã£o
Ac ad
Ġsobrev iver
P I
u ÃŃtas
st f
od in
Ġada p
ĠSel v
Ġcostum am
Ġacamp amento
Ġcontrov Ã©rsia
M i
ho je
Ġex il
Ġad jac
ĠcontÃŃn uo
Ġza gueiro
h ang
ĠB it
ĠB ela
ĠF ot
Ġdis posto
Ġra zo
Ġret rata
Ġempre gos
Ġveget al
Ġestrel ou
c z
Ġco g
ul es
Ġest ÃŃm
Ġ9 4
Ġlocaliz adas
Ġsof ist
ĠAgu iar
P ela
ĠPh ill
Ġpec ul
Cast elo
ĠUnivers itÃ¡rio
ĠCent ury
ĠPok Ã©mon
ac ar
Ġver des
Ġdec ret
gu eira
19 30
Ġ18 40
ĠMa xim
Ġdeb ates
Ġ1 18
Ġint eira
Ġfrag mentos
Ġ ÃŃdo
Ġbar cos
Ġregist rados
Ġsemelh anÃ§a
Ġhou ver
ĠMend onÃ§a
O h
rim a
ĠK ara
Ġfranc esas
ĠR ece
Ġofer ecido
Ġarquit ect
Ġapo iado
ĠOrtodo xa
ĠH ern
Ã©s io
Ġdisput as
Ġintroduz iu
acho eira
an ch
ĠC ert
at eral
Ġj antar
ĠDan i
Ġcrit icou
Ġrebel iÃ£o
inal do
Ġad ulta
Ġesg ot
Ã ¯
Ġt ap
ĠHon ra
ic adas
ci Ãªncia
Ġ- ,
Ġdem issÃ£o
ĠSha kespeare
ĠProc esso
ĠEx pl
Ġmant ida
Ġajud ando
ĠD j
ĠMat the
Ġpopular mente
Ġact ualmente
R elig
ĠA rizona
ĠV az
Ġher Ã³is
Ġpion eiro
J an
ĠM IN
ĠG ent
ĠI CP
ha w
rÃ¡ g
ĠThe atre
ĠInd ian
Ġgost aria
Ġse quer
ĠR al
ĠPro duÃ§Ã£o
Ġsol os
Ã³g icas
ĠÃºn icas
Ġvest ÃŃgios
ĠFinal mente
Ġconsist ia
Ġcomplement ar
Ġem bl
Ġ18 75
ĠRos Ã¡rio
iclop Ã©dia
ĠEuro copa
ick s
ats u
ĠA x
Ġcl ar
Ġ186 5
Lu ÃŃs
P ress
Ġsof rimento
Ġpriv ados
ĠHou ve
Fran k
re ra
ĠC F
Ġnatural mente
Ġexport aÃ§Ã£o
ĠE va
Ġhab ita
quer da
ĠJos h
ator ial
ĠgÃ©n eros
Ġpor n
Ġproc urou
Ġinst ituto
Ġalem Ã£s
Ġinvestig ar
ĠMur ray
S ul
t her
Ġfrequ ente
ĠmuÃ§ul m
ci osa
Ġado tar
Ġrelat ado
Ġth eir
ĠM ons
19 49
Ġav Ã³
ĠFl Ã¡vio
f an
Ã§ adas
Ġ3 50
ID A
Ġprotest antes
. -
P ap
Ã¢m icas
t ime
us eram
ion ou
Ġvol tas
Ġespecial izado
ĠalcanÃ§ ado
Ġ ira
id encial
pl ant
Qu anto
Ġrot aÃ§Ã£o
ĠBroad way
ĠA val
Ġesc uro
ry s
Ġmus eus
Ġquer iam
Ġestrutura l
Ġautom Ã³vel
Ġproven ientes
Ġan s
ĠAl ente
Ġinflu encia
Ġpreserv ar
Ġra cional
Ġred aÃ§Ã£o
Ġeleg eu
V ic
c ess
ĠÂ §
ĠRib eira
urn as
govern ador
M T
ĠOt to
B us
Ġc Ã³r
Ġv ÃŃnc
ĠT emp
Ġ18 77
H or
ol om
Ġl ot
Pl antas
ĠJ ard
Ġh ero
Ġconquist ado
Ġp ux
Ġf Ã£
ĠS IC
ĠI guaÃ§u
Ġsa x
Ġrem un
ĠFerra ri
Ġp enas
Ġtrabalh ador
Ġtur ma
ĠtÃŃp ica
N Ã³s
ĠAustral ian
ĠEspa Ã§o
Ġcap itais
ĠEx tra
Ġvira da
ĠFlores ta
is ch
uro c
Ġpol in
ĠJer ry
doc umento
GÃ©n eros
k an
Ġin just
ĠameaÃ§ ada
Ġd id
at um
Ġsu cedeu
oc aÃ§Ã£o
Ġen vio
Pr Ã©mio
Ġdivulg ou
Ġvolt aram
E UA
V ersÃ£o
Ġrest ring
ic ias
ro ll
um inos
ov aÃ§Ã£o
At om
Ġ[ âĢ¦]
C ert
L ogo
R OS
il s
ed endo
Ġpl en
Ġcereb ral
ĠPar ker
ĠUS P
yl l
Ġ186 8
r Ãª
Ġdo ente
ĠC ub
Ġativ ista
ER S
Equ ipes
Ġexpect ativas
Ġnumeros as
gu Ã¡
Ġcar idade
ver m
Ġdisput adas
ĠSh ar
ĠGr Ã£o
Ġproduz em
Ġviol aÃ§Ã£o
Ġvel oc
ĠAtl Ã¢ntica
Ġ186 7
ĠA TP
ĠM om
Ġl ua
Ġ18 71
ĠMar ch
ĠPeters burgo
ĠTrabalh ista
Ġcho que
C U
e as
ĠC ot
Ġim presso
ĠAn al
Ġrel Ã³gio
esse is
Ġmon umentos
Ġdeleg aÃ§Ã£o
S N
Ï Ĥ
Ġ ort
ac her
Con stru
ep pe
Ġcint urÃ£o
Ġespira l
ci nto
iam ento
ĠSil la
ĠSil ver
ĠMen ezes
Ġremo Ã§Ã£o
Ġconfront os
Ġt ru
ant is
Ġser via
Qu adro
Ġ10 1
Ġprepara do
ru g
Ġemp ur
n io
ĠC Ã¢nd
ĠM ort
anh ou
Ġpra to
ane jamento
seg undo
Ġobrig atÃ³rio
Ġf om
Ġdes ab
Ġ Ï
Ġp ude
Ġqu entes
av ÃŃrus
Ġenc ant
Ġma estro
ĠPh oca
ĠSo ul
Ġfech ar
ĠUlt imate
C hec
O G
Ġo ra
Ġex ag
ĠFre i
R uss
Ġofer ecendo
Ġinternacional mente
ĠFin anÃ§as
Ġbras Ã£o
H a
t ores
ÃŃs ia
or um
ĠNÃ¡ poles
C AR
re dos
Ġvul c
ĠRodo via
Torn eio
Ġser ra
ĠCat eg
Ġcole Ã§Ãµes
ĠEvang elho
ĠPhoca ea
Ġm apas
Ġsuger em
Ãºl g
il iano
ĠV ocal
Ġbase ia
Ġneg ou
ĠSh in
Ġbat eu
Ġemit iu
ĠhÃºm idas
C la
ĠB oca
ÃŃst as
Ã¡l ogos
ĠDem ocrata
Ġselecion ados
Ġimig raÃ§Ã£o
ĠM itch
gu erra
Ġconv enÃ§Ã£o
Ġvil Ã£o
Ġstream ing
Ant Ã³nio
Is so
ĠvÃ¡l idos
ĠHarris on
z an
is ma
ĠB ond
Ġdes pe
ĠRob inson
ĠÂ °
Ġpens amentos
rÃ¡t is
Lit eratura
ic inas
ĠS ei
il he
ĠR as
ĠW oman
Ġinter fer
Ã©s ima
Ġho p
Ġadminist rativas
ĠTransp ortes
Voleibol istas
H y
Ġt amb
Ġmar ch
ĠY am
ide a
af ric
Ġconfirm ada
Ġtempo rariamente
ill on
ĠPre feito
R N
id ional
Ġl aranja
Ġen gl
Ġdi e
ĠZ en
ĠEsp acial
Ġmot hs
Ġderiv ados
ĠW a
ĠEst ocolmo
Qu art
At l
ĠRob in
ĠSer Ã¡
Ã¡p olis
um bo
Ġlev es
Ġfl ag
ĠCont role
ĠRec ebeu
Ġestran ho
ĠId ent
ĠCoop er
M I
al as
ĠB ez
ĠT endo
Ġag enda
Ġand ares
Ġdestru ÃŃdo
Ġp ir
ac y
Ã©r t
ĠEd ition
ĠF Ã©lix
il Ã£o
Ġl embro
ĠO st
ĠPe ople
Ġofens iva
ent on
pon do
Ġdemonst rou
Ġproib iÃ§Ã£o
ĠfÃ¡b ricas
Ġprecip itaÃ§Ã£o
I tal
Ġc enÃ¡rios
ĠGonz aga
Ġm ira
Ġes pont
eu ro
Ġnam orada
Ġen riqu
eu x
ĠMil ton
ĠSim pson
Ġhaver Ã¡
s pot
ĠP la
Ġplan etas
Ġconcor dou
ĠManh attan
p en
Ġest il
ĠV amos
Ġmus cular
Ġcomb ates
over y
Ġembarc aÃ§Ã£o
Ġamost ras
Ġl un
ust er
Ġcomplex a
ĠZ u
Ġrespon de
Ġren unciou
Ġh it
av el
19 38
19 41
Ġcham ando
Ġcompara do
ĠJer sey
Ġsubesp Ã©cie
Î ¹
Ġtrans forma
Ġlut adores
Dire ito
er l
ÃŃ nd
ĠP Ã³
ĠacadÃªm icos
ĠsÃŃ ndrome
ĠLaw rence
ĠAlgar ve
autent icacao
t ando
Ġt im
ĠB eth
ĠI re
ĠI ugoslÃ¡via
ĠRaim undo
D r
ĠGra nt
Ġmol ecular
Ġconsent imento
d ec
w ich
it ions
Ġprim a
ĠCristÃ³ vÃ£o
N ic
l fo
Ġf arÃ¡
ĠCl emente
ĠCE O
C urt
Ã³l oga
Ã¡ss io
Ġinicia ram
utt gart
Ġre pressÃ£o
Ġ18 79
ĠDec l
abil itaÃ§Ã£o
Fran Ã§a
Ġsobera nia
ĠM all
Ġinf ect
ĠLÃŃb ia
M eu
m s
it ana
av ra
ĠK ob
ĠSant ar
Ġlib ras
Ġinstr ument
Ġsubst ituto
H al
R ic
st ar
Ġent radas
Ġaprend izado
ĠS z
ril l
Ġgarant indo
N orte
ĠEst rang
Ġro tas
Reg iÃµes
ĠSom ente
p iter
ĠC BS
Ġch Ã¡
Ġclim Ã¡ticas
s car
Ġj Ãºri
19 46
ĠAr cebispo
ĠMas culino
Ġopt ou
lah oma
ĠT ed
Ġac har
ĠAr k
ĠAm ster
ius eppe
ĠSic ÃŃlia
Ġestabelec eram
Liv ro
Ġadvers Ã¡rios
Ġmin eral
Ġreb at
Ġdiagn ost
Wh at
Ġpain Ã©is
Ġt antas
ab y
ĠGu atemala
Ġsequ Ãªncias
ĠEngl ish
P ierre
ĠAt ravÃ©s
Ġtrabalh ado
Ġref rig
Ġvari ados
A z
ĠEx press
ĠIb Ã©rica
Î ½
Ġpass eio
ĠNov as
Ġvolt ando
Ġprotagon istas
Ġdiss emin
Ġacrescent ou
Ġcos m
b an
Ġs c
ĠV ai
ab ama
Ġserv em
Ġobrig aÃ§Ã£o
et ria
Ġcont inha
Ġpl ural
Ġev ac
Ġsab em
Ġcoloc adas
Ġsepara das
H ot
al u
en cont
Ġpromov eu
Ġtan ques
Ġeduca cional
Ġpol onÃªs
ĠPor que
ĠNov os
Ġprop Ãµe
Ġren Ãºncia
Ġsignific ativas
Ġg ame
Ġcar o
ari us
Ġmedalh ista
ĠJÃº piter
C aval
F ede
al us
ĠS car
Ġg ato
19 37
etro it
yl an
Ġcaptura do
Ġprest ÃŃgio
ĠS ign
Ġ18 76
Ġfam osas
Ġrepresent aÃ§Ãµes
ĠReg ina
Ġsil Ãªncio
v et
v amos
ĠP rado
ĠM arac
ĠJ azz
ev es
Ġext ensa
ÃŃn cipes
ĠCam inho
Ã¢m icos
ĠTem er
ĠFrank furt
Ġprest ig
M c
M apa
Ġm ÃŃdias
um ÃŃnio
Ġelev ando
Ġdecor rÃªncia
Ġbomb as
at ia
Ġb elo
Ġenvolv idas
Govern adores
z ia
or r
ul amento
ĠG ul
Ġdia b
Ġviz inha
ĠÃĤ ng
O este
u y
of il
Ġanim ados
Ġinic iando
ĠST F
Ġidos os
Ġj uvenil
ĠH ug
if ique
Ġass oc
ott i
Don ald
am or
Ġpre viamente
AT O
ĠHer z
Ġdispon ibilidade
Ã¡x ias
ĠStad ium
Ġque ix
ta pa
Ġam az
Ġpossu indo
Ġnam orado
Ġving anÃ§a
Ġn Ãºcleos
se udo
19 35
rit ic
Ġtent am
Ġjust ific
Ġsin Ã´nimo
Ġbilh eteria
Ġcons elhos
Ġmen inos
Ġvolunt Ã¡rios
ĠI an
19 47
ĠCh i
s ung
Ġ18 48
Ġpou so
Ġenvel hec
T im
ad Ã©l
en ix
ĠC AR
Ġmor ta
S ÃŃtio
o is
Ä «
Ġdos e
ĠU b
Ġim pre
Ġim Ã³veis
Ġsocial ista
arg ento
ĠMont enegro
ĠWh at
Ġesc re
Ġacompanh ada
L P
ĠW ant
Ġpar ques
Ġvi ram
ment aÃ§Ã£o
ĠArm Ãªnia
ĠIsa ac
n ow
Ã Ĥ
Ġde i
Ġs k
ÃŃt ima
Ġpag a
Pint ores
W ik
b ie
al ena
ĠI z
Ġ16 0
ĠfenÃ´m enos
ĠeconÃ³m ica
ĠThom pson
Ġe coss
Ġform ados
Ġpol ar
Ġimp rovis
Ġdeter mina
ĠInf ante
Ġsuf icientes
Ġnaz ista
ara nt
ando m
Ġ18 73
IN A
Ġbeb ida
b s
ĠT ennessee
Ġass alto
ĠRepublic ano
ĠV itor
Est rutura
Ġadicion ar
ĠSum mer
Ġatras o
ĠD icionÃ¡rio
ĠO documento
Ã³r icas
Ġvide o
ĠD ivers
ĠG av
Ġ9 1
Ġma ci
Ġmed ir
ĠBar ry
Con v
Ġcontro lo
Ġdesign ar
Ġlo te
Ġestrang eiras
Ġgr Ã£os
or de
Ġ18 72
Ġdel im
Il ha
ĠB aker
Ġimp actos
Ġfl utu
Ent Ã£o
Ġdesenc ade
ras se
rit al
Ã¡t il
ĠPol o
Ãºr gica
d le
Ġdiv ide
ib i
uc ho
Ġleg itim
ĠMag ic
Ġluc rativos
Ġmob iliz
x as
Ġde partamentos
al he
un i
Ġh ino
Ġcont agem
Ġpredomin antemente
Ġrefug iados
Ġal l
if y
V ir
ra lia
Ġo mb
Ġg rit
ĠL iverpool
ĠPM DB
j ara
ĠB urg
Ġmin eraÃ§Ã£o
Ġutiliz ou
c ura
ĠR otten
Ġcomport amentos
ĠF ame
ĠLÃº cia
in amente
Ã¡ us
Ġg ent
ĠF ield
Ġmov er
Ġ186 1
Ġco ver
ĠEsp eranÃ§a
ĠCin co
ĠLeop old
ĠMar ta
adr Ãµes
ĠRa in
Ġurb anas
Ġafric ana
Prin c
ĠmÃ³d ulo
O T
Ġinclu ÃŃam
Ġrefer ente
Ġdecid ido
ĠDou ro
Ad minist
ĠM ada
ĠD ubl
Ġesc rev
Com posiÃ§Ã£o
Ġcat iv
ĠSet Ãºbal
Ġcaptura r
N esse
ĠS ert
Ġin espera
ĠH em
ĠEm my
ĠEx teriores
dom ÃŃnio
ad uras
ĠK i
Ġcl ique
Ġmet ro
qu in
if olia
Ġdev emos
ÃŃg ena
Ġdestru ÃŃda
Ġsovi Ã©ticos
ĠSal es
ĠAut om
Ġinfl aÃ§Ã£o
ĠBapt ista
ĠR EC
Ġdever Ã£o
ĠCamp anha
1 10
or ganizaÃ§Ã£o
Ġport os
Est es
Ġsom bra
ĠmÃºltip los
z io
ĠM oz
Ġfech amento
Ġexpand ir
eij Ã£o
V P
ĠP int
Ġen ga
ĠMa uro
Ġprodut ividade
Ġperform ances
ĠS yl
Ġre inos
19 42
ral h
Ġma Ã§
Ġocor rendo
Ġaband ono
ĠGuan abara
ter o
Ġdest inados
Ġsa indo
Ġocup ando
ĠMc K
Ġmundial mente
Ġdemonst raÃ§Ã£o
ĠLar go
ĠdomÃ©st ica
ĠP Ã©
Ġal ong
Ġapar eceram
Ġtro car
ĠConv ento
ĠI D
Ġesc onder
ĠHill s
G lob
M ens
Ġt on
Ġmet as
Ġobt enÃ§Ã£o
ĠCel so
Ġtransp ortes
Ġmotor ista
ĠTim or
Ġeditor ial
ĠG ay
se qÃ¼
ĠJ air
ĠDoc ument
Ġt es
ĠF arm
Jos eph
Pra ia
adÃ©l fia
Ġco ragem
ĠB ara
Ġres um
Ġag rem
Ġcer Ã¢mica
Ġdisse ram
T ags
b ase
Ġs ÃŃtios
Ġf um
Ġam ador
ena ult
Ġacess ÃŃvel
Ġcens ura
Ġgord ura
Ġ ×
art ar
rop ec
mar Ã©s
ande bol
Ġhot Ã©is
N orm
ĠP eix
ul adas
ĠMal ta
ĠcÃ¢m eras
unn ing
Pesqu isar
o ia
ĠCh eck
ĠAb d
Ġla Ã§os
ament ar
Ġassass ino
Ġatac ou
Ġjuris diÃ§Ã£o
ĠC az
Ã©l ico
ĠMan s
Ġcomunic ado
Fund aÃ§Ã£o
Ġcom arca
Ġesp ess
iss ip
Ġrec ta
ĠVal ley
Ġtiv essem
Ġancest ral
Ġb ail
Ġesp ir
Est aÃ§Ãµes
Ġide ologia
Ġmultip lic
ĠastrÃ´n omo
Ġpro ject
19 20
ĠPart y
Ġprat os
Ãºp ula
Ġno ites
19 33
Ġcin za
stitu iÃ§Ãµes
yn n
Ġestabelec idas
D ez
Ġexist iam
Ġcaus ados
Fa una
Ġliteral mente
C el
J er
Ġat itudes
Ġprot ocolo
Ġaut ob
olog icamente
Ġinclu ÃŃdos
Ġconf ort
Esp anha
Ġafric anos
Govern o
Ġvisu alizaÃ§Ãµes
Ġbrev emente
ing le
ĠK ub
Ġdiv or
Ġestre ita
Ġi ran
ĠArqu idiocese
ĠLeop oldo
s im
ri en
ĠL eb
Ġcob erta
ĠH ers
itar es
ĠGu ar
ĠTer es
Ġsatisf aÃ§Ã£o
Ġalgorit mo
H E
s in
Ġg rÃ£o
ĠF ogo
ĠPal estina
Ġamar ela
Ãºt bol
Ġt a
ĠM esqu
ĠR ural
Ġ10 4
Ġfal am
Ġcolet Ã¢nea
Ġtera pia
ĠLt d
Ġacons elh
aij Ã£o
u ff
eg ra
Ġcomp Ã´s
Ġparticip ante
Ġcaval eiro
Ġrelev Ã¢ncia
ĠGri ff
Ġhidrog Ãªnio
ĠAl ess
Ġpad ro
Ġrespira t
F el
p ublic
Ġ2 30
19 43
Ġfavor ito
Ġlent amente
un Ã¢nime
ram e
Et imologia
ĠParticip ou
Ã§ ais
at on
ĠB enn
Ġpr orro
Ġ9 00
Ġtransm issÃµes
de f
ot hy
ĠAr que
Ġdetermin ou
Ġforn ecimento
id ando
Ġac hou
per ou
reg on
ĠTe ologia
Ġexper imentos
ĠDis ponÃŃvel
ĠGab inete
Ġbot Ã£o
M ost
Ġdesenvolv endo
Ġmag ia
Ġ186 3
ĠTel evisÃ£o
Ġdefens ores
Ġgratu ita
P elo
Ġf us
it ante
ĠE arth
ĠV iva
Ġsuje itos
ato es
Ġpol ÃŃf
Ġcer veja
Ġrap az
Ġpreocup aÃ§Ãµes
igh ter
ĠHud son
U t
ch al
Ġdesempenh ou
ĠaustrÃŃ aco
m ad
ern e
Ã¡b ado
Ġferro via
Ġarran jo
end idas
ĠCan ad
Ġvot ar
Ġsangu ÃŃn
s ou
Ã¡ lbum
ĠP RE
ĠL ow
Ġcor redor
Ġalg odÃ£o
ĠBo eing
ĠPl ata
Ġdetermin adas
cam peonato
ĠJur ÃŃd
Ġpisc ina
Ġcont Ãªm
Ġperceb eu
ĠCaval eiros
ĠvÃ¡l ida
Ġfarmac Ãªut
Ġp end
Ġn ono
ĠD entro
Ġan siedade
rut a
Ġace ito
Ġnerv oso
Ġcob ranÃ§a
Ġajud Ã¡
Ġpromo cional
Ġescrav idÃ£o
c us
ĠP rix
ĠL ingu
ĠH avaÃŃ
des de
Ġsepara da
Gal Ã¡xias
Ġas a
ras h
Ġcaracter iza
Ġtribun ais
ant ismo
19 24
Ġma us
ĠMin d
Ġprom essa
ĠavanÃ§ os
Ġfort una
ac ritic
19 44
Ġ14 0
tor s
ĠAc acia
ĠSal om
Ġinc identes
t ivos
Ġenc aix
De us
Ġjunt as
Ġsubst ant
Ġacess ar
Ġcoorden ador
ĠC C
ĠP essoas
Ġat rib
ĠRe form
Ġinteg rada
ĠsuÃŃ Ã§o
Ġt ia
Ġcaracter izado
Ġreflet e
S port
f ul
Ġ ).
Ġloc omot
ĠOr d
Ġconcor da
Ġcast elh
Ġencom end
ĠLÃŃb ano
B ern
Ġbloqu eio
M er
ĠO ber
gu i
issa u
Ġextraord inÃ¡rio
Ġp Ã³l
id u
Ġh Ã³quei
ass in
Ġprop riamente
Ġmelho ra
ĠpolÃŃf agos
ĠM ud
Ġl endo
vo a
ĠN ad
vel and
Ġcant a
Ġarm ada
in amento
ÃŃ cl
ĠT od
Ġra ro
Ġtransfer ida
Ġconven cional
Ġagreg ado
M ay
Ġesp aciais
Ġver so
Ġcost ume
y right
Ã´n ima
ĠdÃŃ vidas
S M
Ġ- -
ĠCont as
Ġpat rimÃ³nio
ĠMcC art
M att
Ġde vol
Ġf ixo
ĠC ac
ens en
Ġsal vo
ĠPal e
ĠgrÃ¡f ica
ĠSantar Ã©m
E les
ĠB attle
ĠPres biter
Ġexecut ivos
Ġefet ivo
Ġintroduz ida
ĠRon ald
Ġcomercia ntes
ĠAth let
ĠAlente jo
Ġde usa
Ã© sp
oc he
ĠH id
ĠCh er
Ġprecis ar
Ãºrb io
L C
X T
Ġs am
ch y
Ġempres arial
Ġdesign ada
Ġdivid idas
Ġimedia ta
Ġl iqu
Ġrevel aÃ§Ã£o
ĠArqu ivo
ĠhÃ¡b ito
Ġhierar quia
qu ias
ĠN FL
19 34
Mar k
ĠArm ando
Ġpian ista
r g
it ariamente
ri entes
ĠBalt imore
O u
Ġen orm
ĠCar deal
Ġatual idade
Ġindic ados
Ġcel ulares
Ġorg Ã¢nica
in idade
ĠP P
ĠRog Ã©rio
Equ ip
ĠInfant il
Ġem issÃµes
ĠF Ãºtbol
Ġmat ric
Ġcul inÃ¡ria
ĠMel bourne
Ġextrem idade
ĠBlo od
Ġvitam ina
at ado
ĠN ord
Ġpar ou
erra do
ĠBo x
blog spot
Ġtrag Ã©dia
6 00
ro po
ov os
ĠQu eiro
Ġ186 2
Ġd ona
ec ted
ĠL agos
cion a
Ġus e
Ġcap ita
Can ais
Ġdesm emb
Chec k
Ï ģ
lic k
t ir
Ġcheg ado
At letas
Ãºn el
Ġrem over
Ġexig Ãªncias
Ġsens ibilidade
ĠIndepend ente
ĠHero ÃŃsmo
Ġtotal idade
Ġbi ologia
Ã¡ lez
ĠS ingles
Ġfo nt
uc ar
ĠComp et
ĠSupre ma
Ã³x ido
T abela
es pect
Ġre cip
Ġl am
Ġpal e
Ġado tada
Ġrelacion amentos
ioc es
ĠavanÃ§ ar
Ġfug iu
ĠBus iness
B ig
ĠD ifer
Ġreg resso
ĠArt ur
ĠbritÃ¢n icas
ra nt
ĠEd gar
ĠintÃ©rpre te
D Ã©cada
Ġb ale
ĠGu iana
Ġ15 00
Ġposta gem
ĠÃ¡rb itro
L ive
v ir
Ġ Ã³dio
Ġsab emos
Ġperman ecem
Ġorqu est
j ogador
at erais
ĠN ames
H ip
Ġt Ãºmulo
ĠW es
Ġjog ado
ÃŃm etro
Ġprev ent
Ind ividual
Ġacol h
Ġingred ientes
G B
an go
ĠAd riano
ĠTom atoes
ĠMet acritic
Ġriv ais
S Ã©rie
at is
Ġant agon
Ġarm ado
log en
ĠS hopping
et ic
Ġenvolv em
Ġcontrat ou
ĠT rev
Ġnorm ais
Ġproemin ente
h ado
Ġf ique
ĠN ada
Al f
ĠEuropa ea
Ġreel eiÃ§Ã£o
Ġs oviÃ©tica
Ġdia m
uc ano
ĠEv ans
Ġexpress ar
Ġd ita
Ġa ren
ĠC ia
ĠI ron
te e
Ġba ÃŃa
Å Ľ
ros c
Ġreg ente
ĠG ian
Ġ18 30
Art istas
p zig
at aÃ§Ã£o
ĠH il
Ġcres ce
Ġacont ecendo
Ġplanej ado
Ġgar raf
Poss ui
ros o
Ġdesenvolv eram
Ġampl iar
Ġdep Ã³sito
Ġteor ema
Ġensin amentos
and re
Ġtot alizando
Ġmot oc
O ff
pt os
15 0
Ġsab endo
ung en
gra ph
rÃª a
B ob
M ax
cons in
Ġpad res
B om
m ata
Ġf atal
ĠS oftware
ores c
Ġqual idades
lu z
ulg ar
Ġorganiz ados
Ġ186 9
Ġcruz amento
ĠJon athan
ta h
ĠperiÃ³d ico
ĠV ik
and ia
Ġam a
10 1
Ġprior idade
Ã©rs ias
ĠSt uttgart
Ġfra co
Public ada
Ġaustral iana
Orig em
atri ados
A ud
el op
ÃŃn o
ĠCat arinense
ĠGab ri
Ġharmon ia
F az
ĠV ÃŃdeo
Ġent ende
Ġ18 74
form aÃ§Ã£o
Ġcor redores
Ġtur co
K im
u alizado
Ġt ard
Ã¡ lt
ov ina
Ã©r g
Ġatac ado
ĠSor oc
â Ĥ¬
ĠSe a
ĠGeral mente
ĠHe avy
qu eiro
ĠS ER
ĠAss embl
Ġsur gem
Ġt Ã¡x
Ġtr ist
Ã³n icas
Ġinsp irou
m ac
et Ã¡ria
Ġpres as
Ġess Ãªncia
Ġdesign er
Ġbilh Ã£o
EI RO
is Ã©s
Ġtom aram
Ġpers a
ĠAfric ano
l ock
p ic
am ericanas
Ġass entos
Ġcl Ã£
Ġsurg ir
Ġsat is
ĠAz erb
A I
A V
G R
ĠN uma
19 18
Ġparticip am
Ġpossu ÃŃam
IS BN
Ġprat icar
Ġverm elhas
Ġb ag
Ġaleg ou
ĠA sp
Ġat ivamente
Ġvaria ntes
Ġlevant ar
ĠAer on
olom eu
M iguel
n orm
Ġsu ave
ur na
ern er
Re de
Ġast er
ĠArqu itetura
Ġfabrica ntes
ĠPhy s
Ġdesast re
C ine
r ÃŃveis
ĠCom andante
ĠCh amb
Ġneg ativas
Ġcorrespon dem
Ġadquir ida
Ġre j
nc a
Ġar c
Ġdi Ã¡ria
Ġdez esseis
ĠpÃ¡t io
Ġe c
Ġcha pa
ĠEt i
ern al
Ġac Ã§Ã£o
ĠDe portivo
ĠSt ock
Ġpens ando
ĠLegisl ativo
Ġdorm ir
ĠCaf Ã©
) )
Ġpar Ã¢metros
ĠAss untos
Ġdefin itiva
Am Ã©rica
ĠMod el
Ġdep Ã³sitos
ĠBay er
c ultura
i eta
Ġn essas
ĠBol sa
Ġarque olÃ³gicos
Ġpres identes
Ġro cha
ĠGl Ã³ria
Ġfisc alizaÃ§Ã£o
Â §
Ġcom igo
ĠT ap
Ġtr iste
Ġadminist rado
ĠDem ocracia
ĠG om
po ra
ĠAlem Ã£
Ġcaracter izada
Ġrevel ar
Ġelet ricidade
ĠN BC
ĠGu ia
udo l
Ġpou p
Lou is
Å ¾
Ġf uzil
esa f
Ã¡s coa
Ġfot Ã³grafo
Ġsag rou
Minist ros
F icha
V ÃŃdeo
Ġd ren
re iÃ§Ã£o
um ba
Ġv inhos
ĠN y
Ġfal ecimento
ĠMis ericÃ³rdia
1 20
ĠT otal
Ġ10 5
ude us
Ġescolh idos
Loc alizaÃ§Ã£o
ĠfÃªme a
h el
Ð ´
Ġele ger
Ġdifer encial
erat ivo
ĠMora is
Ġcro mos
m ida
ĠC ort
ĠO z
ĠV ari
ion ista
Ġjude u
ĠStan ley
g al
ig amente
ag an
ens on
pl ica
Ġsem anal
Ġind en
Ġanim ado
ĠJa gu
an ie
ec eria
Ġrefer entes
Ġbar ro
ĠCaval c
On de
Ġtort ura
Ġentreg ou
A ct
M IN
ĠB ush
Ġdez oito
Ġbrin quedos
Ġs Ã©
em ias
Ġar cos
Ġinvest idores
ĠLy on
Ġcore ano
Ġfa una
D et
S Ã³
T ro
ĠMa omÃ©
Ġtransform ado
Ġfogu ete
B re
an Ã£
ĠS D
Ġind ire
Ġrefer em
Ġtax on
Ġvaz io
ĠBeat riz
c urso
Ġno iva
ĠT wo
Ġab orto
ĠCor rÃªa
ĠFranc esco
ovi Äĩ
Ġnovel as
Ġencarreg ado
ol icismo
et ive
Ġapren deu
ĠC H
Ġpro fer
ĠMetr Ã´
C ab
Ġsegu ros
Ġfaz endas
ende d
Ġcook ie
ĠEti Ã³pia
im en
ĠK an
ĠAss unÃ§Ã£o
Ġtur ÃŃsticos
Ġinstr umental
ĠChrist mas
e in
Ã¡ d
ĠRec ursos
ĠBlu es
ĠSerg io
S ociedade
Ġt ende
ĠT eles
Ġsu eca
ade qu
Mar co
G in
T unes
ĠH ub
Ġ18 59
Ġsobre nome
ĠAb erto
Ġdisput ados
Ġlat itude
Ġespera ndo
ĠSud Ã£o
Ġcom itÃª
ĠP atro
ĠM ist
Ġg ri
Jornal istas
Ġt ouch
Ġin und
og n
ĠAt las
ĠEd die
Ġrecor rente
Ġelog ios
ĠLud wig
S ou
ĠM embro
Ġmin i
ĠPs icologia
Ġperfe itamente
Ġt anta
Ġfaz end
uc ci
Ġvul ner
A qu
ĠJo el
Ġmud ando
Ġinc idÃªncia
Le on
ĠBas ÃŃlica
ĠUr sula
G ar
f un
Ġ12 5
ĠÃģ guas
ĠGonz Ã¡lez
Ġc it
ĠS lam
eg re
Ġpar to
ust os
Ġaut oc
Ġequip ado
osp el
Ġobrig aÃ§Ãµes
Ġrad icais
Ġfech ou
ĠS ay
ĠH orn
Ġant ic
gan g
aut as
Ġm ulta
ĠC ip
Ġcont est
ranc o
Ġtermin aram
Ġgal eria
ro xim
Ġb it
ido ra
eb el
our ce
ĠRes erva
Ġincorpo rada
N ocaute
T R
x i
pre nd
Ġparticip ado
Ġprojet ada
encia tura
ones as
L im
Ġc Ã³digos
Ġf atura
da gem
Ġdeix e
ĠCrist iano
Ġtransform ada
ĠOk lahoma
Ġdign idade
d oria
Ã¡ rea
Ġan fÃŃb
ĠMa ci
Ġvari ar
Part ido
core ano
ĠKn ight
an us
Ġesc ura
ĠY an
Ġlev ados
ĠSqu are
PaÃŃs es
R ib
ĠB Ã³s
ail y
ĠRen Ã¢nia
D ig
Ġap elo
rit e
anc ou
Ġapro fund
Ġcad eiras
idel idade
Ġt ua
Ġat ende
Ġfal ado
Ġatu am
Ġorganiz a
Ġdiscipl inas
Ë Ĳ
is chen
Ġj ura
ete or
ĠEvol ution
B est
ĠP ink
Ġh ÃŃb
Res umo
ĠCharl otte
ĠaÃ©re os
lt on
Ġcham ava
Ġpes ados
Ġestabel ecendo
Ġelabora do
ĠColl ection
ĠB eck
ĠH isp
Ġent ram
pos itor
ĠGa Ãºcho
seg unda
Ġespect ro
ĠD ura
ific ador
ĠsÃ³ cios
Te oria
Ġcriat ividade
P ortal
ri eg
ĠCin emat
Ġposit ivos
w ski
Ġp erna
Ġtel ecomunicaÃ§Ãµes
m ing
ĠS oph
Ġpl at
ver de
Ġfic ado
Ġtempo ral
clu ir
Ġm ito
Ġm anda
ĠGu itarra
Ġcred itado
C y
m ia
ĠR achel
ĠV ou
ion Ã¡rio
Ġ18 34
Ġexp atriados
Rec ordes
ĠSin dicato
Inform aÃ§Ãµes
Ġo us
amb ul
iss Ã¡rio
Ġren om
Ġsuspe ita
Ġd ores
ĠK rist
ĠHav ia
ad ing
co p
19 19
and ade
Ãªn ior
Ġmen Ã§Ã£o
ĠÃģ lbum
Ġsubst ancial
Ġmig raÃ§Ã£o
Ġde dos
ĠD iana
Ġeleito rais
âĢĻ ,
Ġcaval eiros
Ġpatroc ÃŃnio
r Ã³i
Ġc ita
Ġt uf
ĠR eno
ĠEm an
Ġr ub
Ġid Ã©ia
Ġinstitu cional
Ġtri go
Ġdepend ente
ĠPS DB
ancel er
graf ias
Ġfal sa
De f
Ġexpl od
Ġnacional idade
Ġbl ind
ĠAzerb aijÃ£o
Ġs antos
Ġn Ã©
Ġse Ã§Ãµes
ĠSte vens
Ġtera p
Ġter Ã§o
Ġentre gues
Ġtur ÃŃstico
ĠCal das
Ġident ificados
Ġviol ino
Ġcert ificaÃ§Ã£o
ĠavanÃ§ ado
ĠLar ry
Ġbic am
ĠParam ount
Ġdo aÃ§Ãµes
ĠC i
Ġh ep
ĠSe attle
Ġasseg ura
Ġsig la
Ġ Ø
ro ugh
Ġinform a
Ġperman Ãªncia
Ġdese jos
A ra
ec ht
ĠAb el
ĠBro thers
And rÃ©
o te
w ei
Ġf ios
Ġf isi
gu ei
Nas ceu
Ġdiscrim inaÃ§Ã£o
v ios
ĠAl abama
ĠNos so
US A
i rando
in ares
ĠP ul
Ġno tar
Ġtel espect
Ġlat ina
ĠGra ham
Ġrefor Ã§o
ĠSing apura
eb ras
Ġdirig entes
Ġrespect ivas
Ġelimin atÃ³rias
A viÃµes
Ġde col
ĠS itu
ĠE c
ient emente
Ant igas
Ġpresid enciais
Ġadicion ado
F oram
Ġfal s
ÃŃ aco
ĠP ier
og ado
ed ente
ĠV ing
Ġgin Ã¡stica
Ġ18 55
Ġass embleia
Ġcol aborou
Ġtel as
Of iciais
H ow
ĠG rim
ĠJ ob
ĠAm aro
Ġaqu Ã¡tico
Ġcob erto
Ã¤ r
Ġtempest ades
Tr Ãªs
ĠP ut
ĠPro gram
Ġpertenc em
CO M
Ð¸ Ñ
Ġcriminos os
ĠK ol
ĠCamp bell
Ġsofre ram
A ugu
Ġres idente
Ġresta bel
ĠRevol ucion
Ġfranc o
ĠEncont ro
ĠN ep
amb o
Ġar gentina
ĠGu ara
Ġquad rado
ĠRo que
ĠMa u
C Ã¢mara
ĠB ird
ĠT ropical
Ġver bo
ĠCont a
Ġnat aÃ§Ã£o
Ġconserv ador
Ġf ur
Ġv endo
co pe
ĠCar m
Ġed ificado
Ġestre ito
Ġsent idos
Ġinflu entes
Ġflores tal
Ġfig ur
Ġabsol uto
cob erta
Ġincap az
Ġt ij
ĠA leg
ĠF ria
Ġsobre n
old s
en go
ram ar
Ġpo ntes
jet ivo
Com un
eir istas
Ġge ometria
Ġacompanh ou
Ġvide og
ĠPrin ce
ĠPeix oto
ĠMesqu ita
M Ã©d
Ġesta cionamento
Ġ' '
Ġtrat amentos
Ġcadas t
ĠHein rich
ip p
19 22
ĠX uxa
Ġcur tos
Am erican
Ġinflu ente
ĠMem Ã³ria
Ġvac ina
ĠBad en
Ġfib ras
st rong
ric ia
Ġgovern antes
ici ado
ĠNa cionais
Ġsobreviv eu
Ã ²
in ia
ĠA me
ĠM C
ĠT ij
ĠN oroeste
Ġvol ante
Ġconv iv
wit ch
Rec ebeu
Ġconsecut ivas
Ġabsor Ã§Ã£o
ĠDall as
C ron
O t
ĠE ag
ĠF low
enh os
ĠJo y
Ġreceb idos
ĠMat er
ĠPra ga
Ġinstal ar
Ġrepublic ano
Ġbizant inos
Ġremanesc entes
S k
Ã© cio
op ol
Ġpad ron
Ġded ica
ĠWik ip
Ġs enhora
ĠS N
Ġg rama
Ġaf inal
Ġespet Ã¡culos
J A
ĠÃ©p ocas
ĠSh el
ĠPre ta
Ġpot Ãªncias
Ad v
Ol Ã¡
ĠD yn
cion adas
ĠSeg a
ĠMag no
unid enses
ĠFight ing
ĠD eix
and os
ÃŃn ica
13 0
à ¥
ĠM ong
Ġal ugu
Ġgovern amental
Ġhou v
ĠPass os
B and
um ont
ĠD etroit
ĠK as
w orld
in ista
Ġch ocolate
Ġ17 58
Ġdeix am
Ġtom ado
ĠBarb ara
Ġagrad Ã¡vel
ĠE C
ĠJ og
Ġlut ando
ĠGran ada
ĠHan na
Ġplay offs
ĠMargar et
j ados
ĠB iel
Ġest arem
Ġar ranc
l at
in ja
re o
Ġinv ent
Ġneg ativos
val do
ĠEspec iais
ra z
19 28
Ġ18 54
Ġequ iv
IT U
ars Ã³via
Ġderrot ando
Ġmix agem
Ġof ertas
mit tee
Ġadvog ados
ĠSw ift
ĠdomÃ©st ico
Ġeconom ista
Ġlong itude
o ine
po d
Ġal umÃŃnio
Ġpol uiÃ§Ã£o
Ġlit ros
Ġrecept or
it Ã¡
ĠR uth
ĠPol y
Ġdem as
Ã³qu ias
Ġpse udo
à ¦
Ġs orteio
Ġco uro
ilh aria
ĠJo an
Ġdiv Ã³rcio
ĠPara ÃŃso
ĠLiv ros
ĠAv eiro
U SP
W A
ĠA dem
ĠD ed
Ġal ter
emb erg
ach ment
Des c
ĠAf rica
Ġsert ane
mid t
k ar
ĠR un
Ġ18 58
Ġconsidera velmente
Le pidÃ³pteros
Ġconspira Ã§Ã£o
cor re
Ġinst ant
Ġfut uras
its u
g ols
m u
ĠA pos
Ġag end
ĠSe ul
Ġdefin iu
Ġ186 6
Ġpost s
land eses
Ġcorrespond Ãªncia
on os
Ġconsidera va
n ell
Ġs l
ia z
ĠO ur
Ġus os
elig Ãªncia
Ġesport ivas
Ġconsecut ivos
ĠFantas y
G old
d an
á ¹
Ġac ertou
Ġregist rar
Ġvig ilÃ¢ncia
ĠJeff erson
Ð¾Ð ²
ĠpÃªnalt is
ĠH at
Ġan da
Ġdis far
ĠGu ide
los s
ĠIs lÃ¢ndia
Ġpag amentos
Rom anos
ĠÃ¡t omos
C er
r ero
ĠF icou
ard os
ect ic
ĠMed eiros
Ġobt ida
Ġperd ida
Ġefet iva
ut il
Ġar rast
ult Ã£o
Ġdefin idas
Cap ela
Ġfisc ais
Ġcabe Ã§as
S ex
n s
Ġ uru
Ġl inda
Ġesc ultor
ĠIn dust
Ed iÃ§Ã£o
Rob erto
ĠTorn ou
ograph ic
Ġescultura s
Compet iÃ§Ãµes
Ġman chas
Ġsom b
Ġsec reta
Se us
ĠOt omano
rud Ãªncia
ĠmÃ¡r more
ĠS as
ĠS ena
ul sÃ£o
ĠK urt
Ġequ aÃ§Ãµes
Ġru g
Ġvari adas
Ġexcel Ãªncia
ĠF our
Ġset s
ĠHer bert
Ġtub o
Ġimpul so
S up
w ik
Ġcon duÃ§Ã£o
ĠH im
ĠEst ratÃ©g
let t
ĠLeg end
V ale
ĠC ine
ĠF le
Ġat l
Ġor Ã§
uc al
el sea
Ġvo ivodia
ĠPS D
L uiz
Ä ħ
ĠE ur
ĠG N
Ġro ch
ĠFranc a
Ġsec reto
G N
g ie
ci e
ed idas
Ġal arg
ĠU nc
19 26
Ġrec icl
umb er
ĠBr un
ĠConstitu inte
Super copa
ĠTerc eiro
Ġdes vio
ĠAnt io
Ġapo i
Ġtransform ando
ĠAugu sta
Mart in
Ġcromos s
r inos
x ia
ic ho
ĠP erc
Ġb riga
Ġjunt aram
Ex cluir
ĠA ge
Ã©re z
Ġde volv
un de
Ġl ento
Ġb uroc
ĠK ill
Ġremo nta
ĠI grejas
ĠÃ Ĺ
ck er
Ġparc ela
Ġfra ca
Ġcot idiano
ĠBrux elas
ĠQueb ec
C andid
e os
Ġad iante
G il
H on
ĠK ur
ĠDe an
ĠFil adÃ©lfia
Ġpermit ia
Ġrod adas
Ġcontrol ada
el Ã£o
ĠS EN
ĠEm ira
ĠLe andro
ĠLu ft
Ġs mart
Ġs indical
ĠF itz
ĠAust ralia
Cont inu
ĠQueiro z
ĠC ase
ara r
Ġnov idade
Ãºn cias
Ġa u
Ġm ÃŃsseis
am oto
ĠD ion
Ġal co
19 29
Ġext raÃ§Ã£o
Ġvo ar
Cas o
Ġacess Ã³rios
F ot
R on
R og
it em
Ġmo to
Ġprofund as
Ġsp in
qu ÃŃmica
Ġf ebre
rÃ¡ ul
ĠPro m
Ġjud iciais
n ico
ĠN unca
ĠPre v
ĠAur Ã©lio
w eight
Ġpre venir
Ġganh os
ĠGo ul
Ġinteress ado
ĠOn de
ĠMerc edes
Ġmest res
ĠA ff
Ġl us
ess enta
Ġcompl icaÃ§Ãµes
imin atÃ³rias
L og
ĠF oz
end i
ĠSt uart
An Ã¡lise
ĠMont es
Ġband eiras
ĠprejuÃŃ zo
B em
Ġc itados
ia bÃ¡
ci oc
end iam
Ġconst a
Ġcontinu amente
Ġang lo
Ġvil as
s Ã©rie
Ġ3 16
az a
Ġtras eira
c ica
Ġb ibliotecas
ĠO ak
Ġun ir
ĠEx iste
Ġval idade
Ġcur rÃŃculo
Ġlinha gem
Ġenvolv ida
Edu ardo
H L
J uan
ĠC lay
ĠL inda
19 14
Ġsof rendo
Ġdet Ã©m
Ġcole cion
Ġconcent ra
ĠHop kins
N enhum
ic z
icol or
Ġrum ores
Ġcol igaÃ§Ã£o
ĠThe od
Ġcandid ata
Ġher b
Po etas
Ġc aixas
ĠD ak
Ġdef endendo
Ġdefin itivo
ĠL ost
rÃŃ guez
Ġregul amento
Dist rito
Ġhard ware
Ġantecess or
V an
ou gh
Ġun e
ĠMad alena
Ġcapac idades
Ġsim p
Ġempre endimento
Ġlegisl ativas
ĠGas par
R odo
n ing
Ġco unt
ic iano
ĠTen ente
Ġf este
Ġan ot
rit z
ĠThe ory
J ogo
Ġpro jeÃ§Ã£o
ok u
Ġroman as
Ġdivid ir
ĠCov id
p ent
ĠT ake
Ġof icinas
Ġform aÃ§Ãµes
Ġcor retamente
Ġdesc rev
ris o
ĠÂ ©
Ġlidera dos
Ġderiv ada
Ġmort ais
Ġsinc ron
ĠBour bon
Ġ18 36
Ġcomb inado
Ġqueb rar
Ġdemit ido
B ul
ĠG ut
ĠÃ ĸ
und as
ĠĠĠĠ Ġ
quia gem
Ġbar reiras
anal to
n ica
Ġc ana
ĠI C
ilh eira
udo este
ĠHe ad
Ã¢nt icos
ĠquÃŃm icas
ÅĤ aw
il eu
ĠP Ã¡
ĠL ak
pl er
Ġof ÃŃcio
ĠQue ens
ĠCrim e
Ġsen adores
Ġneut ral
ĠM O
ta c
ĠJ uno
Ġtril has
Ġmagn Ã©tico
Ġemo Ã§Ã£o
Ġrodo vias
Ġrevolucion Ã¡rio
Ġregress ou
a ust
Ġque ijo
ĠB att
19 31
ĠWar rior
Ġbenef ic
Ġanf itri
f atos
Ġna uf
orn ais
ich te
Ãº cha
ria l
ĠY a
Ġcapital ismo
ĠestratÃ©g ica
Aut or
Ġnuv em
Ġab rigo
ĠEm presas
Ġtro nco
Ġacom od
ĠLei pzig
ĠVirt ual
Ġg atos
ĠJud iciÃ¡rio
Ġv inda
ion a
ĠSoc cer
Ġevent ual
ĠsÃ³l ido
ĠWis consin
h ip
Ġdia nt
Ã³t icas
Di ret
on st
Ġus aram
Ġins ist
Ġintera Ã§Ãµes
7 00
ĠS cha
ĠB ien
Ġex posto
pl icaÃ§Ã£o
ĠIn dex
Ġdesta ques
ĠSuper liga
Ġmob ilidade
ĠColl ins
Ġco er
Ġm ex
ĠL ap
ĠW ii
ot ipo
Ġ18 00
Ġcons ole
Ġmora is
Ġproib ido
ĠArn old
Y o
Ġp uro
Ġdif usÃ£o
Ġrit ual
ĠPresbiter iana
Ġper io
ĠCh an
Est ado
Ã©cn ica
Ġatmos f
c amp
ul i
Ġb in
Ġtra iler
Ġsin dic
ĠP ix
ĠAl ma
ĠCle veland
os pe
ĠC ay
Ġsou be
b in
Ġl aborat
ĠN ab
ve j
Ġcor da
ĠCar men
Ġexecut ada
ĠHumb erto
Ġm entais
us as
ĠsÃ³ dio
ĠTh iago
Ġrela x
Ex emplos
ĠPas so
Ġco ral
Ġm issa
Ġal vos
bo ard
Ġact ividades
Ġabr indo
Doc umento
Ġcoinc id
Ġopera dor
ĠBel g
Ġcomando u
ĠDay s
Ġincom um
ĠSax e
soc os
h ara
ert aÃ§Ã£o
Ġlig ar
Ġreconhec idos
Ġestat ÃŃstica
cer ca
t u
Ø ±
ĠG iro
Ġar ra
Ġexecut iva
gra phy
ĠStud ies
Ġconform idade
ĠF ul
ĠTe or
ien ne
Ġvenez uel
N ob
Ġc itadas
ĠB ak
if as
19 16
ĠCom eÃ§ou
Ġres c
Ġch ar
AN D
Il has
Ġm Ã£es
ĠA vis
ĠAr ro
ond uras
Ġorient ais
Ġproven iente
hag us
m undo
ce de
endo u
Ġenfrent a
Ġtrib uto
Ġluc ros
Ġpac otes
ĠanfÃŃb io
w ares
ĠA ux
ĠN Ãºcleo
ĠEm ma
Ġopera do
Ġdirec tor
Ġautora is
Ġmilit antes
ĠMar inho
ron a
Ġinclu ÃŃdas
Ġcontrol ado
Gra duaÃ§Ã£o
Ġfo z
ĠRe un
Com entÃ¡rios
Ġdoc ente
Ġi Tunes
ĠGar y
Ġorg ulho
c ial
al ismo
Ã³ ia
osta gem
Le itura
Ġvend endo
Ġpais agens
ĠMur phy
ĠdomÃ©st icos
Ess es
ĠCÃ¢nd ido
in ville
ĠR av
ĠL ava
Ġcol her
Ġsepara r
Ġlegisl ativo
Ġouv iu
Ġproporcion ar
ĠT inha
ĠCon stru
ga e
tor e
ĠFranc Ãªs
af fe
Ġle Ã£o
Ġsof rido
Ġsequ est
ĠSy m
t em
Ġqu Ã¢ntica
at Ã¡rio
Ġg arg
ĠK han
Ġfal so
Ġrelat ivo
Ġmand ar
Ġmult i
ĠHa iti
Ġlingu ÃŃstica
L as
L ink
Ġcont acto
ĠK iss
Ġdec ad
Ġlib era
ÃŃg enas
ĠPetro bras
Ġagric ultores
an cia
on ÃŃm
ĠS ustent
ĠT I
Ġac idental
Ġsa ÃŃram
ĠcardÃŃ aca
Ġhistor icamente
ĠG T
Ġvenc eram
;" ><
ĠpÃ´ r
ĠI F
r idades
ĠL ig
itu Ã¢nia
Ġaz uis
ĠOrig inalmente
ĠCount ry
l ight
s ize
ĠD S
Ġjust o
aut or
Ġpec ado
Ġdeleg ado
ĠC Ã©u
ĠP enn
ĠD od
Ġhom e
b ur
y u
ĠJ unto
19 27
19 32
Ġab sur
ĠAm igos
ĠY u
ĠSe is
Ġquad ra
Ġquart el
Ġdisp ers
ĠPrincip al
ĠDeut sch
n ar
t ais
Ġo vo
Ġsu ic
ĠPa iva
ĠmÃºs culos
ĠHer m
t eca
qu em
ac ha
ĠGra ce
Ant onio
Ġengenh eiros
ĠUR SS
p ho
Ġs ang
ia to
Ã§ ando
Ġespecial izados
Gen eral
ĠD ES
Ġdest inos
Ġra ras
Ġfal Ãªncia
Ġev itando
Ġtec lados
ĠRod rÃŃguez
ĠMiss issip
ĠLibert aÃ§Ã£o
Ġsoz inha
D ie
ĠM issÃ£o
ov ich
Ġpl as
Ã¢m bio
Ġir iam
Ġretorn ando
Ġconcor rer
Ġmass acre
Ġdesf rut
ĠVirgin ia
I ON
R oy
V e
Ġcon osco
Ġdiv ina
Ã¡g rafo
ĠBo ul
ĠFor ce
Ġvin dos
ĠPesqu isas
Ġmodern izaÃ§Ã£o
S us
b urn
Ġcir ÃŃlico
ash ion
ĠSax Ã´nia
ĠSalom Ã£o
T erra
id is
ĠN ort
ĠAm y
ĠCrist Ã£
Ġcha ves
Ġdiplom ata
ĠBrig ada
pro v
ater ial
Ġfot ograf
Ã³pter o
ĠKent ucky
D ubl
O c
re go
Ġt ram
Ġ( âĢľ
Ġtrav ess
Ġabsolut amente
r d
ĠT rent
ĠN ut
19 21
Ġtro f
Cons idera
ĠhipÃ³t eses
Ġfortal ecer
ĠInterna cionais
G rupos
ass i
ĠFl and
Ġvas os
ĠAdol f
Ġc ede
Ãªn eros
Ġcl and
Ġreceb ida
Ġsuper visÃ£o
Ġtab ul
ĠcÃ¡l cio
ĠmÃ¡s cara
P B
S oc
el ada
ant ha
ament aÃ§Ã£o
ish i
Ġtest ar
Ġrad ial
ĠUrb ano
ĠProduc tions
S ta
Ġa ze
ad eu
Ġmar gin
Ġcas ais
anc os
ĠWar ren
Du plas
ĠP Ã¡t
ut es
Ġconj unta
ĠNat ureza
Ġrac ial
Ġrealiz am
Ġcan s
Ġare na
e adores
ad Ã£o
ev id
Ġconden aÃ§Ã£o
ĠBrand Ã£o
ĠBea ut
RAS IL
Ġvog ais
E nd
I d
l ar
u ja
ĠL loyd
ĠJ ong
Pr Ã©mios
Ġdivulg ada
Ġbon ito
ela ide
Ġlib erado
ĠMen or
Ġabra Ã§o
l us
it alizaÃ§Ã£o
Ġconv idou
Se p
ĠFor bes
ĠSim ples
Ġin gressos
ĠL igaÃ§Ãµes
Ġmar rom
Ġesc ul
rig ado
Ob serv
erat ion
Ġcomunic ar
Ġ rif
at ur
iliz ado
Ġpal m
Ġpra Ã§as
Ġsof rem
ĠBat eria
Minist ro
Imp Ã©rio
D as
p g
Ġ !
ĠB ren
hec o
Ġvis ibilidade
Ġfemin inos
ĠEng ine
Ġsant uÃ¡rio
stad t
Check list
R ay
es ca
in en
ĠB orn
ĠK ids
ĠGu edes
Ġcort ar
Cons elho
Ġesm ag
I dade
Ġ å
Ġdo entes
ĠC it
ĠT ipo
Ġest resse
ch ester
Ġexecut ados
ĠLeg iÃ£o
Ġmemb rana
D eixe
t rans
ĠN ash
ĠCon forme
gan da
ell s
Ġdistribu ÃŃdas
Ġqueb rou
ĠFut sal
Ġestrang eira
ĠConserv aÃ§Ã£o
ĠFis cher
B atal
L ev
t am
Ġsono ras
Ġblu es
i ense
Ġs y
ĠB ach
ho f
ĠPar Ã³quia
Ġescol has
Res ultado
Ġesqu el
ĠDar win
s an
ado w
Ġpoder osos
Ã³t ipos
ĠLan gu
Ġmanusc ritos
Ġd ance
or ra
in dade
re e
Ġus avam
Ġaproxim ar
iqu etas
** **
ĠDomin icana
i Ã¡n
al te
st al
ĠL aboratÃ³rio
ora ima
Ġinteress antes
Ġperd idos
ĠI owa
Ġcria turas
Ġmac ho
New s
Ġferrovi Ã¡rias
Ġartic ulaÃ§Ã£o
T ema
Ġa te
ĠR O
ĠI M
Ġcar reiras
ĠMo isÃ©s
Un iÃ£o
ĠToda via
Ġseman ais
Ġcri adores
ĠPer formance
ĠSol id
ĠLor enzo
Ġhorizont al
ĠBerk eley
Fede raÃ§Ã£o
J on
us Ãµes
Ġperman entes
ĠÂ ·
Ġreconhec idas
Esp orte
Ġrit uais
Ġgas olina
W est
ĠM ega
ĠN an
Ġind i
ĠReg istro
ĠLeon ard
Ġmetab ol
1 16
M inha
Ġd um
Ġpar ecido
Ġ18 22
Ġaf eta
Ġcu ri
Ġparc erias
Ġmel odia
ancou ver
Ġs enhores
qu ando
ĠL inks
Ġatu aÃ§Ãµes
Ġgra de
ĠprÃ© via
ĠavanÃ§ ada
Ġsed iado
ĠSm ack
ĠpÃ¡ss aros
ĠH off
Ġestim ativa
ĠMor eno
Ġnar iz
Ġmer ece
iction ary
c et
ĠB abil
Ġsec Ã§Ã£o
Ġlig ando
Mod elos
Ġmotiv aÃ§Ã£o
Ġcomercia nte
k el
ĠOr der
ĠCal d
ĠH esse
ĠCl inton
Ass inar
J es
M AR
n us
Ð ¹
ĠA va
rim as
Ġ18 57
iss or
vi e
ĠBre ak
im on
res sa
ĠL ane
ud i
CA P
Ġluz es
Ġrecept ores
g ov
ĠT upi
Ġatrav essa
Ġsocial ismo
Ġmont ar
gar os
Ġdeb aixo
rel Ã³gio
ĠMaur ice
Ġapost as
Â ½
lo e
Ġconv encer
De fin
IV O
Ġderrot ados
Ġcoron avÃŃrus
ĠgrÃ¡ vida
ĠA us
icos e
Ġanim ada
ĠVia gem
ĠcÃ©le bre
re is
ĠP asc
ĠL anc
iss os
ĠQu est
Ġsuc edida
Ġrelat ivos
Ġestim ativas
ĠItal iano
ĠCheck list
Ġespess ura
Ġt ensÃµes
ĠO regon
gu st
ran e
Ġenf im
Ġdesemp ate
ĠMarc us
ĠPL S
L ic
Ġf ina
ĠB ronze
Ġin er
ito ras
19 25
our ces
Ġfin anÃ§as
land s
Am or
Pat rimÃ´nio
Ġinqu Ã©rito
Ġinteg ridade
Ġlingu agens
Ġincent ivo
Ġimpe de
in du
ĠR enault
ran Ã§as
Ġap osta
Ġcont atos
cl atura
ĠEsp ada
Ġnuv ens
T ipos
t ics
is ing
Ġinform ado
Prem iaÃ§Ã£o
Gr Ã£
ĠP rat
ĠL ug
ĠAss istÃªncia
ĠÃģ r
IA L
Ġatra iu
isf Ã©rio
Ġsecund Ã¡rias
Ġbe isebol
Ġsubsequ ente
ĠApo io
S ara
ac ta
Ġinst Ã¢ncia
Ġpun iÃ§Ã£o
QU E
Go ogle
Ġded icaÃ§Ã£o
ĠChip re
ĠAntio quia
Ġsem inÃ¡rio
ĠLe al
encial mente
Ġinic io
Ġesqu ecer
ĠTal vez
Ġdissol uÃ§Ã£o
g ate
Ġt inta
ing e
enc y
ĠZ ap
Ġexempl ar
Ġexib ir
ĠGal ax
Ġnaz istas
ĠA cordo
Ġdes porto
ĠV arsÃ³via
Ġ18 35
Ġcob rir
ĠPhil os
Ġdesapar ecimento
Ġtan que
Ġemancip aÃ§Ã£o
d ata
in ava
ĠD ÃŃ
undo u
Ġcol he
ex tos
ĠPl ace
25 0
orou gh
ĠJenn ifer
it ic
on n
ĠC res
ĠlanÃ§ ando
ok a
Ġpes ada
ĠEn erg
Ġopon ente
L in
L ut
c Ã§Ã£o
Ġd uro
ĠH app
pre t
ific amente
arc ado
Ġne o
Ġm Ã©rito
id imens
ĠN ice
ann er
Ã¡c ter
Ġgera do
ĠSac ramento
Ġcach orro
x x
er da
ĠF ontes
ĠJ in
Ġab at
ĠIS O
Ġcontribu i
Ġceleb rar
Ġconduz ir
È Ļ
Ġp in
ĠS istemas
ĠP ec
ch am
aliz Ã£o
ĠEs lov
Ġocor rida
las h
Ġbar Ã£o
Ġpromov ida
Ġelev ados
ĠAN OS
Mu itas
Ġc is
ÃŃ rem
se u
ĠCan ada
Ã³t eles
ĠRes oluÃ§Ã£o
ĠSab oia
Curt ir
d t
he z
Ġreg isto
ĠCan nes
ĠCont rol
ris h
ĠMinist ros
ĠPo is
ĠDev elop
Tur ismo
T AN
ic ano
Ġf iquei
ĠP ri
ĠF ighter
agem ent
b ul
Ġ2 23
ĠE L
ĠG ig
Ġcomemora r
Ġconex Ãµes
Pesqu isa
ĠRond Ã´nia
V ÃŃdeos
ĠM inho
ĠT R
Ġesp elho
ĠAr gent
Qu er
ĠCent re
Ġcontribu indo
ĠGre y
Ġ ðŁ
ĠM ang
iz aram
Ġdev idamente
Pal marÃ©s
G rand
ĠP Ã©rez
Ġnasc er
B u
Ġda tada
ĠW ard
Ġesc Ã¢ndalo
ĠLeg al
Ġoit avas
ĠLt da
ĠP Ã¡scoa
Ġsu bl
le e
if ÃŃcios
Ġman ob
ĠEl ias
Ġconc ursos
Con fl
ĠVis eu
Cole ophora
j in
ar um
Ġt ens
gu ard
ag ora
uc as
ĠReg atas
Ġconver ter
Ġfuncional idades
P an
al uz
Ġno ut
ĠF en
Or ganizaÃ§Ã£o
ipl om
Ġgratu itamente
ĠBrook lyn
Tec nologia
M uito
S he
ra cha
Ġb ut
ĠĠĠĠ ĠĠĠ
Ġlim itaÃ§Ãµes
Ġafast ado
S ur
t us
Ġv Ã©sp
oc acia
Ġ18 46
Ġcl Ã¡us
ĠEs colas
iqu em
Ġadapt ar
Ġtestemun has
Ġtrof Ã©u
t ic
Ġd adas
Ġdi Ã¡rias
Ġver b
Ġadminist rativos
AD OS
ĠEcon Ã´mica
rÃ³p ole
ĠAlas ca
i eri
iv istas
Ġne ur
ĠJul ia
Hen ry
Ġpecul iar
ĠR PG
az zo
Ġ18 42
Ġpot enciais
Ġaer oportos
Ric ardo
T axon
Ġra ra
Ġte Ã³rico
Ġconfirm aÃ§Ã£o
Ġjulg ado
ĠLoc aliza
ĠD aily
Ġin adequ
ĠL isa
ĠCh em
Ãªm icas
Ġencerra r
B ah
i ques
en Ã§o
ĠD ylan
Ġ4 10
ver d
ĠWall ace
Ġc itada
ĠS intra
Ġ18 51
Ġsub g
Ġinform ar
Ġmud ado
Ġrelat ivas
Ġapre cia
Ġfura cÃµes
Ġmetodo logia
ic ientemente
ĠS ra
Ġ18 52
Ġ10 2
ĠMic ro
Ġfront al
an Ãªs
ĠM arav
ĠIn oc
Ġgovern adores
ĠIm ag
G a
Ġh ol
Ġdesenvolv edores
Ġarm ados
Ġident ifica
Cas ou
ĠSen na
Ġc Ãºpula
Ġn estes
eg el
Ġh igien
ma in
Ġfal ada
Ġaux il
Ġmencion a
e ur
ĠS ut
at ores
ĠH as
Ġrom ena
Sub div
Fin alizaÃ§Ã£o
N E
at inga
ĠM our
Ġan Ã©is
Ġ18 56
osa urus
Ap ar
Ġforn eceu
Ġsens ÃŃvel
ĠLor ena
v ado
Ġ Ã³s
ĠR id
era Ã§Ãµes
ĠNa quele
Ġaco pl
ectic ut
Ġl uminos
pera dores
Ġbo xe
Ġcrit icado
ĠSac ro
ĠestÃ¡t uas
re Ã§Ã£o
ĠT elef
Ġfil iado
ĠSt alin
Ġcer e
Ġrem od
Ġm ape
ĠD im
man uel
ph ia
Ġrespon d
Ġfac uldades
ĠCons ult
c ell
ul ador
Ġcomp rado
Car deais
Ġafast ar
ĠBut ter
ĠEvang el
ĠRousse ff
ul us
ĠJ ama
Ġ24 0
Ġbol sas
Ġselecion adas
ĠFemin ina
ÃŃr culos
Ġsug estÃ£o
Ġcom edia
19 23
Ġcr Ã´nica
Ġsal do
hy s
ĠTur ner
ĠEdward s
ĠHard y
ĠR oth
ĠVer dade
ĠhÃºng aro
1 23
g ados
ĠW onder
ĠEm b
Ġcar Ã¡cter
Ġra cioc
Ġbar reira
ement s
Ent retanto
ĠMary land
Ġpeda Ã§os
Ġobst Ã¡culos
Ù Ĭ
ic y
Ġl inks
Ãº gio
Ġ" .
est ruturas
Ġsol ares
Ġprecis amos
ĠinÃ©d ito
Cu rios
p Ã©t
Ġd uma
ei ri
Ġcon ferÃªncias
Ġsu posto
Ġal v
ass er
Ġim pres
ĠMount ain
Ġestim ular
Ġprot Ã³tipo
Ġjog abilidade
Ġra iva
Ġbar ras
ĠMac edÃ´nia
ĠBas ket
Ġdinamar quÃªs
j adas
ei riz
Ġent er
Ġsal ient
ĠInf in
Ġreduz indo
Ġprovoc ar
Ġselv agem
ĠG ia
ĠG iuseppe
Ġper pet
Ġca ud
Ġconquist aram
Esp ecial
Ġhor ror
ĠMach ine
Ġnegoci ar
om ba
ĠK ings
ĠCor reio
Ġtermin ais
Ġquer emos
ĠBast os
d ica
ha il
Ã©d ias
Mar ie
Ġbomb arde
Ġsag rado
prim eiro
Ã¡ut ico
l ib
Ġn ona
ĠAb b
ure l
Ġcompet Ãªncias
Ġgost ar
ĠBarros o
Ġveloc idades
t ida
ĠB A
ĠJ ogador
to on
ĠK ay
Ġtra Ã§Ã£o
Ġinter ferÃªncia
ĠAlb Ã¢nia
ĠGra Ã§as
Ġexpand iu
Ġgosta va
ĠContempor Ã¢nea
L istas
Ġp Ã³dio
ĠE col
uro ra
Ġut ilidade
uven is
Ġrac ismo
L ÃŃnguas
N Ãºmero
ĠFo to
Ġresol v
ĠSom os
Ġsai ba
ĠPho enix
D VD
R oma
W C
Ġum idade
Ġâ ĪĴ
ĠOff ice
ĠL ex
Ġescol ares
ĠMo ta
Art es
Ġc itar
ĠC ow
ĠP t
ĠE f
Ġh eter
ĠTer ritÃ³rio
ĠEqu ipe
Ġempreg ada
Ma ur
ĠPac heco
Ġso cio
he us
ĠW he
ĠEl ite
Ġdescob riram
Ġrespons abilidades
or io
Ġm Ãºt
Ã§ osa
ĠS old
Ġ1 19
ul am
ĠAn jos
An os
Ch ris
ĠBry an
design ada
Ġpro g
olog ie
ĠcomeÃ§ ado
ĠemprÃ©st imos
19 17
ĠHunt er
ĠAga in
Ġdesempre go
Ġ io
Ġp ur
ad ra
Ġn ativas
ew s
Ã¨ ne
Ġexig ir
Ã©re o
Taxon omia
V in
do b
ĠL ot
Ġcic los
Ġemit ido
Ġterror istas
Ġeduca cionais
A h
Ġa onde
ent h
ĠF orest
Ãª vÃ£o
ĠN ever
ĠG E
Ġdes ap
ĠDe putado
ĠSant uÃ¡rio
duc tion
Ge org
Ġaposent ado
ĠinÃ©d itas
ĠorquÃŃde a
onÃŃm ia
J im
T y
ĠC anto
at izaÃ§Ã£o
ilh Ãµes
ĠEnt er
ĠPrim avera
ĠAtl antic
Ġsen Ã£o
pi ranga
Ġrebaix amento
Ġs essenta
Ġ18 45
Res postas
ĠStan ford
Ġmortal idade
ĠMatthe w
Ġenorm es
d if
ĠP inh
ĠP all
iv ista
Ġest ima
ĠV oc
Ġsab edoria
Ġclassific ar
Ġilust raÃ§Ãµes
Ġelet rom
Ġimpe achment
Ġpude ram
ĠC arac
ĠV Ã¡rias
19 11
und i
com panh
Ġdem andas
Ġestad unidenses
Ġconduz iu
j ud
ĠW ander
ĠY osh
Ġrefer indo
ĠCÃ³r do
T it
ĠE th
Ġat rap
emb ora
Ġinter ino
let ter
Ġorig inou
ĠPer d
Ġdeput ada
Ġrepro dut
Ġexpul sÃ£o
Ġsmart ph
Ġm eias
Ġf aÃ§
ent ino
Ġb est
Ġin ev
Ġconf ia
ĠAb out
Ġlidera r
Ġsustent abilidade
ĠMÃ©d ico
F ER
T am
Ð ¼
ĠT ric
ĠG O
pos a
ĠCh ev
Ġdout or
Ġdesapar eceu
Ġsubsequ entes
ĠGoul art
s ide
an esa
on go
ĠB irm
ĠW ork
ĠAc ess
uz z
Le e
Ã¤ n
Ġcomercial izaÃ§Ã£o
Ġaud io
Ġabund Ã¢ncia
Ġamist oso
Ġinv enÃ§Ã£o
In icialmente
ĠHol mes
ĠGen e
Ġot om
Ġcru el
Ġassassin atos
A qui
ĠP y
Ġsegu idos
ĠCop enha
IB GE
Ġm ista
Ġ18 53
Ġaut ent
Ġconf ess
Ġclass ificaÃ§Ãµes
ĠVan essa
ĠBÃ³s nia
Ġe rud
es el
ĠP ret
Ġre itor
Ġb ul
ĠT anz
Ġcont ing
Ġcl ero
lic h
alh as
ĠCons elh
AS T
ĠBlog ger
Ġjes uÃŃtas
im burgo
Ġcomp ete
Ġfic aria
Ġrev og
Ġrom p
Ġdiminu i
ĠPrinc eton
ĠCria nÃ§a
Ġembaix ada
Ġtouch down
Ġes bo
Ġdes ag
bl emas
ĠSp encer
ĠPl anejamento
uf a
Ġcirc und
Ġtelespect adores
ĠJ onas
ico t
Ġrep ass
Ġmant iveram
Ġmon o
Ġdeclara da
ĠNic ol
idal go
fri ed
T odo
el amente
Ã¢n cio
Ġprelim inar
g aÃ§Ã£o
v iv
ĠP DF
ĠL ub
Ġest ere
te am
Ġdivid iu
ĠÃįnd ias
Ġfornec edores
i ence
Ġt irou
ĠA to
ĠF eliz
ĠT ito
ĠK el
Ġencont rando
Ġdiv isa
Ġhebra ico
Ã ®
Ġp etro
Ġp ega
Ġ18 20
arg os
ĠFern Ã¡ndez
Pr Ã³
ĠDel ta
Ġresid encial
ĠAsi Ã¡tico
V iol
b il
Ġt elhado
ĠC oc
ĠO range
Ġencont ravam
Ġtur cos
ĠMÃ¡r cio
ĠAr ra
Ġbon ita
ĠL ituÃ¢nia
D or
er Ã¡
Ġter remo
ch in
Ġbo x
M arg
Ġco ura
ĠM exic
Ġl ance
ĠW u
ÃŃs icos
ulg aÃ§Ã£o
ĠPat rimÃ³nio
ĠrÃ¡p idos
idel berg
S B
i Ã³n
Ġ18 24
Ġcas amentos
Ġconserv adores
Ã¡ce o
ĠGuard ian
Ġmong es
K e
b aixo
Ġp onde
ĠF ama
ĠL iter
Ġap ag
Ġinterpre taÃ§Ãµes
Ġmanifest antes
ĠIll ust
ÃŃ bal
itu iÃ§Ã£o
Ġcresc endo
ĠRobert s
ĠCre ek
Ġproemin entes
B lu
P F
k as
m Ã£e
Ġpro to
ĠCom mon
Ġcol l
Ġr uss
Ġvis Ãµes
Ġprot ocol
ĠAll an
Ġincom pl
Ġp i
ĠM elhores
ĠD ob
ig l
era dor
Ġevol ut
quis iÃ§Ã£o
Ġsobera no
Ġmission Ã¡rios
Ġtriun fo
T rofÃ©u
Ġf ria
Ġest abiliz
ĠV est
ĠMar iano
ver y
cont inental
EN S
Ġens inou
Ġresol ve
ĠEurope an
CA F
Ġabandon ada
chem illa
ĠT ub
Ġext ras
Ġmant inha
Ġexper imento
ĠVal le
Ġescal ada
Der rota
C ob
D U
t ria
Ġd urado
re et
qu eles
ĠP aixÃ£o
Ġ10 3
Ġret ratos
Doc ument
Dis put
H OR
st ra
Ġin a
Ġ18 49
Ġtrip ulantes
ĠâĢ İ
Ġ18 21
Ġart ÃŃsticas
Ġdist Ã¢ncias
Ġhabit aÃ§Ã£o
Por Ã©m
Ġfavor itos
att i
ĠLeon or
ograph y
ĠD if
Ġcrist Ã£s
Ġcrit ica
Ġinsc ritos
Ġsolid ariedade
b ÃŃt
Î »
ä ¸
ĠD id
ĠInt era
Ġfund ar
10 5
Ġenfrent aram
Ġpergunt ou
Ġargument a
Ġfar inha
ĠAnim al
Ġs enha
ĠL ock
te o
Ġ18 37
ĠCam inhos
Ġcr Ã¢nio
rag on
Ġmand ado
Ġconcent rar
en ne
per m
Ġvalor izaÃ§Ã£o
UL O
ĠRub ens
ĠM oss
ign e
divers idade
ĠAcred ita
Ġpseud Ã´nimo
P ad
S um
ĠN ey
ĠH og
ĠAr mas
Ġmed iÃ§Ã£o
Ã©l ites
Ġreun iram
Ġconsci ente
Ġcaminh ada
ĠBob by
ĠApar ecida
se de
Ġap Ã³st
ĠTer min
Ġtril ogia
ĠConc urso
Ï Ħ
Ġa i
ara do
Ġl enta
Ġch uv
Ġdire ct
Ġmet ropolit
ĠCamp us
Ġjun Ã§Ã£o
Ġdial eto
Ġabrig ar
A le
ĠS M
ĠB ass
Ġinter rog
Ġconj unt
Ġbast idores
Ġdestac ado
Dec l
ĠPel Ã©
P ens
ul ina
jet ivos
ĠRod ada
ĠDin astia
Ste ph
Ġcampon eses
C T
C rim
ĠM Ã¡g
ĠN Y
ĠÃī d
Ġge ogrÃ¡ficas
ĠFa una
Ġapont am
Ã¡ce os
Ġd inossauros
Ġb r
ĠT ele
ĠG ros
ros Ã£o
19 15
rio ta
rut o
Ġobserv ando
ĠBiodivers idade
cipl inar
Ġdiss ip
Ġposicion amento
Ġneer landÃªs
CION AL
ĠH BO
Ġres ide
Ġprov incial
clus Ã£o
Ã¼ n
Ġinc rem
Ġcust a
Ġresta urar
L S
R ap
Ġ idades
Ġm ede
ĠH onduras
Ġtra iÃ§Ã£o
per idade
ĠEd son
RA M
ĠEv entos
ĠWest ern
ĠSid ing
ĠE cl
ĠL ion
Ã©d ito
Ġca indo
Ar thur
Ġmarc ante
ĠCla ude
Ġconsult or
ĠSn ow
Ġmural has
p este
ena u
ĠPl analto
Lu is
Ġhonor Ã¡rio
ĠOrle ans
ĠS ens
Ġest ip
Ġprim Ã¡rias
ĠCh ang
Ġneg ras
Ġcirc uitos
Ter min
Ġcancel amento
Ġimpression ante
ĠÃ©tn icos
Ġhouv esse
h us
ion ada
Ġprov oca
ĠSil vio
Ġatribu i
Ġpec uÃ¡ria
Ġtestem unha
Ġsacrif ÃŃcio
Ġdon os
Ġn ativo
et her
ĠK r
Ã¡r m
Ġbor bol
B ras
ĠJ uvent
ĠMar echal
ĠTV I
ĠLat in
Mor reu
Ġsuport ar
ĠP rud
ĠT ira
Ġaut os
Est udos
Ġvis ÃŃveis
ĠOb ama
T rad
er ie
la uta
ĠK in
ect os
Ġrefor Ã§ar
Ġmoviment aÃ§Ã£o
Ġno ca
ĠF i
Ġint enÃ§Ãµes
enh uma
ĠY ang
Ġliv e
ĠEsc rit
Ġmencion ada
â ĪĴ
re p
ĠT Ã¡
ĠLem os
Ġpromov endo
ĠGa ia
hop hagus
Ġpne us
ĠRang ers
Ġt rig
ĠT rop
19 12
ĠAm apÃ¡
Ġcolabora dor
Pre feitura
Ġintera g
w al
re ich
Ġb ate
ĠL ara
enc iando
ĠAc tion
Ġcancel ado
Ġexpul so
il son
Ġ18 43
Cam pon
Ġsecret Ã¡ria
ĠDra ke
Ġapaixon ado
prin cip
Ġdes espera
Ġinform Ã¡tica
Ġfer imentos
Ã¶ l
ĠCa Ã§
a a
u Ã¡rios
ĠC ric
Ġapar ecimento
Ġdial etos
ĠAlt ern
R Ã¡dio
ent ina
et us
ĠH i
ĠK ate
Ap enas
ĠGust av
ĠESP N
Ġc Ã¢n
ro ck
ĠS ard
Ġl Ãª
Ġalg as
Ġcient ificamente
Mus ic
Ġperspect ivas
ĠOrch id
at ing
ĠD ennis
ĠN ÃĥO
ĠU ganda
Ġpa cif
ĠTe jo
En s
ĠCu iabÃ¡
icon curso
ĠObserv atÃ³rio
ĠMississip pi
ri er
Ġre estrutura
ĠO per
Ġdos es
eg em
ĠEst ou
Con forme
ĠJohn s
ĠPortugu eses
ĠFin anc
ĠEspanh ol
Ġagra ciado
Wik iconcurso
Ġt ib
ĠU tah
Ġref rÃ£o
ĠLiv ing
Ġtransport ar
ĠÃįnd ico
ĠF ica
ĠIn Ãªs
Ġbat izado
Ġcontribu ÃŃram
ĠvÃŃnc ulo
Ã¢m ide
ĠMiss ion
ĠGil bert
Ġafast amento
Ġcadas tro
F OR
ist entes
Ġsu porta
Ġpes os
para Ã§Ã£o
ĠPal ma
Ġlivre mente
ĠF avor
ĠL iz
ĠAr senal
Ġcam is
Ã©t ricos
Ġdist antes
ES SO
Ġil umin
Ġinstal ados
ĠDel eg
Wal ter
. ):
ig ma
ĠK un
icas se
Ġb orda
ĠW i
ĠW itt
Ġun anim
Ġpont as
Ġid Ã©ias
Ġsignific ativos
Ġsalv aÃ§Ã£o
r istas
ĠS of
ed uc
ob ia
Ġpres tes
Ġprec oce
ĠDav i
Pal atinado
ĠFut uro
ĠPot ter
Ġtranst orno
u os
ĠM ala
Ġg esto
Ġes qui
Ġar ter
Ġof icina
op tera
ill an
ĠMa in
In vest
ĠPesso al
Ġtrim estre
ei rense
Ġanunci ar
Ġbus cam
ĠSte in
ĠCer ro
ĠNorm an
Ġroub o
v ira
ĠR est
ĠD antas
ras co
Mar y
ĠDiv ino
ĠJul io
ĠÅ ł
Ġnut rientes
Ġpolit icamente
el ine
ĠW as
Ġ18 44
ĠFl am
Ġdeter io
Subdiv isÃµes
S istemas
est ad
Ġsus pens
Ġelev adas
Ġprocura dor
ĠON G
led ge
Ġagrem iaÃ§Ã£o
ĠSmack Down
Ġn i
ĠR A
19 10
Ġcomplex as
Ã³m ica
Ġdescont o
Ġrecu perou
es pa
Ġh al
Ġr id
FF FF
Ġmec Ã¢nico
Ġdiplom Ã¡ticas
Ġsacerdo tes
n era
ver g
ĠSt ore
ĠSt ars
ĠInst ru
Ġrej eiÃ§Ã£o
J a
Ġ18 39
Ġfun eral
ĠPal avra
ĠFlor ida
Ġsecund Ã¡rios
Ġang ol
Ġlog otipo
Ġ2 14
Ġcon fede
ĠHom ens
uch os
ucle ar
Ġdro ga
ĠÃ¡c idos
Ġintim amente
Ġconfi Ã¡vel
Ġsubsidi Ã¡ria
H um
T a
Ãªn ico
ĠVer d
ĠVol ks
Ġfemin ista
Ġhaver ia
Ġmedic amento
Ġdesist iu
Ġescoc Ãªs
Ġbiciclet a
em ann
ĠK iev
Ġcar inho
Ġca ut
Ġrep ris
ĠHel en
isi Ã³n
r ings
qu Ãª
ĠM eteor
ĠL enn
Ġest al
Ġac ar
Ġdiminu iu
ĠforÃ§ ada
Ġliter Ã¡rias
ĠVin cent
Ġback ground
Ġpne um
es ias
an so
Ġen gra
pl y
Ġ18 32
Ġfuncion am
ĠDel gada
Ġsolic itar
Ġdiret rizes
Em ail
Ġapro xima
ĠHol land
Ġprot et
Or ch
Campon otus
F M
K O
u ren
Ġa rom
ro la
ĠT up
Ġun Ã¢nime
Ġvot ou
Ġexecut adas
Ġatribu iÃ§Ãµes
Ġconver teu
Ġassent amento
F am
ĠS ri
il do
Ġl ook
ĠV a
Ġexib idos
iqu eira
Ġconcor rente
ĠRog ers
Ġgene al
Ã¡ con
ĠR af
Ġcon seqÃ¼
ura i
ĠCom Ã©dia
ĠTer ror
isse x
Ġcunh ado
Ġn Ã³
sa y
EN D
air ros
Ġpag os
ĠSim one
Ġtam anhos
tex to
Ġdescon f
Ġfogu etes
Ġmanusc rito
B ack
Ġv amp
la ir
ton s
Ġbar b
Ġorganiz adas
ĠTer rit
ĠBu ff
Ġsuperf ÃŃcies
ĠSand ra
Ġanuncia ram
ĠperiÃ³d icos
ĠMitch ell
w ing
Ġsu posta
Ġinter venÃ§Ãµes
ĠBo ard
ĠMo ham
Ġconvers as
RS O
nt er
Ġesc asse
Ġcor rendo
ugu rou
Ġexist iu
B iblioteca
C ra
Ġl ema
Ġb u
Ġ3 25
Ġoc ult
ct iidae
Ġexig Ãªncia
ĠLo ja
Ġrend er
Ġpion eiros
A ven
D icas
F otos
P eixes
ĠB ai
Ġg rad
Ġou vi
Em pres
Ġle aldade
Ġofer ecidos
Ġnasc ente
Ġsup rimentos
Ġade ptos
grÃ¡f icas
Ġn isso
ĠA way
ĠH old
Ġsusp enso
AA AA
Ġafric ano
Ġpeg ou
Ġterap Ãªut
m uito
Ġv id
Ġpo etas
ĠSe p
Ġdisput aram
Ġaliment ares
Is abel
ĠTit anic
ĠJohann es
Z A
an ol
ĠR oraima
Ġpr Ã¡tico
De partamento
Ġconsegu ia
ĠIngl esa
in iÃ£o
ĠM im
Ġst art
Es col
enn es
Ġcalib re
ĠHers chel
' re
B atalha
L este
v ador
Ġp ub
ĠU M
Ġdi Ã¡rios
Ġep iscopal
Ġinstal ou
ĠStud y
N ational
d ale
in Ã§Ãµes
Ġg rÃ¡tis
Ġmar quÃªs
ĠCh en
ĠPa ys
Ġed itores
Ġinst a
onhec imento
Ġcal cular
Ġpens ou
Ġobserv ada
Ġpropor cional
ĠSha k
ĠMarac anÃ£
ĠN athan
ĠW atch
go to
Ġtur ÃŃsticas
Ġdirig ente
Ġmascul inos
ĠBroad cast
ĠLac erda
ĠTok yo
â Ĩ
ĠEm pres
cios as
Ġfra ude
Par te
Ġbanh eiro
Ġmonito ramento
Ã ½
Ġt esouro
Ġus ina
Ġver ificaÃ§Ã£o
Ġdestru iu
Ġlist ados
ĠWeek ly
Ġbura co
Ġadap taÃ§Ãµes
ĠA ÃŃ
Ġres umo
ma io
IT A
g rande
ic to
al ina
ent ados
Ġemb ri
ĠFer din
Ġsubstitu ÃŃdos
Ġtransform aÃ§Ãµes
Ġaposent ou
Ġconsist ente
Ġcurios idade
Ġn eb
ĠJ as
Ġar red
ĠAd elaide
Ġsec tor
Ġforn ecem
Ġatribu iÃ§Ã£o
Ġfech ados
Ġtelesc Ã³pio
ur ia
ru da
Ġdisc ursos
ĠArt ista
ĠRo os
Ġexclus ivos
9 00
v or
ĠR ia
orn ing
Ġjog ada
Ġfun k
Ġorient ado
Ġvira r
ĠFreder ick
ĠBomb eiros
c ido
is ÃŃvel
Ġag ressÃ£o
Ġindic adores
eir inha
han na
Ġconden ados
Ġargument ou
ĠHug hes
ĠF O
ca ju
Ġdirig e
ĠHo ras
ĠBot Ã¢nica
Ġtop Ã´nimos
Ġproteg ido
Ġreflet ir
Ġnoca ute
Ġf an
ĠB un
Ġb Ãºlg
Ġ3 70
Ġir landÃªs
Ġlat inos
Ġcostum ava
at l
ant s
Ġobrig ados
ĠOc up
Ġdific ult
Ġselecion ada
Ġlog ÃŃstica
ĠIst ambul
ĠApol lo
N S
Ġ ic
ur idade
ÃŃf icos
Ġconsol idaÃ§Ã£o
conhec ido
Ġinter iores
ÃŃg ado
ĠPes o
Ġprecon ceito
S el
d ing
p io
ĠV amp
Ġdistingu ir
f ont
g ard
Ġb ip
Ġb ares
ex o
oy a
Ġvot ado
'' '
Ġimped iu
Bar b
Ġarmazen ar
Ġconceb ido
ĠErn st
unc iando
T F
d entes
r Ã¶
on ica
Ġda tado
Ġpara dig
ed ra
ĠMar ine
Ġvers ion
Ġcontrat ar
ĠMen ino
Ġsin f
p ec
ĠC M
ul f
Ã©c t
ĠNorm almente
ĠGuer ras
ĠCho ice
il us
im an
Ġ18 25
Ġ18 38
Ġpes adas
Ġdoc es
arn aÃ§Ã£o
Ġbater ias
Ġespira is
FFD AB
ĠDesport iva
ĠMast ers
S how
ĠM unicÃŃpios
orn ada
ĠSp irit
ins ki
IS TA
Ġcart eira
Ġobt iveram
Ġtrata va
It Ã¡lia
Ġv c
ed Ãªncia
Ġh et
ĠVal or
Ġartes anato
Ġinser Ã§Ã£o
Ġdevo Ã§Ã£o
M adeira
p ado
ĠM ina
ĠG aga
ĠJ ato
og y
ĠW orks
Ġaut od
ĠCol omb
Ġocor r
Ant Ã´nio
ĠNor onha
Ġapart amentos
ĠFland res
G erm
at z
ch ar
Ġ4 50
vi ado
ĠRec re
Ġcorre Ã§Ã£o
Ġsemelh anÃ§as
Ġbeb er
ĠSoroc aba
d d
Ġgovern ou
Ġnatural idade
Cont rov
Ġafet ar
haus en
V el
â ĨĴ
ho ven
Ġcl or
Ġestrutura is
vis ual
Ġhip er
Ġaleg aÃ§Ãµes
Ġpeda Ã§o
ĠRoss i
Ġrepublic anos
n or
p y
ĠC IA
ĠT esouro
ta g
ĠH its
ert ado
IN G
D uas
al em
et i
ĠT O
ĠV ent
Ġmu ro
ĠZ a
gl om
ĠÃģ rabes
Ġatribu ÃŃdos
Ġlic itaÃ§Ã£o
Ġpromo tor
ĠIB M
o pot
at riz
Ġl i
Ġcon gresso
Ġsub ida
Ġca os
Ġmat erno
ĠVer lag
ĠTer ry
ĠConc elho
Ġtestem unho
Ġsug estÃµes
Ġrenome ado
ĠGalax y
z entos
Ġco ef
it able
ĠH ey
ific am
Ġmont ado
ĠSim Ã£o
Ġlibert ar
w affe
Ġl indo
ib ular
ĠAn Ã¡lise
Ġdist Ãºrbios
Ġpil ares
Ġliter Ã¡rios
evid Ã©u
Ġs aga
Ã¡ cios
ĠB ola
Ġb elas
ĠCh elsea
Ġnav ais
Ġexib e
ĠMad ison
Ġguitar ras
ĠManch ete
ig en
Ġin undaÃ§Ãµes
Ġfal ecer
ĠCla udia
Marc elo
Ġlav agem
ĠincÃªn dios
Ġretom ada
Terc eira
ĠAssembl Ã©ia
1 14
at ory
Ġint en
Ġfic arÃ¡
Ġfund amentos
lu Ãªncia
ĠFre qu
p int
s om
Ġpap al
Ġempre endedor
ĠRevol ta
Ġapont ado
ĠBorg onha
N um
g om
ĠV ancouver
cion Ã¡rio
ĠAl onso
Ġcl aras
aria is
inh ar
let a
Re f
fl ora
ĠArist Ã³teles
B on
u oso
re va
it antes
am an
Ã³ ra
cion alizaÃ§Ã£o
ug ht
Ġ18 41
Ġadapt ados
Ġflu ido
Ġsolic itou
Ã¡ce as
Cur tas
M ah
Ġde posit
Ġv ic
ĠG un
ĠK ap
Ġpar Ã³quias
Ġ18 47
Ġra b
pt us
Ġcontro la
Ġbar ragem
Ġexclus Ã£o
ĠTim ber
Sem pre
ĠWord Press
Engenh eiros
F ar
ĠT es
Ġdest ro
ĠX ang
enc ourt
Ġdist inta
Ġpal ha
Ġfac Ã§Ã£o
Ġregist radas
Ġremov ido
ĠIrm Ã£os
Ġmort as
Mil itares
Ġdramat urgo
R ES
i ja
ĠS ÃŃtio
ul k
ĠH orta
gn Ã³stico
Ãį CI
Ġapont ou
1 15
F E
e h
ĠC idades
cion ista
orn a
Ġ18 15
Cl ima
OR ES
Ġajud aram
Ġprem iada
Ġingress ar
ĠGeorg es
ĠVel oso
D P
Ġav ist
Ġatu alizado
ĠComp lexo
Ġdomin ar
Alex andre
Cha ve
Ã¡rqu ico
1 18
c raft
h Ãµes
ĠCom mittee
pro f
ĠFisc al
Ġn Ã³rd
ĠGu arani
Ġt Ãºnel
ĠL una
Ġpro j
av ia
Ġr Ã³t
Ġw as
ĠFigu eira
Categ oria
p ina
ĠR ela
Ãº rias
19 13
ĠK rieg
Ġconfirm ar
ĠDr um
Su as
v re
ol or
ĠT iro
Ġcon he
Ġos so
rig ada
Ġra ros
AT A
Ġcomand ado
Mus eus
ĠConn ecticut
Ġcriminos o
p ice
Ġp iores
Ġc itando
ĠM assa
ĠT her
ur m
col e
Ġver gon
Ġprev istas
Ġcomand ada
Trabal hos
Ġucran iano
V isÃ£o
ÃŃt or
Ġam anhÃ£
ĠPa Ã§o
ĠY ale
Ġ17 0
na ÃŃba
Ġden Ãºncias
ĠSh ort
Ġjap onesas
Ġalte rada
l Ã©
Ġe ixos
Ġc ÃŃrculos
Ġt ig
Ġel ÃŃp
ĠAc c
att s
Ġincorpo rado
Constru Ã§Ãµes
C e
M it
Ġc en
it utos
ĠJ uvenil
ĠK ane
Ġdest inadas
ĠCar reira
Ġcole Ã³pteros
Ġcicl istas
ĠEcon Ã´mico
ĠNav arra
Ġvas to
ĠMÃ¼ ller
Ġdegrad aÃ§Ã£o
Batal has
j ano
ci ar
ÃŃp io
Ex iste
prim a
Ġafili ada
ĠÃŃcon e
ĠPrev idÃªncia
ĠB ed
ĠV ac
Ġespecial izaÃ§Ã£o
Ã¡b io
Ġenfrent am
1 17
L i
M ol
id iana
Ġres son
ud y
ĠNic olas
Ġm y
ĠD ro
ĠL apa
âĢ ĺ
Ġcam ar
Ġinclu ÃŃram
ĠSe an
ÃŃb ia
ĠRom ero
ĠDisc overy
ecos lovÃ¡quia
ĠElet r
ĠRenas cimento
ĠA ri
ul c
Ġb ala
Ġg oz
ĠT ha
est im
ori adores
ĠÃ³ culos
qu ÃŃm
Ġcar bon
ĠLu ke
Ã¼ ck
Ã¢nt ara
Ġestar Ã£o
Ġarrecad ou
M ud
ar ense
ĠS omb
Ġno men
Ġper do
Ġesc or
Ġinst rut
Ġprom ete
Esp a
Ġcarreg ar
ĠJornal ismo
ĠRay mond
ĠKir k
Ġpsi quia
B or
C ore
S m
Ġb iblio
ĠL ad
ĠAl pha
Ġdesenvolv em
Ġru pt
ĠRepresent antes
ĠA viaÃ§Ã£o
ĠB ail
Ġh ospe
Ġtra duÃ§Ãµes
Ġtre inos
Ġprocura m
Ġcontin entes
ĠZo ol
ĠCra ig
Ġcombo io
Cine astas
Ġ ï
ei Ã³
ĠF eder
Ġ4 30
Ġrepresent ados
Ġapar ecendo
Epis Ã³dio
f ect
r Ã³f
Ġm eg
ev elt
Ġac aso
Ġpass ap
Ġdivers Ã£o
Ad am
S i
ĠG amb
ĠPa cific
ĠY outube
Ġprov ou
Ġav Ã³s
Ġcab ine
Ã¡ss ica
Ġcontrat ada
Ġautom Ã¡tica
ĠNe il
Ġconsult oria
ĠcÃ¢m bio
ĠC ora
oc ada
Ġal iv
Ġform ais
Ġ12 8
ĠCas ou
Ġcomand os
Ġacess os
Ġjulg ar
Ġso ja
Ġtub os
Ġbor racha
Ġisrael ense
M ass
P i
Ġ !!
ĠF lu
ĠH ur
Ġat entado
min ster
ĠDu ke
onc Ã©
Ġv a
Em p
Ġrecom pensa
Ġhe avy
Ġdiab etes
B issau
V ers
Ġb os
ĠD anny
enc ar
12 5
Ġins pe
Ġacont ecem
Ãºn cio
Ġindic ou
Ġjur ista
Ġmem or
Ġdin am
Ġconven cionais
Minist Ã©rio
N ad
u alizaÃ§Ã£o
ĠS ever
ec ha
ĠT ara
Ġtrans vers
Ġson or
Ġnasc eram
Ġexperiment ar
ĠPlat Ã£o
ĠEsqu adrÃ£o
Ġinterm Ã©dio
S mith
j andro
it an
it ual
if ul
Ġdesc revendo
Ġ12 9
ĠEl lio
Ġir re
Ġleg enda
ĠGaz eta
Ġina ugurou
1 21
Â ®
Ġres pet
rit amente
ific ation
Ent revista
Ġproib ida
at ualmente
Ġl endas
Ġdes ent
ast re
Ġrep ente
Ġacus ados
Ġpropor Ã§Ãµes
Ġrecom pens
Ġciv iliz
ĠReb el
adel phia
ta in
Ġcol ina
Ġman sÃ£o
Ġsex ualidade
ĠAst ron
net un
Ġholand eses
ap s
Ġar ru
ch ev
Ġsustent ar
Ġtrou x
ĠmarÃŃt ima
O bra
z el
ro e
pl ice
ĠAl iados
anÃ§ ou
ĠIn ovaÃ§Ã£o
ĠCor re
ĠEl st
Ġdenom inaÃ§Ãµes
Ġimplement ar
Responder Excluir
Ø§ ÙĦ
Ġdesv ant
Ġfis icamente
Ġnoruegu Ãªs
Anim ais
ĠTun ÃŃsia
b anda
ĠB eg
Com eÃ§ou
Ġhabit ual
Ġobrig atÃ³ria
ĠIntera ct
Ġescasse z
\ /
Ä Ł
Ġp io
Ġc ut
ia ceae
ĠH us
Ġpr Ã©mios
Ġmant Ãªm
Ġexpl ÃŃc
Ġacont ecimento
Ġlig as
Ed ward
Ġtransfer ir
ĠNazar Ã©
Ġs r
Ġt Ãªx
ĠQu ase
Ġneg lig
Ġadminist rar
P ert
ĠA sa
ĠA manda
Ġv ass
ĠV Ãªn
Ġtrans l
ES C
In gl
Ġfin alizaÃ§Ã£o
ĠSha w
Ġcorrespond entes
ĠAlm ada
ĠTu rim
Ġsubmar ino
Ġtria ng
ĠRal ph
L ife
Ġ ~
Ġs ultÃ£o
ĠC ortes
ĠF an
ĠH ob
ĠEst ÃªvÃ£o
Ġcr ises
igu e
? ,
C iÃªncia
Î µ
de us
ĠR ut
Ġest amp
Ġ11 5
ĠComun icaÃ§Ãµes
ĠKing dom
Ġconver g
Web site
Hom em
ĠPert ence
Ġindis pens
ĠC ut
ĠS ed
art es
Ġmar g
ĠCam peonatos
Ġr icas
Ġav is
ĠLu anda
arÃ¡ gua
Ġdistribu ÃŃda
uri f
ĠChallen ge
j ov
Ġs ÃŃl
le ra
Ġtrans netun
ĠEsp ÃŃ
ĠmÃ©d icas
Con heÃ§a
Cl asse
ĠLei ria
ĠÃĵ pera
ĠNich olas
ĠPetr Ã³polis
z inha
Ġan fÃŃbios
co in
je Ã§Ãµes
Ġsuper merc
Ġdet alhe
ĠHar old
ĠBol onha
ĠEv ent
var ez
Ġdescont inu
Ġpatri arca
ĠCai ro
T ime
em i
ĠR h
ov Ã¡
Ġdef esas
An na
ĠMont ana
Ġobrig ada
Ġsupl ente
ĠDecl araÃ§Ã£o
A dic
C onte
ĠC OR
ĠW inter
ĠCol et
ĠAp Ã³st
IV A
Cal if
ĠFun chal
Ġproporcion a
ĠThre e
M ike
U p
W ar
ĠR ez
Ġj a
ir s
ab ulÃ¡rio
Ġmod ificaÃ§Ã£o
ĠLu igi
ung s
Ġsec as
An n
Ġtermin ado
Ġresg at
ĠcÃ¢mara s
ĠJov ens
anth us
Ġpist ola
ĠC achoeira
Ġv Ã©rt
et icamente
ĠT rem
ĠN ancy
Ġ18 31
10 4
ĠOr g
ĠSal am
ĠInform aÃ§Ãµes
Ġprovoc ando
Alex ander
Pint uras
y pt
ĠP ER
ĠN est
ĠG Ãªn
Ġun a
ĠFl y
Ġobserv ados
rÃ¡t ica
ĠSpe ars
ĠPlan eta
K ing
U lt
Ġ3 59
Ġmon ge
ĠOri entais
Compart ilhe
ĠDoc e
ĠlÃ¢m p
Ġguarn iÃ§Ã£o
t ires
or ig
ĠB uck
ĠL ec
Ġpre via
Ġ4 20
ph is
Ant h
Ġdepend em
Ġconvers ar
Ġple ito
C ard
F esta
id ium
ente cost
ĠPe dag
EN A
di retor
Ġcaminh Ã£o
B RE
Ġd ÃŃg
ĠM Ã´nica
Ġcontra part
ĠAnd ers
Ġquant ia
ĠÃĵ scar
Rep Ãºblica
Ġressal tar
Ġfal sas
Ġcant ada
Ġren asc
ĠEdu ca
ĠtÃ©rm ica
ĠJama ica
ri ed
Ġ18 28
Ġag ravo
Ġcham am
ĠDiv ision
Ġcomprom issos
Ġgl Ã³ria
ĠCole Ã§Ã£o
Ġconfer ir
Ġtempor Ã¡ria
ĠTanz Ã¢nia
ĠA dic
ab ril
Ġsur f
Particip aÃ§Ãµes
heim er
p ra
Ġo ver
ĠD amas
uc he
Pro v
ĠZu rique
V amos
Ġda qui
ĠM Hz
ĠD ictionary
Ġcant os
ĠTra in
ĠArt igo
ĠMil an
ĠBe ja
Ġsep ult
ĠcardÃŃ aco
ĠMartÃŃn ez
Gran des
Ġalugu el
Ġrug by
p ino
r ise
ĠR and
IN O
ĠBar n
ĠBen g
Ġpros peridade
Ġaprove itamento
Ġarred ond
on ista
om or
ĠT osc
Ġin cont
Ġmin eiro
ades h
ĠHe idelberg
Ġtri Ã¢ngulo
ĠEp is
ĠOpera Ã§Ãµes
Ġprogress ivo
) ",
. Â°
ĠC ust
Ġv emos
ĠL ÃŃder
ĠCh ase
Ġr ÃŃt
Gu ilherme
ĠTy ler
Ġmediev ais
Bat eria
ad ol
ĠIn do
Ã¢m bia
Ġconclu i
Ġinaug ural
AM ENTO
ED E
ĠEstre las
A ranha
it at
iv el
ĠL E
Ġac ost
Ã¡l ico
Ġimag inaÃ§Ã£o
Ġcriat ivo
ĠGi ul
1 13
T our
U so
n ight
on ne
ĠS ix
Ġcon dutor
Ãº cio
Ġpar ente
Ġmor rido
ĠCal cio
Ġdecor rentes
teb rados
ĠM ust
ĠFac e
Ġverdad eiros
Ġfa Ã§o
ĠTransp orte
S l
z im
ĠC ura
Ġb olo
ĠN ext
ĠU ber
Ġmont ante
Cas amento
Ab ril
Ġgar otas
Ġinsuf iciÃªncia
Ġenz ima
ĠLuft waffe
: :
P onte
c f
Ġf eijÃ£o
Ġre ma
iss as
Ġating iram
Ġher ed
Ġfede raÃ§Ã£o
Ġnar rador
ĠestratÃ©g ico
Ġorden aÃ§Ã£o
ĠLop ez
N T
Ġco adjuvante
Ġpar cel
rop ia
Ã¼ b
PS DB
Ġbanc ada
Ġverdad eiramente
Ġjo elho
Ġobst ante
Ġmanip ulaÃ§Ã£o
Ġsindic atos
R C
c ada
Ġsa em
Ar gentina
Ġru ÃŃdo
ĠjurÃŃd icas
Ġe go
Ġp ent
on ga
ĠL un
Ãªm icos
Ġren as
ĠSte el
ocl ipes
S ON
b org
ĠP un
ĠB ug
ĠH ook
Ġcat olicismo
Ġident ificada
Ġge ografia
ĠDubl in
P ostagens
Ġs Ãªnior
nc hez
Ġch eiro
Ã³n ias
Ġprogram ado
ĠIm peratriz
Ġfl ash
ĠĠĠĠĠĠĠĠ Ġ
isp rudÃªncia
ĠPequ eno
Ġcondec orado
Ġabert amente
l ong
Ġf idelidade
ent ial
eg er
Ġca f
ĠAb adia
Cam po
ĠRom ance
ator ze
Can al
ĠLor de
Ġcompat ÃŃvel
j ug
Ġs Ãº
Ġ2 22
Ġ3 68
assa u
ĠFerro viÃ¡ria
Post ar
Administ raÃ§Ã£o
Ġpor cent
ĠN XT
ĠAnt unes
Ġfilm agem
Engenh aria
T urn
st and
ĠP enha
ĠM ou
Ġest oque
Ġmes qu
ĠRe yn
ĠTe en
A val
B ill
F i
ip osa
ter ofil
ĠCol ombo
ĠJos e
Ġep id
ĠWeb site
Ġdor sal
G ram
t ema
ĠC ena
Ġcaptura dos
ĠFut ure
Ġsuspe ito
ĠGh ost
ĠEsport iva
= =
c aras
w ord
Ġpara bÃ©ns
Ġest ariam
Ġrec re
ulos o
pect iva
aca o
Ġunivers itÃ¡ria
Ġdepend entes
Ġpsic olÃ³gico
Ġconsci ent
Ãºrg ico
Cir c
Ġhipo t
ĠespÃŃ ritos
ar u
ĠB M
Ġenc ost
Ġmil ag
Ġcontro les
ĠTra duÃ§Ã£o
Ġtub erc
ĠPlan et
Ġinterval os
G ast
ĠT rat
Ġ18 26
ĠAn ÃŃbal
Ġ10 8
Ġrepresent ava
Ġcomb ina
Ġplanej ada
ĠCro w
Ġdecis iva
Semif inal
Ġd Ã©b
ĠP O
Ġmas t
ĠRe ed
ĠNo ta
Am b
Ġassist ido
par te
Ġinov aÃ§Ãµes
ĠinÃ©d ita
N et
Ġre encont
Ġal usÃ£o
Al c
Ġfer idas
Ac aly
Ġcount ry
ĠS ele
Ġg Ã³tico
ĠL ins
and in
ĠCom entÃ¡rios
ific aram
ĠEd iÃ§Ãµes
ax a
Ġsec ular
ĠtÃŃp icos
Ġp h
Ġb ico
ĠN aÃ§Ã£o
ĠN obre
ag g
Ġespecial izadas
Ġref l
ĠRa quel
gres sÃ£o
fl ies
enz ie
Ġf aro
ĠS ug
bo w
Ch ina
ĠFis her
Ġconvert ido
Lar en
A ir
R an
V ER
f ora
ad ure
ĠP owell
ĠN ilo
Ġex ata
pe ia
ix on
Ġmed ia
Ġto x
Ġconc ession
Ġadminist rada
Ġimag inar
Ġresg atar
Ġprivil Ã©gios
ĠdiscÃŃp ulos
H ab
f ranc
j unho
er ife
Ġm undos
ĠR ome
Ġrest riÃ§Ã£o
Ġverm elhos
Cat Ã¡logo
ĠCamar Ãµes
ig g
Ġ3 18
Ġvi ola
Ġhomenage ado
Ġarrecad aÃ§Ã£o
ĠCou to
B ru
C ry
w aldo
ar ly
ĠP ack
ĠN AS
rim ido
co d
Ã¡g rimas
w est
ĠC ourt
Ġin ger
IS S
IM ENTO
Ġcombust ÃŃveis
R ub
h im
ĠC our
ta va
ĠV enc
Ġpar ciais
ĠNo el
Ġmod ificado
ĠAnd aluz
en ceu
ĠP ent
Ġl ida
ĠDe ep
Ã©s b
Ġbrilh antes
Ġperigos o
Ġunanim idade
P arc
d ar
Ġnecess ita
Ġmora va
ĠPi etro
etn am
G re
V Ã¡rios
Ġin gresso
Fil me
Ġcria tura
Ma io
K arl
Ã Ķ
Ġal mas
Ġh Ã©
Ġreg imento
Ġaut Ãªnt
Ġrelat or
Ġpermit iram
ĠHer mann
adÃ¡ ver
Ġvirt uais
ĠespÃ©c imes
H am
ĠP ir
ĠG ang
uma Ã§a
ĠAs soci
ĠNa quela
Ġcur vas
ĠBu eno
Ġdeclara r
Ġconduz ido
ĠtÃŃp icas
Ġdesigual dade
Ġdepo imento
Ġlaborat Ã³rios
C ul
y g
ar car
ĠD anÃ§a
Ġmar inhas
ĠSal azar
ÃŃc ero
ĠBl um
Ġmult ipl
ĠCop as
Br uno
Ġhelic Ã³ptero
Hor Ã¡rio
J oa
ĠR itter
ĠD isco
Ġcomp acto
vol ta
Ġrefer endo
Se ja
ĠSebast ian
Ġfeliz es
Ġadmit iu
ĠBien al
op er
ĠestÃ¡ dios
ph p
Ex emplo
Ġaplic adas
ĠMod elo
Ã³so fos
Ġrebaix ado
ĠHenri ques
ropec uÃ¡ria
Ġqu Ãª
ĠS uns
ĠD iss
ĠF im
Ãº do
Ġ3 35
ĠAlexand ra
Ġbi olÃ³gica
Ġescrav o
Ġencer rando
Ġach ei
ĠSev ilha
m ir
on ais
ĠP ros
Ġv ela
era ntes
ur sÃ£o
Ġ3 26
und ia
Ġ18 23
Ġfe ed
ĠAc Ã³rdÃ£o
Ġcaus am
enci adas
Ġmult im
ĠRevol ution
Ġruss as
Ġl entes
Ġinf ecÃ§Ãµes
ĠmÃ¡ xim
Ġquer endo
ĠEv il
ĠSpe ed
Ġrebel de
ĠClass ic
Ġcompens aÃ§Ã£o
ĠAntÃ¡r tida
ĠAlbum s
ĠS ide
ĠP iment
=# |
Ġ10 9
ĠCam ilo
ĠSe pt
ĠHar per
Ġemo cion
ĠIta p
To da
Lond res
P N
on eses
ĠM oney
ĠV id
ĠEst udo
Ġcor reu
ĠEn ferm
ST OR
Ġfix aÃ§Ã£o
Ġelabora r
Ġextre mos
Ġdesf avor
Ġconfigura Ã§Ãµes
D ivers
Ġs ch
ĠH ad
Ġpart ilh
ĠEd imburgo
Ġpat rim
Ã± os
Ġsuf icientemente
Ã¶n ig
D entre
F S
k n
it ano
ĠT iger
ĠCol d
ĠBan gl
ĠDoc tor
ĠConf ira
ĠCidad ania
ĠGabri ela
Ġd rag
Ġde com
um at
ara da
ica nte
Ġest endeu
Ġfilho tes
Ġacont eceram
rÃŃ cola
ĠWeb er
ĠMich elle
Ġlevant ou
Ġaus ente
Ġcriat iva
Ġdecis ivo
S teve
t ipo
Ñ ĭ
Ġt artar
Ġf ÃŃgado
Ġl ament
ĠF BI
if era
Ġte Ã³rica
Ġcal ifa
ĠPo esia
Ã³m ez
ĠCla udio
Particip ou
M issÃ£o
ar is
ĠC ul
Ġl inf
ec esse
de bol
sa ka
ĠPol ÃŃticas
ĠTom my
rÃ¡t ico
Ã¨ res
Gu er
ĠKar en
Ġderrub ar
cica ba
× Ļ
Ġd aria
Ġs amb
am pa
ec ei
ĠL af
ĠG ru
of re
ĠLe ia
Ġacred itavam
Ġinfluenci ou
Ġpredomin ante
Ġfib ra
Ġbachar el
it amos
ĠR Ã©
ĠEst udou
ys is
Ġassin aram
Ġplan ÃŃcie
Ġsupera ndo
ĠNorm andia
ĠLic eu
Ġvog al
Ġracioc ÃŃnio
l ora
ĠF ull
Ġdi esel
Ġpass eios
ĠQual quer
ĠRoos evelt
T endo
es h
Ġre organizaÃ§Ã£o
Ġaf il
Ġvenc ida
l ou
ĠR ing
Ġfo ge
ĠI da
Ġdes g
ĠW ei
Ġpart ÃŃcula
Ġobt Ã©m
Ġprotest ante
ĠLin na
Ġn eta
ĠR oland
ari um
ĠJul iana
ĠRen Ã©
Ġisol ada
ĠYe ars
ĠG ott
av os
ug as
ĠMar g
Ġ11 3
ach i
dor o
Ġrevel ando
Ġadv ento
Ġpromo Ã§Ãµes
Ġgost ou
ĠJÃº lia
ĠAlc Ã¢ntara
Ġholand esa
PM DB
ĠMetropolit ano
W ill
Ġ ratos
ro ma
Ġse qÃ¼
Ġ2 21
ĠL U
ĠO g
Ġh arm
Ġ10 6
Ġgovern ar
ĠMa ine
Ġcur v
Car l
ĠforÃ§ ando
Ġexer ce
Ġmilit ante
ĠPatr ÃŃcia
Ġuru guaio
s m
Ġco ca
Est aÃ§Ã£o
ocal ipse
Ġaument ado
Ġassin ada
Ġhip ert
Ġastron omia
ĠEngl and
Ġasi Ã¡ticos
Ġtelevis iva
d Ã£
om ys
ert y
ĠEl len
14 0
ĠSet or
Ġguer reiros
Ġpul mon
Ġnut ric
tempo rada
ĠestÃŃm ulo
B i
Ġo raÃ§Ãµes
Ġap ris
ob ar
pl icaÃ§Ãµes
Ġcar deais
Ġve em
ĠApost Ã³lica
Ġcomedia nte
Ġre abilitaÃ§Ã£o
ĠD ragÃ£o
ino Ã¡c
Ġtrabalh aram
Ġot her
Ġan jos
Ġsob rinha
Ġdever es
Ġunivers itÃ¡rios
Ġenvi adas
Ġorient aÃ§Ãµes
U E
at oriamente
ĠP E
ĠR az
Ġ18 33
ĠAs c
Ġins eto
Ġvia ja
ĠHe at
!! !!
Ġprest ados
ĠcÃ¡l culos
ĠRodo lfo
ĠegÃŃp cio
ent ri
Ġre vez
ĠV ara
ĠW ang
Ġprim itiva
Ġconhec ia
ĠEd ge
Ġw e
Ġpint ores
ĠAut Ã³noma
Ġroub ar
Ġreje itou
ĠKenn eth
Ġabrang ente
sburg h
ĠWikip Ã©dia
ĠC T
Ġpart ilha
ĠArt ÃŃstica
Ġfuncion ou
Ġceleb rado
Ġmel od
I ta
Ù Ĩ
Ġde do
Ġno minal
ĠT ribun
ot to
Ġprim ord
Ġir landesa
Ġcav erna
ĠCria Ã§Ã£o
udol f
1 22
g am
Ġqu Ã£o
Ġre organ
Ġ3 17
Ġ18 17
Ã³p icos
Pro dutos
Ġvig ente
Ġcicl ones
ĠCaval aria
ĠFilm s
Ġincent ivar
Ġevang el
ĠAdv ogados
Ġancest rais
r inas
ay ashi
AS S
ĠArm ada
Ġori undos
ĠRespon s
ĠSelv agens
D ifer
y at
ĠH erc
Ġdiv indade
ĠAmb as
Pal avras
Servi Ã§o
ĠErn est
J udeus
Ġp om
ic um
ĠD ow
ant ina
lia nce
Ġemb ut
Ġle ito
Ġgol pes
Ġcompart ilha
Ġconsag rado
fund ador
ĠEin stein
D OS
O x
p ta
Â ³
Ġ iam
Ġre af
ant in
ess ete
Ã³n icos
ĠAc ho
Ġexig iu
ĠCria nÃ§as
Ġcre me
Ġpromet eu
Ġmural ha
ĠPast or
Ġespir ituais
Ġc up
al Ã¡
ol ita
od oro
ĠSim Ãµes
Gu ia
ĠFa ust
Down load
S itu
ar ga
em Ã¡tico
ĠC int
ĠH ut
ion ando
Ġter rÃŃvel
Ġ3 000
Ġtra Ã§ado
Ġam igas
Ġamb ic
ĠDes portivo
arc k
ĠAdminist rativo
ĠSon ic
ĠSara iva
ĠJess ica
o h
s etembro
ul osa
se d
Ġex teriores
ĠÃ¡ s
Ġesc ada
ÃŃn odo
Ġbaix ar
Ġnot ou
Para das
ĠSol o
Ġaux iliares
Ter mos
ĠTy pe
Ġdesemb arc
Ġpertencia m
ĠRail way
Relig iÃ£o
B oa
P et
Ġc ig
ĠA O
il mente
ĠM org
ĠB RASIL
Ġreg Ãªncia
Ġopera ndo
Ġglob ais
ĠDiam ond
Ġexpor taÃ§Ãµes
ĠJ i
Ġ4 28
Ġviol enta
Ġconfirm ados
ĠEM I
ĠSÃ¡ nchez
ĠBez erra
ĠIre ne
V est
p elo
Ġm ala
en burg
ĠB eb
ĠD ram
ĠSch midt
Ġadapt ada
Ġnar ra
imen Ã³pteros
l em
qu est
po nto
Ġal av
Ġal fa
Ġfal ava
Ġsist emÃ¡tica
Ġgen erais
ĠBow ie
Cast ro
Ġreivind icaÃ§Ãµes
K ar
m Ã¡tica
ass Ã¢n
Ġdu elo
Ġfun gos
Ġimp or
ĠDa ÃŃ
Ġsuger ido
H omen
ĠF ro
ĠCon struÃ§Ã£o
ĠSt orm
ĠPort ela
Ġservi ram
37 3
Ġconcor reu
ĠProv incial
LO G
ĠÃģlv ares
Opera Ã§Ã£o
Ġpesc adores
b ot
p ers
ĠE rik
io t
ĠI MP
ĠH ed
Ġal mirante
du a
ĠRe ference
Pro dutores
ĠEp iscopal
ĠCasc ais
ĠEmp ire
M ang
ĠPort aria
Ġindivid ualmente
Ġdemonst rado
ĠSus an
Ġpreen cher
ĠTij uca
ĠBabil Ã´nia
P ouco
ri ft
ĠH is
Ġreceb imento
16 0
Ġconj ug
ĠLond rina
ĠMen eses
ĠPhy logen
Ġdescul pas
T rib
f us
Ã© ra
Ġan jo
Ġind iana
Ġma quiagem
Ġdet ecÃ§Ã£o
Ġarque olÃ³gico
Ġfabric ado
ĠmÃ¡g ico
W W
ĠM E
ĠB rin
Ġest ritamente
ens iva
Ġout org
Ġtra jeto
Ġam ig
Ġam adores
Ġtrans aÃ§Ãµes
ĠVal ores
Ġaud iÃ§Ã£o
Te am
ĠEcon om
B ur
k w
p ente
Ù ħ
em o
ĠH Ã©lio
Ġ3 33
Ġga Ãºcho
ĠBart olomeu
R am
i ens
m ers
ĠS udoeste
let on
ĠLe is
oca usto
10 9
Ġdom ingos
Ġcost eira
ĠChamp ions
Ġexcel entes
Ġatravess ar
ĠmolÃ©c ula
ĠUt iliz
el is
ĠT emos
Ġmas ter
Ġresult ar
Ġtur ÃŃstica
Ġtest amento
Ġdesemp enha
Ġing estÃ£o
L at
p Ã§Ãµes
ĠN Ãºmero
Ġ18 29
iel la
ĠMad ri
apar te
ĠDiret oria
L I
o de
Ġv Ã¡
art s
Ġen do
Ġsegu idas
ĠHer man
ĠRom Ã©nia
Orch idaceae
C urso
Ġdire tos
ate ia
esp ecial
Ġpira tas
ĠAbd ul
co te
Ġinst abilidade
Ġopera dores
ĠSh ang
Ġadv ert
ĠQ ualidade
Ġcore ana
Ġencom enda
ĠtÃ³p ico
Ġconfort Ã¡vel
Ġatrib utos
F ort
Ġa ra
en ko
Ġv ulgar
ĠB ald
ĠT ul
Ġtra Ã§a
iment ar
Ġens ina
ans en
ĠFal cÃ£o
ĠSing le
Ġcativ eiro
J eff
U r
y i
Ġp ensÃ£o
ĠB ord
Ġmat erna
ĠPl us
Ch arl
ĠSen egal
Ġguard as
P riv
an Ã¡lise
pe cif
ĠNo te
Ġprofiss ion
Ġtrat ada
Ġjust a
ĠÃ¢ n
ĠFrancis ca
Transp ortes
Ten istas
wik itable
Ġp Ã©t
Ġqu i
ÃŃ ndrome
im er
ĠD eve
ĠL emb
Ġest Ã´m
ch an
Ġam adure
Ġcaus adas
Ġacred ito
Ġcaminh Ãµes
S aiba
c ruz
y c
Ġl obo
de fin
ac ular
ĠV eiga
Cr ÃŃtica
ĠUrb ana
ĠCicl ismo
qu arta
Ġb eta
ĠL um
cion Ã¡rios
irm Ã£o
Ġret omar
Ã³g ios
23 1
Ġresult aram
Ġle ilÃ£o
Am az
Ġsurpre endente
ĠdemocrÃ¡t ico
Ġrazo Ã¡vel
w h
Ġex aust
Ġreg imental
ĠInt erm
Ġrep ou
rin aÃ§Ã£o
Ġarquit etos
ST ITU
Ġgl Ã¢nd
Ġherd eiros
ĠComb ate
m Ã©tica
Ġe rig
ol es
Ġdis postos
Ġ4 29
Ġdist into
Ġi OS
Ġceleb ridades
ĠInc lu
ĠSci ences
ĠVo ice
Ġdetect ar
ĠCount y
Ġbara to
M embro
ĠA aron
ĠA prend
un istas
Ġcol ect
Ġed itada
Ġvac inaÃ§Ã£o
ĠacÃºst ica
Ġrecomenda Ã§Ãµes
re na
ĠF UN
Ġforn ecendo
qui Ã¡t
ĠRel atÃ³rio
Ġinser ido
ĠcÃ¡ ps
Ġdivert ido
ĠAdol fo
roxim adamente
g Ã¡s
Ã °
ud el
Ġamb ul
Con hec
Ġnacional ista
fil e
Seg uranÃ§a
Ġpertenc er
Ġatac aram
Secret aria
ĠprejuÃŃ zos
ĠtÃ³p icos
Ġcom issÃµes
ĠS oy
ĠD ante
ĠEsp irit
Ġmant idos
Ġexig indo
Russ ula
Ġtabul eiro
entri onal
H T
ĠJap onesa
cam po
Ġpil ot
Ġdit ador
Public idade
ĠfilÃ³so fos
ib il
Ġsom e
Ġpotencial mente
Fal eceu
j ando
on izaÃ§Ã£o
ĠM iz
ĠR N
ĠL our
Ġh ex
Ġpr ÃŃncipes
Ġpres su
Ġcent enÃ¡rio
out ubro
ĠBan ks
ĠEscol ar
Ġtranspar Ãªncia
g ebra
ĠCar la
Ġr ingue
Ġclass ifica
mas ter
ĠAndaluz ia
T ri
s burgo
ĠB od
ĠK om
Ġ4 48
Mar cos
Leg ado
Sat Ã©lites
Ġcra tera
orr Ãºssia
MÃ©d icos
Ġrupt ura
G ood
T ony
u es
it aria
ĠS ter
Ġdu eto
Ġsol ucion
Ġpont u
Ġdedic ados
Ġcompara da
ĠMerc ury
ĠPass ou
Ġconsecut ivo
Ġhid rÃ¡ul
ĠeconÃ³m ico
ĠegÃŃp cia
á ¸
Ġ ÃŃmp
ent ando
ĠC iclo
ĠD rive
Ġpre feitos
Ã¢m ia
Ġ14 7
Ġestat ais
ĠNic arÃ¡gua
ĠforÃ§ ados
Trat ados
ĠÃĤng elo
C ient
Ġde cep
ĠS weet
Ġent orno
ib iÃ§Ã£o
ĠSt ark
Ġatu alizaÃ§Ãµes
Ġtrat ando
Jo e
ĠDia nte
Ġvolt adas
'' ,
aj ust
ĠsÃ³l ida
P seudo
c red
p ela
ĠM eyer
ĠD esse
ho v
ud as
Ġpal cos
In stituiÃ§Ãµes
Ġmarc aÃ§Ã£o
Gu itar
Ġisol ado
Ġpaul ist
ĠmarÃŃt imo
Ġpercent ual
w ara
ĠT as
io terapia
Ġcont abiliz
eb all
10 2
Ġ11 2
ĠOr n
ID S
Ġfech adas
A da
M ania
t an
Ġdo lor
de pois
ĠG ill
ib er
Ġpais ag
ĠHum ano
Ġdiminu indo
Ġfort ificaÃ§Ãµes
Ġsobreviv ente
Pal m
ĠTrans ilvÃ¢nia
Ġrepet ir
Ġexped iÃ§Ãµes
P AR
ĠE us
ĠF est
ĠG Ã³mez
ĠCh Ã¢
Ġautor izado
Ġmon itor
Ġexig em
ĠCel eb
Ġdubl agem
Ġintermedi Ã¡rio
Ġatrap alh
M AN
S cott
S etembro
Ġno tor
ĠD rama
Ġobjet iva
Ġbar roco
Ġrest rita
ĠJul ian
Ġbio diversidade
Ġapaixon ada
ĠPhill ips
ĠLangu age
/ ?
Ġt upi
ĠA uf
ol ÃŃtico
Ġleg almente
Ġconstitu cionais
Ġcost eiras
ĠWal d
Ġtoc ada
Ġatribu iu
Ġadquir idos
Ġplant aÃ§Ãµes
Ġespalh ou
Ġteat rais
ĠLenn on
ĠJ STOR
ag osto
cion ismo
Ġfinal istas
Ġref Ãºgio
ĠMo da
Ġacompanh ando
respon d
Ġcad eias
ĠCrim inal
Leg enda
Ġescul p
T exto
ĠC is
Ġdes a
Ġcons orte
ĠPro vis
Ġol ha
ĠBu arque
Ġalmo Ã§o
Ġg roup
ĠG la
Ġpart indo
Ġpres um
18 0
Ġinf elizmente
Ġmin oria
Ġw restling
ĠÃ³r f
ĠMad ame
Ġacus ou
Ġaclam ado
B ad
av iÃµes
ĠJo inville
Ġtro cas
âĢ¦ )
Ġencontram os
ĠÃŃdo lo
ĠNep al
ĠJuvent us
Empres Ã¡rios
. [
S ac
ĠS pa
Ġg lic
go w
Ġreg ulaÃ§Ã£o
ĠEd ifÃŃcio
Ġbal anÃ§o
Ġbio grÃ¡fico
Ġvul nera
Ġlas er
% "
I grejas
ĠC ron
ran has
Ġind ign
Ġfund aram
Ġmor c
Ġcaracter ÃŃstico
Ġsobreviv eram
ĠAfric an
ĠCheg ou
S D
S Ã©r
ad inho
ĠP iano
ĠZ an
Ġte Ã³logo
ĠSec und
Ġcruz eiro
Ġsuger indo
ild ing
C Ã³digo
Ġp Ã³st
ent ral
Ġcom m
ĠS ovi
un ham
ĠG las
Ġopera dora
Ġve jo
Ġge o
Part idos
ĠTrabal hou
ĠAbra ham
B rian
Ġp ig
Ġs az
ia c
ut iliz
19 08
Ġele f
ĠAd rian
ĠTer ras
Ġautom Ã¡tico
ĠTre k
ĠBund es
el er
ĠT era
Ġpo wer
Ġed ificaÃ§Ã£o
ĠCor e
ĠCat herine
Ã¡c uo
Ġforn o
ID O
Ġsignific ando
ĠMol ecular
Ġgin Ã¡sio
ĠParal ÃŃmpicos
Ġarter ial
M B
S erg
im us
19 00
Ġdesc ans
Ġarm ad
erat ivas
Ġcancel ada
Ġco alizÃ£o
em on
Ġl omb
ĠF res
ĠI gn
ĠH ort
Ġpre tas
ĠQu ir
ĠGe ographic
Im agens
Ġpred adores
Ġenerg ias
B ot
P en
Ñ Į
Ġcom ission
Ġ4 39
Ġsent ia
ĠSim mons
Dire Ã§Ã£o
suc edida
ĠCient ÃŃfica
F ront
M undo
ia ra
ĠD ela
Ġim peratriz
Ġdev endo
ĠPe arl
ĠMan agement
Ãģ gua
Ġmud os
Ġorg Ã¢nicos
Pos iÃ§Ãµes
B airros
ĠK ai
Ġen v
ĠInt eligÃªncia
10 3
Ġneg oc
Ġdepend er
arat ona
N ick
i Ã¡
Ġc adÃ¡ver
Ġn estas
ĠP UC
Ġse io
ag anda
Ġch oc
ĠĠĠĠĠĠĠĠ ĠĠ
Ġdeb at
Ġgeneral izada
Pre feitos
Ġmel an
Ġdesemb arque
g rav
Ġd Ã©f
Ġm osa
ĠS era
ĠM estrado
ĠT rist
ĠV ital
ora h
arg ador
ĠDi rig
ĠHist Ã³rias
Ġconven Ã§Ãµes
ĠvÃ¡l v
Ġdisponibiliz ado
ĠBuda peste
J aneiro
c eto
Ġdo g
ĠS U
ĠN OS
ĠG elo
Ġh egem
eb o
Ġtr in
Ġlev emente
ĠMan ual
ĠPer ÃŃodo
OR T
ID E
Pol ÃŃcia
Ġso ul
ĠRem o
ĠCec ÃŃlia
Ġm itos
ĠT ot
iz ation
Ġal ug
ort s
cl ave
ĠCo x
Ġdefin iÃ§Ãµes
Mar Ã§o
Ġsubmet ido
ĠSystem s
Ġnotor iedade
G ust
j un
Ġp Ã¢nt
ĠM UN
que do
Ġmar echal
Ġprov Ã©m
Ġimp rov
ĠBra z
Ed iÃ§Ãµes
Ġcomand antes
ĠÃįnd ice
Ġchap Ã©u
S y
Ġf arm
ĠA la
Ġ18 12
Ġdu quesa
ĠIl ust
Rev istas
Ġresist ir
Ġmang Ã¡s
Ã³c itos
ĠOnt Ã¡rio
J unho
il ey
Ġpro nta
te au
ĠCom e
Ġsub famÃŃlia
Ġmin or
Ġarte fatos
Ġexpress ou
ĠWest minster
Ġrecomend aÃ§Ã£o
Ġconso ante
ĠS pl
Ġque ima
ĠM aca
ĠCh Ã¡
Ġgrav emente
Ġestud antil
ĠMor reu
Ġpatro no
Ġresist ente
ĠTeod oro
h Ã¡
j ulho
Ġp ri
en vol
il eno
ĠAl deia
Ġacont ecido
Ġturn Ãªs
ĠPod em
ĠSom Ã¡lia
Ġsolic itaÃ§Ã£o
ĠMÃ©d ici
Af ric
C atal
F ez
Ġem poss
Ġb ando
ĠI ndia
ion agem
Ġcontinu ava
Ġprat icado
ĠOce an
Ġgole ada
E tapa
s ha
á »
or ca
ÃŃ nt
gu nt
ib ern
ĠEst amos
Ġant iguidade
Ġcria m
ĠVal Ãªncia
Ġtecn olÃ³gica
Ġmic rof
Ġfict ÃŃcios
ĠCB F
Ġeclesi Ã¡stica
m g
ĠD res
ĠT ess
ĠW rest
ĠK ais
Ġ3 78
Ġass al
ĠAp ache
Pro mo
Ġbal ada
Pl an
Ġconvoc aÃ§Ã£o
Ġvet or
ĠPublish ed
en idade
ĠS pot
Ġmar iposa
ĠDec isÃ£o
ĠPont o
umin osa
Ġespalh ados
ĠCapit ania
Ġbizant ina
esch ichte
M inas
l s
Ġs hopping
Ġar r
ÃŃn s
iel sen
ĠWh atsApp
ĠclÃ¡ss icas
Ġacel eraÃ§Ã£o
Ġacha va
ĠChild ren
ĠEman uel
3 60
B AL
p df
or ros
Ġ2 20
ĠB oc
ĠF at
ĠT ran
ĠH IV
pe ito
Ġpre ferÃªncias
Ġmet ralh
Ġconstitu ir
Ġviol ento
ĠMed ic
Ġgera da
Ġinfluenci ada
Ã¼r tt
ĠSag rado
Mod elo
ĠBÃ¡s ica
ĠPÃ³ voa
Ġp t
ĠC em
Ġre nt
ĠR CA
Ġpo Ã©tica
up s
Ġcontra st
Ġfal hou
Ġlev ava
In iciou
Ġsocial istas
ĠSec ond
ENT OS
Ġign ora
ĠHuman idade
pr ise
B an
Ã ¬
or iana
Ġn ord
ic ta
ĠC ret
ut ores
ĠV ern
Ġ3 88
Ġ18 08
ĠCom itÃ©
Ġcol isÃ£o
Ġdef endia
ĠEx emplos
Ġneg a
Ġcolabora r
ĠBon aparte
su per
dire ita
Ġregulament aÃ§Ã£o
x ido
Ġp ernamb
Ġmar inhos
IS A
Ġtransfer idos
Fac uldade
Ġmonst ro
Ġs anta
Ġs into
it te
Ġass essor
Ġrep el
ĠCat ar
Ġnacional ismo
Ġaplic ados
ĠFund amental
Ġinfluenci ar
ĠLes lie
Conf ira
acab ana
g or
Ġe rupÃ§Ã£o
Ġa res
ĠC AP
ĠR ip
ert ando
Ġorig inÃ¡ria
Ġcond essa
Ġata ca
Ġcal d
Ġmascul inas
Ġrecor rer
Ãį T
Ph one
f onte
t Ã³ria
ĠG ira
ot er
Ġab d
Ġconhec em
Ġmet af
Ġ14 8
Ġir rig
ven en
ĠRes ources
Ġmac ro
Ġsuspe itos
ĠCrit ics
N eg
Z ona
Ġdo ou
ĠR EG
Ġg ros
Ġex postos
est os
Ġcin zas
ps is
Ġpartid Ã¡rios
Ã¼rtt emberg
Ġ ria
as i
Ġn on
ic ht
Ġm anto
it ud
el low
ĠT RA
ĠG el
Ġbat ismo
Ġbomb eiros
Ġprision eiro
Ġprorro gaÃ§Ã£o
Ġqu im
iz ava
icl ista
Ass embleia
ĠOt her
ĠHon da
Hen rique
Ġmun iÃ§Ã£o
Ġm ina
Ġl ap
ĠG raf
Ġes lov
ur ismo
Ġh ier
Ġinter lig
ĠEsp era
Ġira qu
W ay
ĠP on
ĠG ana
Ġfund amento
Ġmo Ã§a
Ġassem elha
en er
Ġv arejo
ĠT ang
orn is
ter ra
ĠCam eron
Ġmin eira
Re aÃ§Ãµes
Ġlemb rado
ĠPhil adelphia
S endo
Ġre cl
ho o
ĠQu arta
ĠĠĠĠĠĠĠĠ ĠĠĠ
Sim ples
Ġmode rado
Ġlembro u
u reira
ĠM orning
ĠMar ÃŃlia
ĠÃī tica
EL O
Sh are
Ġbrin car
Ġinvad iu
Ġfinanci ar
Ġdat am
P D
n b
Ġcom eter
oc eno
ev ille
Ġass ento
Ġver bos
ende dores
Ġgen eric
Ġaument aram
umb le
ĠGal o
gas car
Ġamor oso
Ġbusc ou
Et iquetas
ĠGin Ã¡stica
Ġescav aÃ§Ãµes
Ġentusias mo
Ġrema ke
Ġ æ
Ġ ral
Ġt ch
ĠO bra
ĠG ior
Ġpro pos
Ġan orm
ĠV ascular
Ġam antes
Ġestud ado
aran j
Ġinvestig adores
ĠKe ith
Rom ances
Sp ace
ĠSag rada
ĠGall ery
Ġbrut o
Ġferi ado
al c
id Ãµes
ec raft
ĠT ÃŃtulo
ĠL ook
iz antes
ion i
ĠAl d
port ugu
Ġmon op
Ġremo nt
Ġcanh Ã£o
ĠClar ke
Ġmetabol ismo
t icas
in co
al Äģ
ĠB rÃ¡s
ĠL ip
ĠG us
Ġim ensa
Ġus Ã¡
ĠAr ruda
ĠPara d
Ġte Ã³ricos
Ġw ill
ĠHer e
Ġbol as
Ġterror ista
orf ismo
ĠCult ure
ioces ano
M ult
t ona
Ġc itou
ĠA vel
ÃŃ ntese
ĠM ia
ec emos
ian Ã§as
ĠAnd reas
Ġnum eraÃ§Ã£o
Ġterrit oriais
ĠMal i
ĠRes ende
Ġmem orial
ĠPod emos
ĠVill age
ĠWes ley
M ur
ĠP red
et ime
ĠD oll
ron es
10 8
Ġcob rindo
Ġcorre io
ĠLeopold ina
S et
Ġc aras
ar co
Ġt amp
it ta
Ġ12 7
Ġemp ates
ID H
ĠalcanÃ§ aram
ĠCO MP
Ġult ra
ĠLim ited
Ġisl Ã¢mica
ĠMA IS
J un
ĠR ios
ĠHar mon
Ġvig Ã¡rio
Ġpreocup ado
Ġresid enciais
ĠdemocrÃ¡t ica
-------- --------
T rilha
at Ã¡rios
Ġb ob
Ġdes mont
Ã©m ico
Ġestre ar
Ġdet ido
Ġprev istos
Cont exto
Ġfra qu
ĠrÃ¡p idas
Ġsuperf icial
rv ore
ĠTechn ology
ĠC ÃŃcero
Ġest ender
Ġsob e
Ġmed i
Ġ13 9
Ġcomplet os
Ġcontrat ados
Ġautom ot
ĠDa w
Ġmob ilizaÃ§Ã£o
Ġvetera no
i Äĩ
Ġs cript
Ġse parou
Ġinter cept
Ġpl Ã¡sticos
elo deon
Ġinv entor
ĠCons um
Ġprocess ador
ĠJul iano
Ġbi olÃ³gico
ĠBot an
Ġestran ha
Ġnew s
ĠBey oncÃ©
+ +
f en
n is
Ġd Ãª
ĠP ist
Ġv Ã´lei
Ġin ver
Ġpr isÃµes
igu ar
IL VA
ĠBul let
ĠGin Ã¡sio
ĠEstud antes
Ġmonst ros
Sep ultados
u h
z zo
Å ¼
Ġcom anda
cul as
Ġcond ens
ĠCo ast
Ã¡b ios
Ġfrequ entar
Ġfront eiri
Ġintroduz ir
Ġdecor re
Ġaprove itando
Ġterror ismo
Ġlist adas
Ġsax of
Ġqu int
ab ilizaÃ§Ã£o
Ã´ r
Est as
Ġaud itÃ³rio
ĠFri ends
Ġsaud Ã¡veis
Ġopt ar
Ġmission Ã¡rio
Ġbrinc adeira
Euro pa
ĠCavalc anti
C rit
ĠS eix
ĠR ess
Ġdes mat
Ġcomp Ãµe
ĠCom endador
Ġ10 7
ĠMed ina
Ġnatural ista
uk u
Ã¡ce is
Men u
B E
S av
el les
do is
ĠF lo
Ġcl ado
Ġ7 50
olog istas
10 6
orro w
ins ky
ĠDes p
Ġinc iso
ĠRo ta
Ġtraz ia
ĠelÃ©t ricas
cam peÃ£
ij i
Ġcarreg ado
L or
en k
ĠP ick
Ġper ig
Ġ4 38
Ġnome ar
Fil Ã³sofos
Ġcel este
IT E
Ġgast rÃ³
ĠCra w
v ing
inas ta
Ġgen Ã©tico
Ġrad ar
Ġdivulg ados
Ġrenome ada
Soc ial
ĠÂ £
Ġinvas Ãµes
Ġequival entes
Ġale gre
Ġnomen clatura
E ric
T ele
Ñ ı
qu il
im agem
ho d
Ġfil a
Ġdesc anso
Ġinter rupÃ§Ã£o
ĠMc Laren
esp as
ĠSab e
ĠNic ole
Ġfortal ecimento
Nov embro
Ġabund ante
ĠHaleak alÄģ
ĠMathemat ical
Ġturb ul
ĠDevelop ment
Bah ia
ĠPiment el
F inais
ent aÃ§Ã£o
Ġab al
ĠEm ÃŃlio
Ġext enso
Ġpa u
Ġfun cionais
reg ando
ĠMob ile
w agen
ĠB etty
ĠU so
ap resent
ast ic
ĠOl inda
minist ros
Ġsignific ados
Ġcolet ar
Ġaud iÃªncias
ĠHo pe
Ġbi om
Ġdecad Ãªncia
OR D
aran da
Ġpers as
ĠBon n
Ġgram Ã¡tica
ĠPÃ¡t ria
n on
ri ver
ran ger
Ġam inoÃ¡c
Ġag e
ĠHar vey
Ġtecn olÃ³gico
Ac red
Ġtelef onia
U RA
Ġm uros
ĠA mo
ig raÃ§Ã£o
Ġest o
if ol
Ġ13 8
ĠCas as
Hist oriadores
Ġpress Ãµes
Leg isl
ĠegÃŃp cios
ĠRan king
k ian
ou c
ĠB acia
ĠV on
Ġmen u
ĠMont evidÃ©u
Ġnasc idos
Ġefet u
Ġespanhol as
ĠAmor im
Ġescal Ã£o
Ġastron autas
C ara
D Ãª
h ing
in ame
ent Ã£o
il able
Ġint estino
Ġneg ar
ĠBro ther
ĠArm strong
ĠMark ku
Ġsubt ropical
Prem iaÃ§Ãµes
Ġanarqu istas
Glob o
G estÃ£o
ĠO ro
Ġar it
Ġ14 6
Ã¼ h
Ġperman entemente
Ġregist ra
Ġparc eira
Ġparal elas
Ġcerim Ã´nias
ĠConfede raÃ§Ãµes
F ale
Ġn ec
qu inta
ĠA min
anÃ§ ar
ĠQu ero
Ġinf ilt
Ġconf irma
Ġ11 1
Ġmor e
Out ubro
ĠBr id
Ab aixo
inter pre
Ġaprove itou
Ġlibert ado
Ġmob ili
ĠLus itana
nov embro
Ġselv agens
ĠDut ra
Ġinterromp ida
ĠCateg oria
Ġtrist eza
2 20
Ì ģ
Ġf erv
to wn
Ġseg redos
ĠGu itar
Ã©l icos
Ġpros a
ĠUrb an
Ġderrot aram
ĠInvest igaÃ§Ã£o
Intern acional
Ġdemas iado
I RA
T otal
Ġd ragÃ£o
ĠD este
ĠG an
ĠAr co
Ġad iant
Ġpol onesa
Ġsist emat
ĠEl ena
ĠTra p
mar Ã§o
[...]
